<pad>	0
<unk>	0
<s>	0
</s>	0
.	-2.68187
▁a	-2.76234
▁in	-3.39183
▁ein	-3.52741
▁eine	-3.73482
,	-4.15874
m	-4.17208
▁the	-4.21501
s	-4.3198
▁und	-4.52601
▁mit	-4.53238
▁auf	-4.53335
▁on	-4.61305
▁man	-4.64456
▁mann	-4.66771
▁is	-4.69595
▁and	-4.71811
▁of	-4.78736
▁einer	-4.81641
▁	-4.84296
ing	-4.85586
▁with	-4.8883
n	-4.90497
▁an	-4.97045
em	-5.00331
▁der	-5.1066
▁frau	-5.28211
▁die	-5.33217
▁woman	-5.33667
▁zwei	-5.35273
▁two	-5.3588
-	-5.36396
▁are	-5.40375
▁einen	-5.53076
▁to	-5.55029
▁people	-5.57704
▁im	-5.57854
▁at	-5.66084
▁wearing	-5.75394
▁von	-5.85488
▁sich	-5.88915
▁young	-5.89028
▁white	-5.91097
▁shirt	-5.91159
▁mädchen	-5.95062
r	-5.95354
▁dem	-5.95627
en	-5.96046
▁junge	-5.96621
▁black	-6.00902
▁zu	-6.017
▁vor	-6.01777
▁his	-6.03919
▁while	-6.05029
▁blue	-6.0816
▁steht	-6.14055
▁red	-6.14393
▁men	-6.14826
▁girl	-6.15989
▁sitting	-6.161
▁boy	-6.17928
▁dog	-6.18458
▁männer	-6.19469
▁den	-6.2009
▁sitzt	-6.23113
▁hund	-6.23229
▁standing	-6.2403
▁playing	-6.25855
▁group	-6.26174
▁person	-6.29156
▁street	-6.32662
▁straße	-6.36359
▁während	-6.38091
▁down	-6.38177
ed	-6.39302
▁walking	-6.39784
▁her	-6.40985
▁look	-6.41598
▁gruppe	-6.42339
▁hält	-6.44594
▁spielt	-6.4462
▁bei	-6.45557
▁das	-6.46448
▁front	-6.47223
▁holding	-6.5056
▁ball	-6.51804
▁hat	-6.52378
▁hemd	-6.52452
▁über	-6.53189
▁seine	-6.53344
t	-6.55713
▁personen	-6.57431
▁drei	-6.62629
▁water	-6.63424
▁one	-6.64193
▁three	-6.66041
▁by	-6.67282
e	-6.70227
▁for	-6.7207
▁frauen	-6.72374
▁kind	-6.72396
▁blauen	-6.72676
▁women	-6.72991
▁aus	-6.7445
▁neben	-6.75037
er	-6.75189
▁ist	-6.76388
▁stehen	-6.76854
▁roten	-6.76951
▁weißen	-6.77039
▁sitzen	-6.77179
▁menschen	-6.77359
▁up	-6.77377
▁hand	-6.77389
▁durch	-6.78365
▁ihre	-6.79407
▁green	-6.7949
▁spielen	-6.80001
▁little	-6.80351
▁child	-6.8278
to	-6.82967
d	-6.8314
▁wasser	-6.84304
▁outside	-6.85502
▁geht	-6.8714
▁trägt	-6.87945
▁large	-6.8838
▁um	-6.892
▁fährt	-6.89616
▁kinder	-6.91177
▁through	-6.92149
ir	-6.92737
▁brown	-6.94137
▁yellow	-6.9603
▁children	-6.97834
▁kleines	-6.98287
y	-7.0038
▁macht	-7.00734
▁springt	-7.03044
▁from	-7.03457
▁kleiner	-7.04451
▁entlang	-7.06084
▁schwarzen	-7.07482
▁small	-7.09246
▁t	-7.10528
▁park	-7.10937
▁over	-7.11296
▁other	-7.11781
▁be	-7.1239
▁next	-7.12654
▁leute	-7.13131
▁mehrere	-7.14787
▁dressed	-7.16921
▁some	-7.17285
▁out	-7.17515
▁orange	-7.18179
▁gehen	-7.19234
▁building	-7.21146
shirt	-7.23714
▁jacket	-7.25498
▁riding	-7.25511
▁etwas	-7.2552
▁running	-7.25847
▁near	-7.26363
▁großen	-7.29142
▁baby	-7.29351
▁another	-7.29524
▁around	-7.29603
▁oberteil	-7.30197
▁field	-7.33167
▁sidewalk	-7.34087
▁fahrrad	-7.34423
es	-7.34551
▁crowd	-7.34669
▁jeans	-7.34712
ly	-7.35706
▁jungen	-7.36096
▁beach	-7.36739
▁pink	-7.36739
'	-7.37218
▁grünen	-7.40383
▁stand	-7.40413
▁snow	-7.41338
▁strand	-7.42458
▁läuft	-7.42476
▁stands	-7.42788
▁jumping	-7.42924
▁sind	-7.43068
▁behind	-7.43271
▁sits	-7.43509
▁table	-7.43598
▁für	-7.44509
▁hintergrund	-7.44929
▁freien	-7.4632
▁shorts	-7.46727
▁luft	-7.47031
▁jacke	-7.47046
▁grass	-7.47578
▁bike	-7.47594
▁background	-7.49176
▁schaut	-7.49633
▁anderen	-7.49869
▁hinter	-7.5005
▁city	-7.50267
▁kleidung	-7.512
▁junger	-7.51695
▁sand	-7.52264
▁nach	-7.52657
▁se	-7.53479
▁sein	-7.5392
▁schwarz	-7.55149
▁player	-7.55159
▁sie	-7.55227
▁asian	-7.55702
▁andere	-7.56415
▁wall	-7.56702
▁top	-7.56801
▁blond	-7.57173
▁girls	-7.59205
▁kleine	-7.59524
▁vier	-7.5972
▁four	-7.60183
▁tisch	-7.60265
▁gebäude	-7.6084
▁hut	-7.60998
▁skateboard	-7.6139
▁gelben	-7.61479
▁that	-7.61896
▁off	-7.61939
veral	-7.62009
▁dress	-7.62923
▁schnee	-7.632
▁older	-7.63228
▁camera	-7.64073
▁air	-7.64174
▁band	-7.64698
▁nähe	-7.64905
▁essen	-7.65373
▁hunde	-7.65493
▁ihr	-7.65841
▁play	-7.66367
▁wird	-7.66697
▁kamera	-7.67449
▁hold	-7.67497
▁hoch	-7.67812
▁dogs	-7.67833
▁talking	-7.68098
▁gras	-7.68499
▁something	-7.68521
▁lady	-7.68523
▁unter	-7.69289
▁soccer	-7.69848
▁kleinen	-7.70411
▁vorbei	-7.70433
▁menschenmenge	-7.70652
▁food	-7.7066
▁guitar	-7.70671
▁schwarzer	-7.71269
▁along	-7.71293
▁hair	-7.71336
▁rock	-7.71983
▁weiße	-7.72194
▁walks	-7.72626
▁together	-7.73658
▁boden	-7.74234
▁working	-7.74355
▁gray	-7.74499
▁paar	-7.74684
▁restaurant	-7.75142
▁smiling	-7.75902
▁pool	-7.76199
▁game	-7.7676
▁picture	-7.77158
▁car	-7.77287
st	-7.77671
▁football	-7.78362
▁has	-7.78869
▁boys	-7.78924
▁rennt	-7.79959
▁it	-7.83776
▁plays	-7.83905
▁walk	-7.84683
▁rot	-7.8545
▁basketball	-7.86005
▁zusammen	-7.86247
▁ge	-7.87097
▁kleid	-7.87199
▁sit	-7.87286
▁baseball	-7.87307
▁carry	-7.87572
▁road	-7.8762
▁er	-7.88062
▁him	-7.88374
▁old	-7.88483
▁bench	-7.88842
▁couple	-7.88911
▁gitarre	-7.89471
▁pants	-7.89913
▁glasses	-7.90233
▁head	-7.9053
▁dirt	-7.90549
▁stage	-7.91206
▁feld	-7.91263
▁side	-7.91916
▁älterer	-7.92744
▁tree	-7.93942
▁bühne	-7.94231
▁herum	-7.94232
▁bicycle	-7.94271
▁face	-7.94274
▁draußen	-7.94903
▁fahren	-7.94957
▁stadt	-7.9665
▁male	-7.97013
▁rennen	-7.97077
▁viele	-7.97135
▁kopf	-7.97313
▁foto	-7.97466
▁brille	-7.98334
▁gehweg	-7.98751
▁race	-7.98924
▁uniform	-7.98978
▁long	-7.99118
▁tak	-7.99376
▁gekleidete	-7.9965
each	-8.00805
▁back	-8.01267
▁sehen	-8.01284
▁middle	-8.02011
▁des	-8.02149
▁dark	-8.02751
▁dabei	-8.03498
cross	-8.03816
▁hinunter	-8.03867
▁doing	-8.04051
▁blickt	-8.04294
▁als	-8.04314
▁guy	-8.052
▁weißer	-8.05437
▁weiß	-8.05633
▁area	-8.06079
▁bank	-8.06554
▁tennis	-8.06649
▁watching	-8.06815
▁boat	-8.07136
▁there	-8.07253
▁laufen	-8.07756
al	-8.07783
▁braunen	-8.08173
▁hose	-8.08208
▁who	-8.08529
▁liegt	-8.08875
▁versucht	-8.09269
▁blau	-8.09428
▁he	-8.09791
▁bus	-8.10069
▁wie	-8.10078
▁day	-8.10116
▁arbeitet	-8.10463
▁female	-8.1115
▁jumps	-8.11355
▁arm	-8.11706
▁tragen	-8.11717
▁ältere	-8.119
▁ground	-8.12494
▁große	-8.12709
▁room	-8.13307
▁kids	-8.13565
▁dame	-8.13806
▁performing	-8.14579
▁sign	-8.15722
▁hands	-8.16131
in	-8.16264
▁eating	-8.16351
▁machen	-8.16662
▁schauen	-8.16675
▁suit	-8.17048
▁lächelt	-8.17089
▁coat	-8.17505
▁team	-8.17654
▁brauner	-8.18219
▁mouth	-8.18816
▁horse	-8.1925
▁using	-8.20229
▁watch	-8.20458
▁thi	-8.20521
▁go	-8.20913
▁store	-8.21039
▁striped	-8.21954
▁orangefarbenen	-8.22308
▁ihm	-8.22365
▁purple	-8.22817
▁bürgersteig	-8.22817
▁weg	-8.23139
▁wand	-8.24634
▁arbeiten	-8.2469
▁under	-8.25412
▁toward	-8.25605
▁many	-8.25676
haired	-8.2581
▁line	-8.25973
▁zeigt	-8.26049
▁enjoy	-8.26513
▁sieht	-8.26513
▁unterhalten	-8.26987
▁mountain	-8.27069
▁tag	-8.27172
▁spricht	-8.27468
▁runs	-8.27787
▁liest	-8.27954
looking	-8.28307
▁fußball	-8.28687
▁sunglasses	-8.28894
▁construction	-8.28894
▁bar	-8.29013
▁outfit	-8.2957
▁halten	-8.29728
▁reading	-8.29933
▁microphone	-8.30473
▁rosa	-8.30589
▁players	-8.31213
▁haaren	-8.31235
▁clothing	-8.31476
▁toy	-8.32944
▁ocean	-8.33325
▁dur	-8.33342
▁train	-8.33387
▁boot	-8.33593
▁elder	-8.33833
▁schwarze	-8.34504
▁auto	-8.34581
▁sonnenbrille	-8.34605
▁pferd	-8.34683
▁work	-8.34711
▁workers	-8.35193
▁helmet	-8.35601
▁past	-8.35864
▁watches	-8.35958
▁show	-8.3603
▁ab	-8.3635
▁outdoor	-8.36636
▁junges	-8.36764
▁again	-8.3699
▁its	-8.37125
▁climbing	-8.37601
▁einige	-8.37697
tting	-8.38129
▁baum	-8.38607
▁graffiti	-8.38749
▁gesicht	-8.38907
▁hosen	-8.39067
▁bild	-8.3918
▁sun	-8.39231
▁helm	-8.39241
▁window	-8.39841
▁try	-8.4096
▁felsen	-8.41205
▁all	-8.41549
▁dancing	-8.41732
▁grauen	-8.42183
▁singt	-8.42299
▁chair	-8.42619
▁ihnen	-8.42974
▁throw	-8.43192
▁rides	-8.43924
▁rote	-8.44822
▁about	-8.45083
▁mantel	-8.45178
▁blauem	-8.45517
▁trick	-8.45526
▁fünf	-8.46214
▁wooden	-8.46345
▁posiert	-8.46789
▁posing	-8.46791
▁floor	-8.46796
▁darauf	-8.47367
▁hav	-8.47847
▁or	-8.47909
▁five	-8.47968
▁klettert	-8.48541
▁covered	-8.48684
▁waiting	-8.48808
o	-8.48983
▁trees	-8.49057
▁führt	-8.49121
▁swimming	-8.49716
▁befindet	-8.4972
▁ice	-8.49745
▁jump	-8.49904
▁frisbee	-8.50308
▁high	-8.50337
a	-8.5071
▁blonde	-8.50761
▁bag	-8.51188
▁wald	-8.51441
▁zum	-8.52313
▁mikrofon	-8.52313
▁fence	-8.52615
▁very	-8.52794
▁computer	-8.53084
▁fenster	-8.53233
▁colorful	-8.53271
▁diese	-8.53934
▁sehr	-8.54584
▁wirft	-8.54615
▁arbeiter	-8.54695
▁blauer	-8.54972
▁meer	-8.55147
▁busy	-8.55345
▁singing	-8.55939
▁gekleideter	-8.56358
▁hill	-8.56365
▁lean	-8.5649
▁pull	-8.57112
▁pullover	-8.57135
▁spielzeug	-8.57257
▁es	-8.57454
▁berg	-8.57495
▁anzug	-8.57556
▁beard	-8.57766
▁motorrad	-8.58027
oder	-8.58264
▁schwarzem	-8.58412
▁raum	-8.58562
▁cap	-8.59617
▁cart	-8.59991
▁catch	-8.59997
▁open	-8.60248
▁volleyball	-8.60832
▁haar	-8.61316
▁tan	-8.61563
▁market	-8.61678
▁truck	-8.61688
▁book	-8.61698
▁asiatische	-8.61779
▁laying	-8.61942
▁wiese	-8.62403
▁ride	-8.62801
▁bright	-8.62961
kleidung	-8.63094
▁anderer	-8.63103
▁see	-8.63165
▁isst	-8.63246
▁grüne	-8.63497
▁spieler	-8.63658
▁big	-8.63706
▁wartet	-8.63713
▁someone	-8.63713
▁langen	-8.64027
▁light	-8.64203
▁roter	-8.6431
▁cellphone	-8.64376
▁inside	-8.64864
▁she	-8.64944
▁path	-8.65077
▁kitchen	-8.65079
▁bluse	-8.65121
▁stick	-8.65135
▁statue	-8.6521
ung	-8.65734
▁werden	-8.65774
▁brick	-8.658
▁trikot	-8.65906
▁posieren	-8.66472
▁making	-8.66474
▁sweatshirt	-8.66489
▁kindern	-8.66563
▁ski	-8.66603
▁grassy	-8.66778
▁motorcycle	-8.67251
▁track	-8.67254
▁springen	-8.67397
▁gestreiften	-8.67575
▁clothes	-8.67901
▁parade	-8.67907
▁bunte	-8.67918
▁hügel	-8.67929
▁umbrella	-8.6798
▁tanzen	-8.68119
▁hockey	-8.68236
▁body	-8.68437
▁oberkörper	-8.686
▁tank	-8.68627
▁metal	-8.68985
▁takes	-8.6899
▁shirts	-8.69047
▁perform	-8.69142
▁get	-8.695
w	-8.69675
▁full	-8.69839
▁handy	-8.69942
▁belebte	-8.70045
▁surfer	-8.7008
▁swing	-8.70177
▁männern	-8.7037
spieler	-8.70435
▁holz	-8.70628
▁night	-8.70774
▁stuhl	-8.70842
▁voller	-8.70869
▁paper	-8.70885
▁others	-8.71376
▁ready	-8.71523
ch	-8.71932
▁alter	-8.71973
bereitet	-8.71993
▁river	-8.72248
▁stock	-8.72278
▁party	-8.72327
▁schild	-8.72353
▁spiel	-8.72685
▁snowboarder	-8.73076
▁blumen	-8.73112
▁shop	-8.73259
▁braun	-8.7347
▁sweater	-8.73761
▁buch	-8.73867
▁betrachtet	-8.74506
▁zwischen	-8.74506
▁board	-8.74899
▁warten	-8.75108
▁hard	-8.75274
colored	-8.75328
igen	-8.7543
▁grill	-8.75827
▁art	-8.75869
▁hats	-8.75965
▁blaue	-8.76725
▁vo	-8.76758
te	-8.77366
▁run	-8.77384
▁lake	-8.7759
▁oben	-8.77672
▁cowboy	-8.77808
▁piece	-8.7785
▁schläft	-8.78382
▁zieht	-8.79237
▁painting	-8.79564
▁worker	-8.79655
▁surround	-8.79982
▁african	-8.79997
▁mütze	-8.80133
▁stone	-8.80355
▁ver	-8.80488
▁bauarbeiter	-8.80733
▁grün	-8.80755
▁above	-8.80784
▁kid	-8.81089
bahn	-8.81534
▁reitet	-8.81596
▁lehnt	-8.81599
▁dance	-8.81631
▁leuten	-8.82322
▁shopping	-8.8242
▁sport	-8.82491
▁wave	-8.82741
▁händen	-8.8296
▁kleinkind	-8.83075
▁music	-8.83163
▁fluss	-8.83171
▁instrument	-8.83219
▁beobachtet	-8.83242
▁couch	-8.83243
▁adults	-8.83519
▁vest	-8.83581
▁maul	-8.84073
▁rodeo	-8.84079
▁miteinander	-8.84304
▁photo	-8.84397
▁backpack	-8.84412
▁snowy	-8.84455
▁winter	-8.84892
▁rucksack	-8.84915
▁subway	-8.84915
▁toddler	-8.84915
▁beside	-8.84929
▁u	-8.84997
c	-8.85092
▁bäumen	-8.85177
der	-8.85213
▁lächeln	-8.85473
▁tanzt	-8.85814
▁männliche	-8.85874
▁radfahrer	-8.85883
▁american	-8.86777
▁teil	-8.87335
▁gegen	-8.87724
▁house	-8.87923
▁push	-8.8805
▁kick	-8.8834
▁event	-8.88361
▁pole	-8.88781
▁outdoors	-8.88822
▁skateboarder	-8.88894
▁uniforms	-8.88962
▁smiles	-8.8912
▁crowded	-8.89143
▁küche	-8.89261
▁gear	-8.8994
▁befinden	-8.90111
▁schneebedeckte	-8.90117
▁schiebt	-8.90127
▁bereit	-8.90818
weißer	-8.909
▁haben	-8.91036
▁phone	-8.91051
▁fire	-8.9114
▁new	-8.91373
▁bikini	-8.91443
▁drinking	-8.91673
▁family	-8.91905
▁schwimmbecken	-8.91931
▁set	-8.92114
▁short	-8.92402
▁teenager	-8.92632
▁orangefarbene	-8.92998
▁pass	-8.932
▁da	-8.93703
se	-8.93958
▁seite	-8.94087
▁zaun	-8.94241
▁gelb	-8.94484
▁beautiful	-8.94657
▁bridge	-8.94658
▁gathered	-8.94754
▁welle	-8.94898
f	-8.94937
▁costume	-8.95199
▁pose	-8.9525
▁jemand	-8.95551
▁police	-8.95593
▁umgeben	-8.956
▁lot	-8.95798
▁kurzen	-8.96038
▁hanging	-8.96144
den	-8.96175
hair	-8.96621
▁rücken	-8.96622
▁mitten	-8.96627
▁treppe	-8.96776
ten	-8.97056
▁gelbe	-8.97177
▁preparing	-8.97515
h	-8.97572
▁flowers	-8.97642
▁familie	-8.97647
▁guys	-8.97945
▁object	-8.98055
ny	-8.98402
▁zug	-8.98403
▁karierte	-8.98469
▁wo	-8.98591
▁fuß	-8.9897
▁machine	-8.99029
▁rope	-8.99117
▁braune	-8.99407
▁versammelt	-8.99423
▁after	-8.99424
▁verkauft	-8.99453
▁sleeping	-8.99493
▁geschäft	-8.99557
▁away	-8.99645
▁take	-8.99649
▁arms	-8.99653
▁erwachsene	-9.00382
▁attempt	-9.00401
▁forest	-9.00425
▁like	-9.00596
▁steps	-9.00727
▁fountain	-9.00979
▁adult	-9.01058
▁trinkt	-9.01396
▁fangen	-9.0141
▁does	-9.01433
▁plai	-9.01605
▁clean	-9.02044
▁großer	-9.02044
▁fishing	-9.02054
▁appear	-9.02415
▁markt	-9.02548
▁prepare	-9.03406
▁shirtless	-9.03485
▁rosafarbenen	-9.03787
▁seil	-9.04033
▁ihn	-9.04161
u	-9.04327
▁gerade	-9.04421
▁hängt	-9.04436
▁base	-9.04441
▁schneidet	-9.04467
▁zur	-9.04624
le	-9.04729
▁drink	-9.05427
▁haus	-9.05459
▁reihe	-9.05779
on	-9.06138
▁gekleidet	-9.06144
▁musik	-9.0637
▁telefoniert	-9.06496
▁zeitung	-9.0651
▁spazieren	-9.06569
▁stairs	-9.06571
p	-9.07621
k	-9.07751
▁wagen	-9.07971
▁shoes	-9.08038
▁gewässer	-9.08325
weißen	-9.08493
▁malt	-9.08624
▁selling	-9.08989
▁putt	-9.09066
▁flag	-9.09421
▁un	-9.09556
▁glass	-9.09647
▁racing	-9.09686
▁dock	-9.09689
▁match	-9.09722
▁nimmt	-9.0976
▁setting	-9.09797
▁rocks	-9.10598
▁sonnige	-9.10781
▁schwimmt	-9.10823
▁view	-9.10989
▁blicken	-9.10991
▁herunter	-9.11242
▁s	-9.1158
▁tall	-9.1175
▁bet	-9.11835
▁sprung	-9.11868
▁sofa	-9.11873
▁geländer	-9.1199
▁platz	-9.12033
▁zuschauer	-9.12238
▁fußballspieler	-9.12452
▁verschiedene	-9.12556
▁v	-9.12646
▁slide	-9.12822
▁kopfbedeckung	-9.12996
▁corner	-9.13003
▁schlägt	-9.13014
▁brücke	-9.13033
▁ramp	-9.13231
▁hände	-9.13363
▁autos	-9.13649
▁whi	-9.1396
▁both	-9.14107
▁mutter	-9.14138
▁fest	-9.14172
▁chairs	-9.14553
▁wood	-9.14706
▁himmel	-9.1491
▁flower	-9.15068
▁home	-9.1524
▁public	-9.15242
▁ladies	-9.15243
▁publikum	-9.15248
▁equipment	-9.15248
▁fliegt	-9.15261
ween	-9.15308
▁bart	-9.15456
▁have	-9.15483
▁tasche	-9.1587
▁richtung	-9.16119
▁hinauf	-9.16245
aged	-9.1626
▁kämpfen	-9.16392
▁hebt	-9.16394
▁bath	-9.16422
▁school	-9.16425
l	-9.16439
▁laughing	-9.16633
▁papier	-9.16661
▁aussehende	-9.1673
▁fish	-9.16743
▁trail	-9.17397
▁metall	-9.17694
▁dunklen	-9.17708
▁weste	-9.18044
▁bowling	-9.18124
i	-9.18141
de	-9.18414
▁alte	-9.18746
▁hof	-9.18842
▁instruments	-9.1944
▁gold	-9.19461
▁number	-9.19734
▁plastic	-9.19922
▁beer	-9.20032
▁hohen	-9.203
▁star	-9.20306
▁roller	-9.20372
▁gebäudes	-9.20418
▁use	-9.2048
▁hit	-9.20715
▁concrete	-9.21126
▁playground	-9.21128
▁marathon	-9.21149
▁reach	-9.2115
▁hemden	-9.21317
▁woods	-9.21329
▁rain	-9.21522
▁asiatischer	-9.21649
ge	-9.22034
▁schirm	-9.22124
▁überqueren	-9.22346
▁station	-9.2255
▁poses	-9.22859
▁pictures	-9.23085
▁freie	-9.23394
▁midair	-9.23581
▁yard	-9.23616
▁zuschauen	-9.23616
▁tritt	-9.23638
▁typ	-9.24033
▁straßen	-9.24129
▁blondes	-9.24184
▁nahe	-9.24281
et	-9.24707
▁skirt	-9.24745
▁attire	-9.24831
▁just	-9.24835
▁mauer	-9.24916
▁bed	-9.25147
▁decke	-9.25889
▁davon	-9.26096
▁seated	-9.26157
b	-9.26179
▁laptop	-9.27345
▁rasen	-9.27377
▁cream	-9.27378
▁dunkelhäutige	-9.27378
▁genießt	-9.27378
▁sechs	-9.2738
▁nackte	-9.27385
▁städtische	-9.27404
▁what	-9.27406
▁schal	-9.28277
▁graue	-9.28286
▁spielplatz	-9.28649
▁six	-9.28679
▁stück	-9.28683
▁mittleren	-9.28721
▁reads	-9.29006
▁blick	-9.29114
▁cutt	-9.29175
▁hang	-9.29298
fahrer	-9.29442
▁benutzt	-9.29993
▁left	-9.29994
▁lacht	-9.29994
▁sky	-9.29994
▁distance	-9.30009
▁teams	-9.30177
▁cooking	-9.30277
▁mannes	-9.30437
▁rider	-9.30494
g	-9.30743
▁zuschauern	-9.30889
▁orangen	-9.30914
▁kurz	-9.31047
▁kunststück	-9.31252
▁tent	-9.31311
▁mother	-9.31327
▁surfboard	-9.31335
▁make	-9.31339
▁f	-9.31433
▁dach	-9.31443
▁kneel	-9.31509
▁bikes	-9.31577
halb	-9.31859
▁schaukel	-9.31887
▁wear	-9.3191
▁stein	-9.31942
▁fe	-9.32218
▁so	-9.32577
▁lila	-9.32579
▁snowboard	-9.32621
▁smoking	-9.32678
▁cliff	-9.32678
▁regen	-9.32687
▁court	-9.32716
▁where	-9.32727
▁clown	-9.32728
▁augen	-9.32785
▁menge	-9.32915
▁cross	-9.33191
▁öffentliche	-9.33224
▁eis	-9.33372
▁works	-9.33488
▁boots	-9.33528
▁land	-9.33538
▁alters	-9.33763
▁mensch	-9.3381
▁concert	-9.34047
▁zigarette	-9.34047
▁unterhält	-9.34051
▁alten	-9.3418
▁mitte	-9.34213
▁box	-9.3425
▁vests	-9.34868
▁bier	-9.35428
▁zusieht	-9.35436
▁edge	-9.35438
▁trinken	-9.35484
▁pick	-9.35513
an	-9.35711
▁bags	-9.35717
▁baseballspieler	-9.35795
▁bett	-9.36174
▁karate	-9.36358
▁spectators	-9.36845
▁armen	-9.36857
▁ufer	-9.36869
▁zuschaut	-9.36882
▁nebeneinander	-9.36887
▁right	-9.36919
▁jersey	-9.36922
▁cup	-9.37043
▁friends	-9.37563
▁crossing	-9.37673
▁turn	-9.38119
▁structure	-9.38273
▁scarf	-9.38274
▁nachts	-9.38281
▁lässt	-9.38314
▁zusehen	-9.38361
▁tattoo	-9.3844
▁no	-9.38508
▁großes	-9.38622
▁gestreifte	-9.39005
▁bedeckt	-9.39327
▁display	-9.3962
▁driving	-9.39723
▁nearby	-9.39723
▁hula	-9.39723
▁fix	-9.39724
▁nicht	-9.39724
▁gegenstand	-9.39731
▁apron	-9.39793
▁filled	-9.39848
ve	-9.39984
anzug	-9.40385
▁sitzende	-9.40649
▁carrie	-9.40806
▁bull	-9.40842
▁mountains	-9.40896
ng	-9.41066
▁feuer	-9.41093
▁coffee	-9.41193
▁mund	-9.41196
▁pile	-9.41201
▁hinten	-9.41203
▁versuchen	-9.41218
▁horses	-9.41234
▁fruit	-9.41327
▁place	-9.41659
▁sonne	-9.41928
▁k	-9.42109
▁bowl	-9.42175
▁stop	-9.42425
▁can	-9.42496
▁shore	-9.42682
▁beobachten	-9.42686
▁scheint	-9.42692
arious	-9.42694
▁leaves	-9.42707
▁gibt	-9.42753
▁cigarette	-9.42773
▁door	-9.4284
▁bottle	-9.42841
▁vendor	-9.42841
▁smile	-9.42868
▁treten	-9.429
▁biker	-9.43184
▁grau	-9.43632
▁offene	-9.44137
▁gemüse	-9.44193
▁gentleman	-9.44201
▁buildings	-9.44246
▁wanderer	-9.44284
▁glas	-9.44339
▁shovel	-9.44369
▁vehicle	-9.44384
▁students	-9.44894
▁flagge	-9.45002
▁nummer	-9.45033
▁stange	-9.45079
▁com	-9.45099
▁cars	-9.45123
▁fotos	-9.45308
▁indian	-9.45392
▁net	-9.45606
martial	-9.45739
▁goggles	-9.45739
▁fängt	-9.45746
▁raucht	-9.4577
▁kniet	-9.45772
▁tunnel	-9.45834
▁parked	-9.45949
▁time	-9.46011
▁beide	-9.46033
weiß	-9.46035
▁liegen	-9.46099
ion	-9.46103
▁schürze	-9.46536
▁talks	-9.46792
▁flip	-9.46969
▁betrachten	-9.47302
▁ladder	-9.47303
▁shot	-9.47321
▁ferne	-9.47322
▁läufer	-9.47398
▁verschneiten	-9.47461
▁stufen	-9.47473
▁painted	-9.47489
▁lächelnde	-9.47495
▁führen	-9.47603
▁gleich	-9.47766
▁paint	-9.47928
▁drums	-9.48143
▁start	-9.48484
out	-9.48611
▁zelt	-9.48645
▁golden	-9.48706
▁gehsteig	-9.48889
▁bunch	-9.48889
▁break	-9.48974
lying	-9.48982
▁newspaper	-9.4912
▁flying	-9.49206
▁do	-9.49226
▁dresses	-9.49329
▁rocky	-9.49426
▁eyes	-9.49549
ter	-9.4959
▁gather	-9.49797
▁mannschaft	-9.49975
▁outfits	-9.50069
▁younger	-9.50075
▁rampe	-9.50314
▁trikots	-9.50343
▁sort	-9.50402
▁roof	-9.50495
▁conversation	-9.50502
▁safety	-9.50502
▁außer	-9.50507
▁bucket	-9.5078
▁flags	-9.50879
▁giv	-9.50894
▁erwachsener	-9.50931
▁rad	-9.50963
▁rail	-9.51369
▁wait	-9.51495
▁lachen	-9.5159
▁musiker	-9.51601
▁nacht	-9.51698
▁put	-9.51913
▁check	-9.51999
▁tor	-9.51999
▁opposi	-9.52141
▁practicing	-9.52141
▁different	-9.52143
▁meal	-9.52153
▁tennisball	-9.52159
▁unten	-9.52162
▁beton	-9.52184
▁hot	-9.52185
▁swinging	-9.52242
▁einander	-9.5248
▁gloves	-9.52577
ers	-9.53024
▁waves	-9.53152
▁lebensmittel	-9.53324
▁arts	-9.53349
el	-9.53354
▁golf	-9.53498
weiße	-9.53722
▁competition	-9.53808
▁empty	-9.53808
▁sonnenuntergang	-9.53808
▁braut	-9.53809
▁leiter	-9.53884
▁listening	-9.53961
▁blanket	-9.54121
▁blonden	-9.54386
▁costumes	-9.54516
▁rotes	-9.54763
▁wet	-9.55285
bei	-9.55302
▁tie	-9.55472
▁greift	-9.55503
▁cake	-9.55506
▁scene	-9.5552
▁obst	-9.55526
▁rutscht	-9.55541
▁aufschrift	-9.5555
▁onlookers	-9.55561
▁skifahrer	-9.55592
▁hammer	-9.55607
▁roll	-9.55646
▁desk	-9.55852
▁items	-9.5588
▁balloon	-9.55886
spiel	-9.55886
▁veranstaltung	-9.55893
▁drinks	-9.55985
ment	-9.5607
▁chas	-9.57137
▁audience	-9.57227
▁business	-9.57227
▁hilft	-9.57227
▁fotografiert	-9.57229
▁vater	-9.57234
▁bärtiger	-9.57265
▁lawn	-9.57273
▁brunnen	-9.57304
▁hüten	-9.57421
▁kleidern	-9.57459
▁mask	-9.57732
top	-9.58119
▁help	-9.58203
▁sports	-9.58287
▁laden	-9.58334
▁railing	-9.58379
▁fisch	-9.58403
▁tür	-9.58671
▁polizist	-9.58756
▁among	-9.58981
▁military	-9.58982
▁pier	-9.58998
▁surft	-9.59065
▁werfen	-9.59104
▁skateboarding	-9.59236
▁parking	-9.59348
▁bird	-9.59418
▁schaufel	-9.60079
▁beiden	-9.60143
▁leaps	-9.60192
geschäft	-9.60267
▁haare	-9.60352
▁e	-9.60406
▁slid	-9.60579
▁reden	-9.60602
fore	-9.60617
re	-9.60706
▁platform	-9.60767
▁unbefestigte	-9.60767
▁wedding	-9.60767
▁überquert	-9.60771
▁motorradfahrer	-9.60798
▁cafe	-9.60844
▁stroller	-9.60877
▁leuchtend	-9.60892
ä	-9.60989
▁polizisten	-9.61034
▁pointing	-9.61045
▁b	-9.61125
▁vegetables	-9.61169
▁basket	-9.61208
▁kostümen	-9.61239
▁class	-9.61291
▁gathering	-9.61634
▁grüner	-9.61723
▁ei	-9.61753
▁row	-9.61803
z	-9.62239
▁fell	-9.62577
▁zurück	-9.62584
▁collar	-9.62585
▁competing	-9.62585
▁versammeln	-9.62585
▁rothaarige	-9.62585
▁feet	-9.62597
▁video	-9.62616
▁facing	-9.62625
▁cement	-9.62667
▁amerikanische	-9.62672
▁legt	-9.62705
▁korb	-9.62745
uch	-9.63076
▁lesen	-9.63101
▁pferde	-9.63648
▁herr	-9.63682
▁damen	-9.6384
▁lächelnd	-9.63849
▁jackets	-9.63874
▁erwachsenen	-9.63981
▁maschine	-9.64106
▁bicycles	-9.64233
▁lift	-9.64316
▁country	-9.64435
▁lap	-9.64436
▁afrikanische	-9.64437
▁gemeinsam	-9.64437
▁silver	-9.64438
▁york	-9.6446
▁huge	-9.64472
▁pause	-9.64475
▁leine	-9.64487
▁skate	-9.64541
▁nehmen	-9.64621
▁jüngere	-9.64775
▁purse	-9.6491
▁speaking	-9.65032
▁gelbem	-9.65093
▁son	-9.65474
▁rutsche	-9.65623
▁st	-9.65727
▁cut	-9.65911
▁voll	-9.65976
id	-9.66254
▁tradition	-9.66272
▁classroom	-9.66324
▁keyboard	-9.66324
▁ganz	-9.66325
▁counter	-9.66328
▁kommt	-9.66409
▁skier	-9.66437
▁fast	-9.66502
▁lange	-9.66666
▁plate	-9.66877
▁getränk	-9.67085
▁end	-9.67368
▁eimer	-9.67602
tries	-9.67634
▁was	-9.67781
▁violin	-9.68118
▁schreibt	-9.68205
▁genießen	-9.68247
▁square	-9.68248
▁father	-9.68249
▁bride	-9.68258
▁screen	-9.68302
▁same	-9.68316
▁alley	-9.68333
▁guckt	-9.68338
▁pfad	-9.68386
▁lilafarbene	-9.68388
▁suits	-9.68436
▁weibliche	-9.68491
▁stellt	-9.68504
▁ende	-9.68702
▁surfing	-9.68744
▁artist	-9.68811
▁sings	-9.68822
▁animal	-9.68853
▁leap	-9.68917
▁lay	-9.69003
▁climbs	-9.69271
▁ring	-9.69353
▁helmets	-9.6937
▁rosafarbene	-9.69466
▁westen	-9.69487
▁talk	-9.69708
▁give	-9.69737
▁schutzhelm	-9.69945
▁close	-9.70026
▁schlagzeug	-9.70059
▁mikrophon	-9.70208
▁mirror	-9.70208
▁garten	-9.70271
▁leeren	-9.7036
▁soldaten	-9.7036
▁singen	-9.70552
▁fahrzeug	-9.70656
▁kissing	-9.70692
▁stühlen	-9.70725
shirts	-9.70854
▁musicians	-9.70865
▁gut	-9.70903
▁robe	-9.71004
▁de	-9.71063
bereiten	-9.71262
wagen	-9.7129
mitten	-9.71404
▁hole	-9.71578
▁deck	-9.71588
▁softball	-9.71735
▁wellen	-9.72054
it	-9.72083
▁electric	-9.72208
▁ohne	-9.72208
▁sprechen	-9.72208
▁chinese	-9.72208
▁streckt	-9.72209
▁baustelle	-9.72215
▁kaufen	-9.72217
▁walkway	-9.72223
▁vogel	-9.7224
▁klettern	-9.72284
▁writing	-9.7229
▁umgebung	-9.7231
ic	-9.72324
▁alle	-9.72326
age	-9.72553
▁asiatischen	-9.72627
▁fighting	-9.72691
up	-9.72845
▁geschäfts	-9.72861
▁shoulder	-9.72906
▁runner	-9.72979
▁viel	-9.7336
man	-9.73774
▁arme	-9.74032
▁life	-9.74235
▁barefoot	-9.74249
▁krawatte	-9.74249
▁urban	-9.74249
▁schwingt	-9.74249
▁gegenüber	-9.74253
▁sunset	-9.74254
▁happy	-9.74275
▁badeanzug	-9.74294
▁kampfsport	-9.74372
▁konzert	-9.74374
▁pitcher	-9.74381
▁chase	-9.74382
▁riesigen	-9.74613
▁wheel	-9.74751
▁kajak	-9.74903
▁schuhen	-9.75139
▁bald	-9.75566
▁regenschirm	-9.75929
▁waits	-9.75934
▁block	-9.76037
▁well	-9.76046
▁spray	-9.76158
▁mat	-9.76227
▁christmas	-9.76332
▁sohn	-9.76332
▁jockey	-9.76342
▁hoodie	-9.76342
▁waving	-9.76358
▁parkplatz	-9.76391
▁rand	-9.76494
▁schlagen	-9.76528
▁handschuhen	-9.76639
▁gegend	-9.76676
▁arbeit	-9.76733
▁beige	-9.77045
▁stunt	-9.77058
hört	-9.77091
▁allein	-9.7713
ausrüstung	-9.77326
▁lit	-9.77571
ive	-9.77573
▁pinkfarbene	-9.77746
▁fun	-9.77815
▁c	-9.77826
▁uniformen	-9.77947
▁giant	-9.7846
▁kanu	-9.7846
▁straßenecke	-9.7846
▁straßenrand	-9.78462
▁starrt	-9.78487
▁schreibtisch	-9.78545
▁kinderwagen	-9.78568
▁jugendlicher	-9.78637
▁washing	-9.78639
▁waren	-9.78697
▁van	-9.78714
▁kostüm	-9.78762
▁hin	-9.78769
▁bereich	-9.79042
▁females	-9.79078
▁blowing	-9.79109
▁tricks	-9.79184
▁scooter	-9.79295
▁gelbes	-9.79472
▁officer	-9.79527
▁bergen	-9.79859
▁sell	-9.80058
ft	-9.80166
ous	-9.80277
▁älteren	-9.80291
▁makes	-9.80615
▁foot	-9.80629
▁umarmt	-9.80634
▁schoß	-9.80634
▁geländemotorrad	-9.80634
▁course	-9.80644
▁lkw	-9.80678
▁jagt	-9.80715
▁singer	-9.80722
▁finger	-9.80727
▁gegnerische	-9.80784
▁poster	-9.80834
▁says	-9.80889
▁leg	-9.80947
▁warm	-9.81109
▁seen	-9.81191
▁photograph	-9.81199
▁bubbles	-9.81364
▁pinkfarbenen	-9.81416
▁swim	-9.81606
▁motor	-9.81743
ie	-9.82351
laden	-9.82592
at	-9.82618
▁dunkelhaarige	-9.82856
▁grasbewachsene	-9.82856
▁repariert	-9.82856
▁bmx	-9.82856
▁leather	-9.82856
▁meat	-9.82858
▁skating	-9.82939
▁kuchen	-9.82998
▁brightly	-9.8307
▁arena	-9.83073
▁way	-9.83225
▁mud	-9.83294
ar	-9.83305
▁netz	-9.8331
lich	-9.83697
▁skater	-9.84136
▁fans	-9.8418
▁tire	-9.84233
▁fan	-9.84271
▁schulter	-9.84343
▁balloons	-9.84616
▁drive	-9.8487
▁teenage	-9.8487
▁site	-9.84935
▁lights	-9.84988
▁weitere	-9.85081
▁kreis	-9.85099
▁braunhaarige	-9.85128
▁foreground	-9.85128
▁vordergrund	-9.85128
▁podium	-9.85129
▁schatten	-9.85129
▁brunette	-9.85129
▁alone	-9.85129
▁fahrradfahrer	-9.85243
▁gebäuden	-9.85246
▁goal	-9.85295
gen	-9.85375
▁pflanzen	-9.85377
▁signs	-9.85435
▁fallen	-9.85445
▁verkaufen	-9.85534
▁canoe	-9.8604
▁float	-9.86073
▁helping	-9.86148
▁garden	-9.86638
▁schüler	-9.86674
▁tanz	-9.87084
▁asleep	-9.87454
▁motocross	-9.87454
▁stadium	-9.87454
▁headphones	-9.87454
▁schläger	-9.87454
▁putzt	-9.87455
▁gym	-9.87455
▁surfbrett	-9.87455
▁gegeneinander	-9.87463
▁künstler	-9.87471
▁desert	-9.87474
▁kunden	-9.87552
▁musical	-9.87669
▁made	-9.87706
▁basketballspiel	-9.87821
tisch	-9.88186
chen	-9.88204
▁indische	-9.88416
▁cat	-9.88425
▁photographer	-9.8855
hut	-9.88571
▁cheerleader	-9.8864
▁legs	-9.88886
us	-9.88887
▁anderes	-9.89035
▁spiegel	-9.89477
ur	-9.89485
▁umbrellas	-9.89516
▁shav	-9.89579
▁office	-9.89581
▁leash	-9.89761
▁brush	-9.89763
▁diving	-9.89835
▁stuff	-9.89837
▁balanciert	-9.89838
▁doorway	-9.89839
▁sandals	-9.89853
▁mikroskop	-9.89865
▁sandalen	-9.89911
▁strecke	-9.90002
▁club	-9.90188
▁drawing	-9.90206
▁fahrrädern	-9.90316
▁farbenfrohe	-9.90556
▁dancers	-9.90735
▁jacken	-9.91158
▁speak	-9.91184
▁kayak	-9.91322
▁officers	-9.91328
ra	-9.91449
▁geige	-9.91522
▁jemandem	-9.91685
▁hellhäutige	-9.917
▁heraus	-9.92159
▁project	-9.92269
▁accordion	-9.92274
▁beugt	-9.92274
▁klassenzimmer	-9.92274
▁mobiltelefon	-9.92274
▁traffic	-9.92274
▁church	-9.92275
▁winkt	-9.92275
▁telefon	-9.92277
▁performance	-9.92277
▁setzt	-9.92285
▁multicolored	-9.92297
▁schiedsrichter	-9.92305
▁einkaufswagen	-9.92306
▁erde	-9.92384
▁schlange	-9.92414
ling	-9.92439
▁footballspieler	-9.92471
▁ziehen	-9.92526
▁stiefeln	-9.92565
▁dreht	-9.92798
▁falling	-9.92818
▁drum	-9.93434
▁move	-9.93614
kostüm	-9.93687
▁bat	-9.93877
▁hohe	-9.94094
▁balls	-9.94206
▁swings	-9.9434
▁faces	-9.94501
▁pferden	-9.94552
▁sticks	-9.9457
▁feuerwehr	-9.94762
▁includ	-9.94774
▁tasse	-9.94775
▁felswand	-9.94775
▁küssen	-9.94775
▁shallow	-9.94775
▁halsband	-9.94776
▁fällt	-9.94786
▁reiten	-9.94804
▁daughter	-9.94826
▁höhe	-9.94826
▁sled	-9.94832
▁fleisch	-9.94832
▁schlitten	-9.94876
▁handstand	-9.94888
▁zimmer	-9.94909
▁r	-9.9498
▁climb	-9.95026
▁skiing	-9.95038
▁decorat	-9.9505
dessen	-9.95261
▁arbeits	-9.95771
▁tables	-9.95864
▁chef	-9.95977
board	-9.96141
weg	-9.96345
stand	-9.96382
▁taschen	-9.96435
▁chinesische	-9.96437
schild	-9.96483
▁dass	-9.96497
▁blow	-9.96559
▁badehose	-9.96573
▁kurze	-9.9658
▁ru	-9.96806
▁below	-9.97338
▁digging	-9.97339
▁lone	-9.9734
▁pond	-9.97341
▁davor	-9.97343
▁zeigen	-9.97368
▁gerüst	-9.97434
or	-9.97546
▁hellbrauner	-9.97589
hiking	-9.97594
▁relaxing	-9.97715
▁members	-9.97885
th	-9.97924
▁microscope	-9.98521
▁bicyclist	-9.98623
▁overalls	-9.98631
▁schwimmen	-9.98638
▁friend	-9.98688
▁cloth	-9.98959
hemd	-9.99118
▁toys	-9.99143
hoop	-9.99156
▁wander	-9.99234
▁schuhe	-9.99301
▁rugby	-9.99525
▁ob	-9.99541
▁schnauze	-9.99675
▁not	-9.99745
▁bis	-9.99957
▁müll	-9.99968
▁kirche	-9.9997
▁aussieht	-9.9997
▁puck	-9.99971
▁kaffee	-9.99976
▁kai	-9.99979
▁tanktop	-9.99996
▁hugging	-10
▁upside	-10.0003
▁küsst	-10.0005
▁seifenblasen	-10.0012
▁passes	-10.0017
▁loch	-10.0021
▁schmutzige	-10.0046
▁redet	-10.005
sch	-10.0082
▁balance	-10.0093
▁cloud	-10.0127
▁post	-10.0208
blauen	-10.0208
ich	-10.0216
▁freunde	-10.0224
ty	-10.023
▁akkordeon	-10.0237
▁flies	-10.024
▁hellbraune	-10.0267
▁cow	-10.0268
▁spielfeld	-10.0269
▁dreadlocks	-10.0269
▁pour	-10.0269
▁spaß	-10.0271
▁ecke	-10.0273
▁teller	-10.0275
▁heads	-10.0277
▁festival	-10.028
▁wind	-10.0282
▁bemalt	-10.0284
▁sweeping	-10.0301
▁sleeps	-10.0303
iert	-10.0317
▁asiatisch	-10.0325
▁farben	-10.0352
▁cane	-10.0359
▁bend	-10.0389
▁oberteilen	-10.0395
▁sculpture	-10.0402
▁i	-10.0438
▁string	-10.0441
▁here	-10.0449
veranstaltung	-10.0464
▁bäume	-10.0474
▁males	-10.0487
▁lots	-10.0511
▁mov	-10.0516
▁polo	-10.0529
▁jogging	-10.0533
▁inspect	-10.0544
▁büro	-10.0545
▁conversing	-10.0545
▁telescope	-10.0545
▁stream	-10.0545
▁infant	-10.0545
▁teich	-10.0545
▁rennstrecke	-10.0545
▁tochter	-10.0545
▁schwimmbrille	-10.0545
▁cold	-10.0545
▁button	-10.0545
froamerikanische	-10.0545
▁mountainbike	-10.0545
▁teeth	-10.0545
▁streets	-10.0546
▁how	-10.0546
▁stadion	-10.0549
▁mid	-10.055
▁handtasche	-10.0553
▁beleuchtete	-10.0554
▁print	-10.0555
▁lastwagen	-10.0558
▁round	-10.0561
▁splashing	-10.0563
▁tischen	-10.0574
▁hell	-10.0586
▁schöne	-10.0589
▁trunks	-10.0597
▁resting	-10.0616
▁eat	-10.0618
▁schönen	-10.0623
▁individuals	-10.0627
▁caf	-10.063
▁schultern	-10.0638
▁kocht	-10.0651
▁sieb	-10.066
▁plant	-10.068
▁shoe	-10.0698
▁gun	-10.0705
▁overall	-10.0708
▁athlete	-10.0734
▁pack	-10.0754
▁fußballspiel	-10.0763
▁plants	-10.0769
▁flasche	-10.0769
grünen	-10.0779
▁live	-10.0831
▁carnival	-10.0831
▁heavy	-10.0831
▁silhouette	-10.0831
▁wrestling	-10.0831
▁racket	-10.0831
▁stack	-10.0832
▁mural	-10.0832
▁underneath	-10.0832
▁dritte	-10.0832
▁makeup	-10.0836
▁nap	-10.0838
▁deep	-10.0839
▁formal	-10.0841
▁stoff	-10.0841
▁kappe	-10.0841
▁haufen	-10.0841
▁held	-10.0844
▁town	-10.0849
▁gepflasterten	-10.0849
▁customers	-10.088
▁image	-10.0887
▁reifen	-10.0897
▁points	-10.0908
gruppe	-10.0933
kt	-10.0943
▁wunderschöne	-10.0958
▁student	-10.0968
▁pot	-10.0982
▁cyclist	-10.099
▁we	-10.0995
▁hiker	-10.1001
▁tier	-10.1005
▁part	-10.103
▁küste	-10.1042
fuß	-10.1044
▁card	-10.1099
▁stroll	-10.1107
ck	-10.111
bar	-10.1121
▁balkon	-10.1125
▁klippe	-10.1125
▁themselves	-10.1125
▁umarmen	-10.1125
▁lunch	-10.1125
▁center	-10.1125
▁dinner	-10.1125
▁unterwegs	-10.1125
▁nice	-10.1125
▁bedient	-10.1125
▁entspannt	-10.1125
▁curly	-10.1125
▁straw	-10.1126
▁parkbank	-10.1127
▁pitch	-10.1127
▁moped	-10.1134
▁neck	-10.1136
▁finish	-10.1141
▁frisch	-10.1142
▁landschaft	-10.1142
▁d	-10.1156
▁schaukelt	-10.1157
▁driver	-10.1159
▁hellen	-10.1172
▁links	-10.1174
▁opening	-10.1179
▁re	-10.118
ern	-10.119
▁felsige	-10.1197
▁freunden	-10.1224
gelben	-10.1238
▁loc	-10.1257
▁khaki	-10.1264
ball	-10.1266
ping	-10.1272
▁maske	-10.1277
▁koch	-10.1281
▁schlamm	-10.1288
▁surf	-10.1291
▁cheerleaders	-10.1294
▁booth	-10.1295
▁lead	-10.1296
▁helmen	-10.1306
▁flugzeug	-10.1308
rad	-10.1316
▁shoulders	-10.1323
▁tänzer	-10.1347
▁katze	-10.1353
schwarzer	-10.1355
▁schüssel	-10.1367
▁steine	-10.138
▁hoop	-10.1385
▁bahn	-10.1387
▁trampolin	-10.1416
▁nur	-10.1417
▁lab	-10.1426
▁gymnast	-10.1427
▁chain	-10.1428
▁picnic	-10.1428
▁wetsuit	-10.1428
▁produce	-10.1428
▁damit	-10.1428
▁crosswalk	-10.1428
▁ärmellose	-10.1428
▁moment	-10.1428
▁gasse	-10.1429
▁museum	-10.1429
▁wild	-10.143
▁sheet	-10.1432
▁feldweg	-10.1432
▁teppich	-10.1434
▁circle	-10.1434
▁crying	-10.1434
▁sachen	-10.1434
▁blatt	-10.1439
▁trampoline	-10.144
▁dunkler	-10.1442
▁touristen	-10.1448
▁offen	-10.1451
▁gate	-10.1453
▁coats	-10.1457
▁schutzhelmen	-10.1469
▁wooded	-10.1474
▁reiter	-10.1475
▁brünette	-10.1485
▁wrapp	-10.1486
▁violetten	-10.1496
▁rest	-10.1535
▁knee	-10.1559
▁seem	-10.1559
che	-10.1581
▁flaggen	-10.1584
▁berge	-10.1588
▁w	-10.1597
▁licht	-10.1597
▁nose	-10.1599
▁runners	-10.1632
▁performer	-10.1656
▁slope	-10.1657
▁kopfhörer	-10.1666
▁pro	-10.1668
▁tee	-10.1681
▁jugendliche	-10.1715
▁film	-10.1718
▁ballerina	-10.174
▁london	-10.174
▁practice	-10.174
▁surface	-10.174
▁trash	-10.174
▁peace	-10.174
▁professional	-10.174
▁hüpft	-10.174
▁überfüllte	-10.174
▁springbrunnen	-10.174
▁schnell	-10.1741
▁hinab	-10.1741
▁verwendet	-10.1741
▁jongliert	-10.1742
▁most	-10.1742
▁load	-10.1744
▁gezogen	-10.1744
▁sewing	-10.1749
▁position	-10.175
▁grind	-10.1752
▁holt	-10.1753
▁steigt	-10.1757
▁closed	-10.1758
▁saxophone	-10.1773
▁fahnen	-10.1778
ation	-10.1784
▁covering	-10.1792
▁plane	-10.1807
▁bullen	-10.1817
▁kiss	-10.1829
▁skiern	-10.1868
innen	-10.1893
▁taken	-10.1899
▁bicyclists	-10.1903
▁bein	-10.1911
▁eye	-10.1944
▁fight	-10.197
jacke	-10.1972
ist	-10.1989
less	-10.2034
▁objekt	-10.2035
▁oriental	-10.2045
▁speed	-10.206
▁balcony	-10.2063
▁blouse	-10.2063
▁himself	-10.2063
▁native	-10.2063
▁reparieren	-10.2063
▁schüttelt	-10.2063
▁fotografieren	-10.2063
▁third	-10.2063
▁kauft	-10.2064
▁mahlzeit	-10.2064
ish	-10.2065
▁schießt	-10.2066
▁veranda	-10.2067
▁sea	-10.2075
▁sale	-10.2077
▁boxes	-10.2079
▁rasiert	-10.208
▁pedestrians	-10.2083
▁rechts	-10.2084
▁rollerblades	-10.2092
▁apple	-10.2099
▁ent	-10.2103
▁weit	-10.2108
is	-10.2143
ther	-10.2163
be	-10.2171
ine	-10.2197
▁hikers	-10.2213
▁teenagers	-10.2217
▁seve	-10.2231
king	-10.2237
▁device	-10.2252
▁log	-10.2253
▁repair	-10.2259
▁indoor	-10.226
▁taxi	-10.2262
▁shak	-10.2272
▁sch	-10.2273
▁hängen	-10.2273
▁dances	-10.2273
▁clear	-10.2311
▁ra	-10.2312
maschine	-10.2315
▁wüste	-10.2316
▁asiate	-10.2325
▁wein	-10.2339
▁frame	-10.2385
teil	-10.2386
▁travel	-10.2396
▁berührt	-10.2396
▁ruht	-10.2396
▁staircase	-10.2396
▁komplett	-10.2396
▁hockt	-10.2396
▁steep	-10.2396
taucht	-10.2396
▁verfolgt	-10.2397
▁kopftuch	-10.2398
▁bekommt	-10.2398
▁bläst	-10.2398
▁cowboyhut	-10.2399
▁tile	-10.24
▁garage	-10.2401
eign	-10.2401
▁you	-10.2403
▁studio	-10.2406
▁heben	-10.2406
▁sportler	-10.2413
▁zeit	-10.2415
▁hellblauen	-10.2419
▁personengruppe	-10.2422
▁horn	-10.2424
▁waterfall	-10.2425
▁ringen	-10.2457
▁grillt	-10.246
▁anzügen	-10.2474
▁getränke	-10.2497
ma	-10.25
▁catche	-10.2508
ew	-10.2521
▁instrumenten	-10.2578
▁crouche	-10.2586
im	-10.2593
▁co	-10.2595
▁balanc	-10.2616
▁p	-10.2633
▁nase	-10.266
▁mix	-10.2693
▁wurf	-10.2708
bent	-10.2716
▁instrumente	-10.2717
▁ziel	-10.2726
▁college	-10.2732
▁sandwich	-10.2738
▁garb	-10.2741
▁plastik	-10.2741
▁fresh	-10.2741
▁gentlemen	-10.2741
▁grocery	-10.2741
▁reinigt	-10.2741
▁puddle	-10.2741
▁mound	-10.2741
▁towel	-10.2741
▁bilder	-10.2742
▁piano	-10.2743
▁coach	-10.2746
▁umzug	-10.2749
▁stapel	-10.2757
▁wettkampf	-10.2757
▁paved	-10.2763
▁evening	-10.2767
▁marching	-10.277
▁climber	-10.2774
▁linken	-10.2779
▁schwimmer	-10.2783
▁matte	-10.28
▁shape	-10.2805
▁beinen	-10.2818
▁einsame	-10.282
▁fall	-10.2821
feld	-10.2868
▁raft	-10.2875
do	-10.2899
▁frei	-10.2914
ical	-10.2943
▁ear	-10.2955
▁swims	-10.2956
▁guard	-10.2957
▁banner	-10.2961
▁jean	-10.2966
▁neon	-10.2989
▁kann	-10.2994
▁tennisspieler	-10.2997
mannschaft	-10.3001
▁cook	-10.3001
bereich	-10.3015
oberteil	-10.3017
▁zähne	-10.3017
covered	-10.3018
▁per	-10.3018
▁fußgänger	-10.3021
▁skis	-10.3062
cy	-10.3062
▁sänger	-10.3079
▁dancer	-10.308
▁geschlossene	-10.3083
▁fair	-10.3095
▁books	-10.3097
▁hotel	-10.3098
▁geschenk	-10.3098
▁curb	-10.3098
▁groom	-10.3098
▁hurdle	-10.3098
▁laundry	-10.3098
▁pizza	-10.3098
▁porch	-10.3098
▁stool	-10.3098
▁tongue	-10.3098
▁öffnet	-10.3098
▁üben	-10.3098
▁schreit	-10.3098
▁ledge	-10.3098
▁modern	-10.3098
▁kurve	-10.3098
▁einzelne	-10.3098
▁theater	-10.3099
▁airplane	-10.3099
▁flight	-10.3099
▁asiatin	-10.3099
▁bach	-10.3099
▁gucken	-10.31
▁sack	-10.31
▁salto	-10.31
▁pair	-10.3101
▁goalie	-10.3104
▁zunge	-10.3104
▁gebiet	-10.3109
▁overlook	-10.311
▁wine	-10.3112
▁figure	-10.3114
▁traditioneller	-10.3119
▁bauen	-10.312
▁wasserfall	-10.3137
ian	-10.3149
▁steigen	-10.3154
▁hunden	-10.3159
▁stark	-10.3167
▁hauses	-10.3167
▁asiaten	-10.3188
▁h	-10.3224
ake	-10.3231
ies	-10.3254
▁laugh	-10.3256
il	-10.3265
▁kerl	-10.3284
ig	-10.3286
▁fingers	-10.3322
▁present	-10.3323
▁geschäftige	-10.3335
▁cone	-10.3341
▁robes	-10.3346
reifen	-10.3368
▁birds	-10.3376
ö	-10.3389
▁fahrräder	-10.3394
schwarzen	-10.341
▁palm	-10.3429
▁ship	-10.3433
▁name	-10.345
▁geparkt	-10.3457
▁hals	-10.3468
▁laub	-10.3469
▁aufblasbare	-10.3469
▁befestigt	-10.3469
▁luggage	-10.3469
▁paddling	-10.3469
▁untersucht	-10.3469
▁wäscht	-10.3469
▁schneiden	-10.3469
▁will	-10.3469
▁straßenkünstler	-10.3469
▁backyard	-10.3469
▁action	-10.3469
▁lederjacke	-10.3471
▁attached	-10.3471
▁geld	-10.3475
▁winterkleidung	-10.3477
ne	-10.3486
▁lies	-10.3488
▁po	-10.3491
▁schlauch	-10.3492
▁denim	-10.3492
▁auftritt	-10.3493
▁hindernis	-10.3528
▁shooting	-10.3542
▁ort	-10.3554
▁farm	-10.3563
▁colors	-10.358
▁soldiers	-10.36
▁glücklich	-10.361
land	-10.3639
▁abend	-10.3641
band	-10.3653
▁steinen	-10.3655
▁kicks	-10.3672
▁shin	-10.3675
▁hockeyspieler	-10.3682
▁schlafen	-10.3683
▁flor	-10.3683
▁nachde	-10.3684
▁wheelchair	-10.3708
▁durchs	-10.3712
▁fertig	-10.3713
▁blocks	-10.3713
▁la	-10.3716
▁soldier	-10.3718
enden	-10.3718
▁protest	-10.374
▁us	-10.3748
rennen	-10.3755
amp	-10.3771
▁wurde	-10.3772
bekleidung	-10.3773
▁blätter	-10.3803
einander	-10.3805
▁tracks	-10.3811
▁herd	-10.3825
▁fold	-10.3836
▁militär	-10.3839
▁umher	-10.3844
anlage	-10.3853
▁bandanna	-10.3853
▁barfüßige	-10.3853
▁camouflage	-10.3853
▁fabric	-10.3853
▁kuh	-10.3853
▁opponent	-10.3853
▁pavement	-10.3853
▁railroad	-10.3853
▁übt	-10.3853
▁inflatable	-10.3853
▁record	-10.3853
▁baumstamm	-10.3853
▁gewand	-10.3855
▁passanten	-10.3856
▁gießt	-10.3858
▁schießen	-10.3864
▁terrasse	-10.3868
▁beieinander	-10.3869
▁schlag	-10.387
▁gelegt	-10.3872
ab	-10.3877
▁entfernt	-10.388
▁spinn	-10.39
▁feed	-10.3908
mann	-10.3908
▁tuch	-10.3909
▁kickt	-10.3919
▁fenced	-10.3924
▁na	-10.3925
▁mom	-10.3928
brauner	-10.3929
▁map	-10.393
line	-10.3942
▁tools	-10.3958
skinn	-10.3988
▁pushe	-10.399
▁cones	-10.4
▁ausrüstung	-10.4007
▁acht	-10.4012
▁verkleidet	-10.4018
▁multip	-10.4031
▁vi	-10.4037
▁seat	-10.4043
▁windows	-10.4045
▁poles	-10.4063
hose	-10.4064
▁step	-10.4082
mannschaften	-10.4089
▁tourist	-10.4091
anzügen	-10.4101
▁bottom	-10.4108
▁neue	-10.4111
▁pipe	-10.4114
▁swimsuit	-10.4114
▁bubble	-10.4119
ischen	-10.4119
ize	-10.4119
▁musician	-10.4121
▁shade	-10.4137
tasche	-10.4158
haus	-10.4165
like	-10.4173
down	-10.4173
bau	-10.4175
▁shoot	-10.4178
▁model	-10.4194
▁examin	-10.4197
▁fly	-10.4208
▁stra	-10.421
▁bikers	-10.4215
▁schuh	-10.4219
▁rück	-10.4227
▁jerseys	-10.4231
▁gelände	-10.4231
▁fill	-10.4237
▁sp	-10.424
▁low	-10.4242
▁discuss	-10.4252
flops	-10.4252
▁rast	-10.4253
▁bräutigam	-10.4253
▁compete	-10.4253
▁escalator	-10.4253
▁happily	-10.4253
▁juggling	-10.4253
▁können	-10.4253
▁lacrosse	-10.4253
▁landscape	-10.4253
▁living	-10.4253
▁referee	-10.4253
▁tractor	-10.4253
▁turban	-10.4253
▁vollführt	-10.4253
▁hölzerne	-10.4253
▁unterschiedlich	-10.4253
▁santa	-10.4253
▁married	-10.4253
▁courtyard	-10.4253
▁helfen	-10.4253
▁gezeigt	-10.4254
▁hinaus	-10.4254
▁drummer	-10.4254
▁baseballkappe	-10.4254
▁bass	-10.4254
▁chest	-10.4255
▁hinterher	-10.4255
▁aco	-10.4256
▁amuse	-10.4256
▁geworfen	-10.4258
▁bread	-10.4258
▁rollstuhl	-10.4259
▁dust	-10.426
▁teleskop	-10.4262
▁bringt	-10.4269
▁becher	-10.4272
iger	-10.4273
▁kommen	-10.4278
ro	-10.4283
▁nassen	-10.4312
▁darunter	-10.4318
▁buying	-10.432
▁barbecue	-10.4357
▁gesäumte	-10.4359
▁gerät	-10.4375
▁heu	-10.4397
▁laughs	-10.4403
▁cyclists	-10.4441
▁eats	-10.4448
ff	-10.4451
sitz	-10.4462
▁come	-10.447
▁moves	-10.4485
▁type	-10.4506
▁fahrer	-10.4511
▁angel	-10.4515
▁pin	-10.4525
▁snack	-10.4531
▁magazine	-10.4531
▁fallschirm	-10.4532
▁tub	-10.4532
▁mustache	-10.454
▁schwimm	-10.4555
▁verkauf	-10.4582
seite	-10.4589
▁seiten	-10.4592
▁riesige	-10.4595
hosen	-10.4618
▁pit	-10.4644
ut	-10.4646
▁jahrmarkt	-10.466
▁tief	-10.4664
ustic	-10.4669
▁suspende	-10.467
▁brust	-10.467
▁casual	-10.467
▁adjust	-10.467
▁banjo	-10.467
▁benutzen	-10.467
▁heiße	-10.467
▁kapuzenpulli	-10.467
▁kilt	-10.467
▁marketplace	-10.467
▁neoprenanzug	-10.467
▁schäferhund	-10.467
▁summer	-10.467
▁carpet	-10.467
▁carriage	-10.467
▁german	-10.467
▁athletic	-10.467
▁rolltreppe	-10.467
▁waldgebiet	-10.467
▁cello	-10.4671
▁labor	-10.4671
▁garbage	-10.4671
▁bunt	-10.4671
▁konzentriert	-10.4671
▁closeup	-10.4671
▁wäsche	-10.4672
▁war	-10.4673
▁gleitet	-10.4675
▁paddelt	-10.4675
▁bewegt	-10.4675
▁riders	-10.4676
▁pajamas	-10.4679
▁besen	-10.468
▁teacher	-10.4681
▁touch	-10.4684
▁angelt	-10.4685
▁bucking	-10.4686
▁ober	-10.4688
▁karren	-10.4689
▁socks	-10.4696
▁backwards	-10.4696
▁skirts	-10.4701
▁geben	-10.4707
▁kochen	-10.4707
▁scaffolding	-10.4709
▁violette	-10.4714
▁cheering	-10.473
▁feiern	-10.473
▁kissen	-10.474
▁touching	-10.4749
zu	-10.4762
▁shar	-10.4764
▁goods	-10.4801
▁ha	-10.4809
▁bu	-10.4834
▁skateboards	-10.4838
roten	-10.4866
end	-10.4872
fahrt	-10.4913
▁bau	-10.4917
▁toss	-10.4925
led	-10.4926
▁halb	-10.4928
x	-10.4939
▁vorbeigehen	-10.4948
▁design	-10.4955
▁baut	-10.496
▁advertisement	-10.4962
▁stehende	-10.4967
▁direction	-10.4968
▁good	-10.4969
▁peer	-10.4972
auf	-10.4983
▁theke	-10.4998
▁dry	-10.5012
▁bekleidete	-10.5013
▁bare	-10.5013
halle	-10.5017
mantel	-10.5024
männer	-10.5025
▁trommel	-10.5028
▁hochzeit	-10.5042
▁farbe	-10.5053
▁motorcycles	-10.5058
▁g	-10.5065
▁patient	-10.5077
▁fotograf	-10.5077
▁bear	-10.508
▁gehende	-10.5081
▁tube	-10.5094
▁du	-10.5099
▁turnhalle	-10.51
▁involv	-10.5105
▁caucasian	-10.5105
▁caught	-10.5105
▁cricket	-10.5105
▁harness	-10.5105
▁hürde	-10.5105
▁john	-10.5105
▁obstacle	-10.5105
▁serving	-10.5105
▁tennisschläger	-10.5105
▁trägerhemd	-10.5105
▁wagon	-10.5105
▁wakeboard	-10.5105
▁weihnachtsbaum	-10.5105
▁flughafen	-10.5105
▁plaza	-10.5105
▁sheep	-10.5105
▁nahaufnahme	-10.5105
▁gelehnt	-10.5105
▁lehnen	-10.5105
▁dj	-10.5105
▁heels	-10.5105
▁stove	-10.5105
▁underwater	-10.5105
▁dining	-10.5105
▁candy	-10.5105
▁experiment	-10.5107
▁gemälde	-10.5107
▁airport	-10.5107
▁japane	-10.5108
▁redhead	-10.5108
▁kehrt	-10.5111
▁handtuch	-10.5111
sleeved	-10.5112
▁hay	-10.5114
weise	-10.5116
▁welding	-10.5117
▁wide	-10.5121
▁laptops	-10.5123
▁mänteln	-10.5127
▁jungs	-10.5132
▁raised	-10.5132
▁runden	-10.5137
▁stirn	-10.514
▁rechten	-10.5145
schen	-10.5171
halt	-10.5175
tur	-10.5177
▁z	-10.5227
▁sees	-10.5228
▁ballon	-10.5253
ate	-10.5256
▁orientalische	-10.5259
zug	-10.5261
▁flipp	-10.527
ert	-10.5287
▁shown	-10.531
▁color	-10.5323
▁berges	-10.5347
ight	-10.5364
go	-10.5383
▁hi	-10.539
▁bow	-10.5403
▁animals	-10.5416
▁smoke	-10.5423
▁cowboys	-10.5424
▁individual	-10.5425
▁verkehr	-10.5427
▁duck	-10.5428
▁participat	-10.5442
▁ho	-10.5458
▁freund	-10.5461
kun	-10.5463
▁irgendeine	-10.5466
scheibe	-10.5474
arrow	-10.5474
we	-10.5478
raum	-10.5479
▁gegenstände	-10.5482
▁observe	-10.5487
▁paints	-10.5489
▁kegel	-10.5504
▁soldat	-10.5533
ful	-10.5537
▁serve	-10.5548
▁hood	-10.5553
▁außen	-10.5559
▁angelrute	-10.5559
▁gravel	-10.5559
▁greyhound	-10.5559
▁haircut	-10.5559
▁muzzle	-10.5559
▁orchestra	-10.5559
▁pfütze	-10.5559
▁routine	-10.5559
▁trompete	-10.5559
▁trumpet	-10.5559
▁yoga	-10.5559
▁wohnzimmer	-10.5559
cuba	-10.5559
▁polka	-10.5559
▁sink	-10.5559
▁schutzbrille	-10.5559
▁weihnachtsmann	-10.5559
▁jagen	-10.5559
▁gepäck	-10.556
▁youth	-10.556
▁dune	-10.556
▁mobile	-10.5561
▁direct	-10.5561
▁wandbild	-10.5562
▁operating	-10.5563
▁trainiert	-10.5566
▁guitarist	-10.5566
▁koffer	-10.5569
▁gräbt	-10.5569
▁dinge	-10.5569
▁lehrer	-10.5573
▁khakifarbene	-10.5573
▁speisen	-10.5575
▁hooded	-10.5576
▁kampf	-10.5578
▁projekt	-10.5578
▁lassen	-10.5588
▁kalten	-10.5589
▁werbung	-10.5592
▁folgt	-10.5596
▁derby	-10.5596
▁fischer	-10.5602
setzen	-10.5605
▁gang	-10.5605
▁studenten	-10.5611
ka	-10.5618
ked	-10.562
▁brot	-10.5622
▁bildschirm	-10.5625
▁fläche	-10.5627
ei	-10.5663
▁lin	-10.5683
▁jemanden	-10.5692
▁ballons	-10.57
▁gra	-10.5716
able	-10.5751
▁streich	-10.5757
▁traditionelle	-10.5773
▁keep	-10.5799
▁raise	-10.5821
fully	-10.5821
▁verkleidete	-10.5836
▁backpacks	-10.5842
▁angezogen	-10.5846
zeichen	-10.5887
▁cover	-10.5896
▁bin	-10.59
▁wire	-10.5905
▁sing	-10.5907
▁ausgestreckte	-10.5915
▁hocke	-10.592
bo	-10.5927
▁rod	-10.5939
▁mudd	-10.5941
gebäude	-10.5941
▁sleeve	-10.5948
stühlen	-10.5954
station	-10.5954
hilfe	-10.5955
show	-10.5955
▁buy	-10.5967
▁spitze	-10.5973
▁vehicles	-10.5977
▁lächelndes	-10.598
ler	-10.5985
ce	-10.5986
▁körper	-10.5996
▁ohr	-10.5999
▁gegner	-10.6002
▁sicherheits	-10.6025
▁pet	-10.6027
▁approach	-10.6028
▁bathroom	-10.6035
▁daumen	-10.6035
▁eltern	-10.6035
▁headscarf	-10.6035
▁klavier	-10.6035
▁navy	-10.6035
▁pärchen	-10.6035
▁zuschauermenge	-10.6035
▁gassi	-10.6035
▁interact	-10.6035
▁money	-10.6035
▁checkered	-10.6035
▁joggen	-10.6036
▁hallway	-10.6036
▁streichelt	-10.6036
▁jungle	-10.6036
▁leaf	-10.6036
▁hinein	-10.6036
▁dicht	-10.6036
▁firetruck	-10.6036
▁presentation	-10.6036
▁things	-10.6036
▁bushaltestelle	-10.6036
▁skatepark	-10.6036
▁nähert	-10.6036
▁eight	-10.6036
▁lauf	-10.6037
▁beschäftigt	-10.6038
▁geblümte	-10.6038
▁spread	-10.6038
▁stadtstraße	-10.6038
▁kahlköpfiger	-10.6039
▁kletterer	-10.6039
backsteingebäude	-10.6039
llow	-10.604
▁drachen	-10.6041
▁song	-10.6041
▁material	-10.6042
▁grilling	-10.6044
▁hören	-10.6046
▁geschirr	-10.605
▁orchester	-10.605
▁pfosten	-10.605
▁container	-10.605
▁leav	-10.6052
▁bringen	-10.6055
▁weint	-10.6057
▁wrestler	-10.6057
▁saw	-10.6057
▁hütte	-10.606
▁atv	-10.606
▁control	-10.606
▁batter	-10.6063
▁steilen	-10.6068
▁menschengruppe	-10.6071
▁mall	-10.6071
▁behälter	-10.6074
sammelt	-10.6075
▁fl	-10.6077
side	-10.6079
▁kunststücke	-10.6081
skateboardfahrer	-10.6082
▁hart	-10.6089
▁topf	-10.6093
▁füßen	-10.6104
▁firefighters	-10.6106
▁stier	-10.6108
ral	-10.6123
▁passengers	-10.6126
▁pilot	-10.6137
▁benches	-10.6141
▁fischen	-10.6142
▁trainings	-10.6167
▁steinige	-10.6179
▁tourists	-10.62
▁thrown	-10.6211
▁stehenden	-10.6221
if	-10.6224
ag	-10.624
▁boats	-10.6254
▁racer	-10.6257
▁bestehende	-10.6262
▁gefüllt	-10.6274
war	-10.6296
▁einge	-10.6314
▁protecti	-10.6314
▁medic	-10.632
ker	-10.6321
▁snowboarding	-10.6322
▁point	-10.6333
▁photographs	-10.6336
▁vorüber	-10.6355
▁draw	-10.6378
▁me	-10.638
▁groß	-10.6385
▁fliegen	-10.6388
▁jumpsuit	-10.6391
▁sword	-10.6391
▁skates	-10.6393
▁motorcyclist	-10.6396
▁decken	-10.6397
▁glove	-10.6402
▁spring	-10.6405
elt	-10.6405
ted	-10.6414
statue	-10.6425
▁tool	-10.6428
gt	-10.6434
▁heart	-10.6443
park	-10.6444
bild	-10.6451
▁bücher	-10.6463
▁apartment	-10.6467
▁bauch	-10.6481
alter	-10.6488
team	-10.649
▁schutz	-10.649
▁hall	-10.6495
way	-10.6497
▁waters	-10.6502
▁dive	-10.651
▁kunst	-10.6524
▁frische	-10.653
▁but	-10.6531
▁half	-10.6535
▁pattern	-10.6535
▁ceiling	-10.6535
▁entrance	-10.6535
▁great	-10.6535
▁leggings	-10.6535
▁racetrack	-10.6535
▁schnurrbart	-10.6535
▁speech	-10.6535
▁lasso	-10.6535
▁patio	-10.6535
▁einkaufszentrum	-10.6535
▁joggt	-10.6536
▁motorroller	-10.6536
▁rennauto	-10.6536
▁machinery	-10.6536
▁dicke	-10.6536
▁space	-10.6536
▁picknicktisch	-10.6536
▁steinmauer	-10.6536
kurs	-10.6536
▁china	-10.6536
▁jeep	-10.6538
▁policeman	-10.6539
▁ziegel	-10.654
▁socken	-10.6542
▁first	-10.6543
▁still	-10.6543
▁bahnsteig	-10.6546
▁baseballmütze	-10.6546
▁auszu	-10.655
▁texas	-10.655
▁treffen	-10.6555
▁scheinen	-10.6555
▁langhaariger	-10.6555
▁zeichnet	-10.6558
▁dunkelblaue	-10.6562
▁spritzt	-10.6565
▁schwere	-10.6567
▁graben	-10.6572
▁eingang	-10.658
▁easter	-10.658
▁sail	-10.6582
▁wettbewerb	-10.6585
▁kisten	-10.6588
▁meeres	-10.6592
▁motorrädern	-10.6599
cht	-10.66
▁lang	-10.6602
▁examine	-10.6606
gitarre	-10.6629
▁hugs	-10.6638
la	-10.6645
▁kopfhörern	-10.6659
▁ahead	-10.6662
▁bit	-10.6672
▁cla	-10.6675
▁hid	-10.6675
▁knien	-10.6694
▁pett	-10.6697
isch	-10.6704
▁beigefarbene	-10.6705
▁ears	-10.6731
▁ropes	-10.6736
▁rests	-10.6761
▁rowing	-10.6775
▁sonnenbrillen	-10.6785
▁usa	-10.6787
▁sets	-10.6791
▁schule	-10.6794
▁pen	-10.6804
▁beam	-10.6831
▁tackle	-10.6834
▁read	-10.684
▁kunstwerk	-10.6861
▁walls	-10.6875
ack	-10.6893
mütze	-10.6896
geht	-10.6908
▁violett	-10.6909
platz	-10.6915
▁ribbon	-10.6917
▁lane	-10.6918
▁doll	-10.6919
▁beverage	-10.6923
▁swimmer	-10.6925
ier	-10.6926
▁treppen	-10.6953
▁füße	-10.6986
▁feier	-10.6987
▁blume	-10.6987
▁bo	-10.6992
▁fruits	-10.7013
▁lamp	-10.7022
▁ma	-10.7022
▁tattoos	-10.7028
▁gitarrist	-10.7041
▁lachend	-10.7051
▁clowns	-10.7057
▁surrounding	-10.7058
▁leder	-10.706
▁dire	-10.7061
köpfige	-10.7062
▁zement	-10.7062
▁anlegestelle	-10.7062
▁donkey	-10.7062
▁electronic	-10.7062
▁herself	-10.7062
▁hospital	-10.7062
▁intersection	-10.7062
▁ländliche	-10.7062
▁neighborhood	-10.7062
▁nickerchen	-10.7062
▁nähmaschine	-10.7062
▁sanddüne	-10.7062
▁shepherd	-10.7062
▁dead	-10.7062
▁schwach	-10.7062
▁schwarzhaarige	-10.7062
▁village	-10.7062
▁ornate	-10.7062
▁geldbörse	-10.7062
▁drill	-10.7062
▁straßenhändler	-10.7062
▁rough	-10.7062
▁boardwalk	-10.7062
▁rennwagen	-10.7062
▁zahlreiche	-10.7062
▁possibly	-10.7063
▁horseback	-10.7063
▁discussion	-10.7063
▁hinterhof	-10.7063
▁aber	-10.7063
▁attend	-10.7063
▁hillside	-10.7064
▁ethnic	-10.7064
▁vorbeifährt	-10.7065
▁stopped	-10.7066
▁bushes	-10.7067
os	-10.7067
▁headband	-10.7067
▁esel	-10.7068
▁bowlingbahn	-10.7069
rubber	-10.7069
▁kreuzung	-10.707
▁rudert	-10.707
▁quarterback	-10.7073
▁brett	-10.7074
▁bahnhof	-10.7078
▁stift	-10.7078
▁crouching	-10.7084
▁stretching	-10.7086
▁plakat	-10.7091
▁crew	-10.7096
▁far	-10.7098
▁baseballspiel	-10.71
▁newly	-10.7101
▁lockige	-10.7103
▁relax	-10.7103
▁schlagzeuger	-10.7103
▁enter	-10.7111
▁silbernen	-10.7124
▁free	-10.7153
▁zeichen	-10.7154
▁luftballons	-10.7162
▁bade	-10.7192
▁flu	-10.7197
ying	-10.7198
▁participate	-10.7199
▁fa	-10.7205
▁verlassen	-10.7215
▁bekleidung	-10.7243
▁cleans	-10.725
▁ba	-10.7252
▁training	-10.7253
▁getränken	-10.7258
▁typen	-10.7277
▁indoors	-10.7283
▁schaufenster	-10.7312
pped	-10.7349
ron	-10.735
werk	-10.7379
▁fu	-10.7384
ger	-10.7387
▁beat	-10.7395
fahrzeug	-10.7404
▁cheer	-10.7411
▁splashe	-10.7418
▁bl	-10.7427
▁tops	-10.7428
▁stones	-10.7432
▁camp	-10.7438
ped	-10.745
▁restaurants	-10.7462
▁str	-10.7473
▁baskets	-10.7474
▁kite	-10.7474
reiter	-10.7477
▁hotdog	-10.7479
▁sprinkler	-10.7481
▁craft	-10.7486
helm	-10.7501
▁dreck	-10.7504
▁sitz	-10.7506
fläche	-10.7514
▁dunkle	-10.7517
markt	-10.7534
treten	-10.7556
▁saxophon	-10.7558
▁vendors	-10.7559
▁gewehr	-10.7577
stone	-10.758
▁mop	-10.7586
▁bik	-10.7596
pe	-10.7602
▁natur	-10.7605
▁daneben	-10.7609
▁trop	-10.7615
▁kapuze	-10.7617
▁operation	-10.7617
fußgängerüberweg	-10.7617
▁bearbeitet	-10.7617
▁celebrating	-10.7617
▁choir	-10.7617
▁conference	-10.7617
▁converse	-10.7617
▁fencing	-10.7617
▁flauschige	-10.7617
▁flüssigkeit	-10.7617
▁maroon	-10.7617
▁odd	-10.7617
▁verheiratete	-10.7617
▁wife	-10.7617
▁berühren	-10.7617
▁blondhaarige	-10.7617
▁klettergerüst	-10.7617
▁mohawk	-10.7617
▁puppy	-10.7617
▁sari	-10.7617
▁cobble	-10.7617
▁marschiert	-10.7617
▁schwimmweste	-10.7617
▁engine	-10.7618
▁strohhut	-10.7618
▁bowlingkugel	-10.7618
▁squatting	-10.7618
▁castle	-10.7618
▁knit	-10.7619
born	-10.7619
▁outstretched	-10.7619
▁cool	-10.762
▁uniformierte	-10.762
▁sil	-10.7621
▁dishes	-10.7624
▁birthday	-10.7625
▁eingezäunte	-10.7627
▁clay	-10.7628
▁traktor	-10.7628
▁balken	-10.7629
▁profi	-10.763
▁gehalten	-10.7631
▁bänken	-10.7632
▁amüsieren	-10.7632
▁rucksäcken	-10.7637
▁anhat	-10.7638
▁chor	-10.7638
▁herab	-10.7642
▁teig	-10.7642
▁lied	-10.7647
▁fotografen	-10.7652
▁wänden	-10.7655
▁rädern	-10.766
ät	-10.7688
▁verkäufer	-10.7692
▁leicht	-10.7696
▁lounge	-10.7698
▁camping	-10.7698
▁regenschirmen	-10.7705
ite	-10.7741
▁selbst	-10.7748
▁los	-10.7752
▁crafts	-10.7756
▁slides	-10.7761
▁teen	-10.7776
▁volle	-10.7778
cal	-10.7789
▁passende	-10.7812
▁seats	-10.7813
▁farbige	-10.7819
bildschirm	-10.7846
▁protect	-10.787
▁seltsame	-10.7894
▁schul	-10.7896
▁sonnen	-10.7907
▁graffitis	-10.7922
▁chefs	-10.7924
ein	-10.7943
▁runter	-10.795
one	-10.7967
▁glückliche	-10.7983
the	-10.7986
▁pan	-10.7991
▁wheels	-10.7998
▁plac	-10.8017
tag	-10.8018
ver	-10.8021
▁tätowierte	-10.8042
▁mark	-10.8047
▁storefront	-10.8059
▁figur	-10.8059
▁broom	-10.8061
▁elephant	-10.8061
▁doctor	-10.8063
gerät	-10.8068
▁vegetable	-10.8072
▁belt	-10.8074
ary	-10.809
▁buckets	-10.8103
straße	-10.8106
hand	-10.8107
▁boxer	-10.8116
gehen	-10.8117
linie	-10.8121
leicht	-10.8124
shorts	-10.8125
outfit	-10.8125
buch	-10.813
▁order	-10.8138
▁bottles	-10.8144
ähnliche	-10.8176
▁zeitschrift	-10.8178
▁wrestle	-10.8179
▁verschieden	-10.818
▁jet	-10.8185
▁excited	-10.8201
▁chalk	-10.8205
▁bluejeans	-10.8206
▁furniture	-10.8206
▁gebeugt	-10.8206
▁gegenseitig	-10.8206
▁gespräch	-10.8206
▁glatzköpfige	-10.8206
▁leotard	-10.8206
▁library	-10.8206
▁nächste	-10.8206
▁richtet	-10.8206
▁sandstrand	-10.8206
▁schlafanzug	-10.8206
▁schubkarre	-10.8206
▁schwenkt	-10.8206
▁similar	-10.8206
▁spoon	-10.8206
▁blazer	-10.8206
▁halloween	-10.8206
▁security	-10.8206
▁begutachtet	-10.8206
▁carving	-10.8206
▁füllt	-10.8206
▁calf	-10.8206
▁steckt	-10.8206
▁scenery	-10.8206
▁abendessen	-10.8206
▁fisherman	-10.8206
▁gift	-10.8206
▁rink	-10.8206
▁iron	-10.8207
▁kies	-10.8207
▁rede	-10.8207
▁wheelie	-10.8207
▁factory	-10.8208
▁löffel	-10.8208
▁kopfüber	-10.8208
▁schwimmbad	-10.8208
▁gewänder	-10.8209
▁sucht	-10.821
▁fußballfeld	-10.821
▁kaut	-10.8212
▁peek	-10.8212
▁tower	-10.8212
▁brennende	-10.8213
▁plattform	-10.8213
▁tutu	-10.8216
▁dish	-10.8218
▁tafel	-10.8223
▁becken	-10.8223
▁kerzen	-10.8226
▁skulptur	-10.823
ggy	-10.8236
▁amid	-10.8237
▁size	-10.8246
▁port	-10.8259
▁flachen	-10.8262
fahren	-10.8265
▁stripes	-10.828
stellt	-10.8281
farbigen	-10.8283
▁pl	-10.8288
▁cape	-10.829
trick	-10.8303
ward	-10.8305
▁coloring	-10.831
hen	-10.8317
▁gas	-10.8317
▁mittag	-10.8319
▁fahrt	-10.8322
ure	-10.8332
tered	-10.8336
▁stares	-10.8337
▁schirmen	-10.8339
▁receiv	-10.8341
▁gewässers	-10.8369
▁smokes	-10.8386
▁bite	-10.8397
ierten	-10.8408
▁ga	-10.8411
▁grillen	-10.8418
▁afroamerikaner	-10.8426
▁got	-10.8467
▁turner	-10.8477
▁hoops	-10.848
des	-10.8485
▁nah	-10.8487
pp	-10.8492
ges	-10.8499
ll	-10.8508
▁style	-10.8517
▁deutsche	-10.8525
▁boxing	-10.8558
verkäufer	-10.8602
ok	-10.8606
▁schlafende	-10.8615
▁turnerin	-10.8618
▁tea	-10.8619
sten	-10.8625
▁musikinstrument	-10.8626
▁tin	-10.8643
▁paddle	-10.8663
ac	-10.8682
▁motorbike	-10.8683
fa	-10.8683
ta	-10.8686
▁barrel	-10.8688
▁camel	-10.8689
▁member	-10.8696
▁wrap	-10.871
braunen	-10.872
▁klein	-10.8741
rennfahrer	-10.8745
fest	-10.8749
glas	-10.875
▁inline	-10.8752
▁vögel	-10.8752
▁sweep	-10.8752
▁grimasse	-10.8754
▁fahne	-10.8763
▁bowls	-10.877
▁werkzeug	-10.8811
▁tarn	-10.8813
▁geöffnete	-10.8817
▁sängerin	-10.8821
▁branch	-10.8823
förmige	-10.883
▁altmodische	-10.8831
▁boulder	-10.8831
▁chicken	-10.8831
▁downtown	-10.8831
▁emergency	-10.8831
▁gymnasium	-10.8831
▁jewelry	-10.8831
▁kalb	-10.8831
▁kreide	-10.8831
▁liquid	-10.8831
▁monopoly	-10.8831
▁nieder	-10.8831
▁numer	-10.8831
▁olympische	-10.8831
▁paddeln	-10.8831
▁plastiktüte	-10.8831
▁return	-10.8831
▁target	-10.8831
▁television	-10.8831
▁unicycle	-10.8831
▁walmart	-10.8831
▁intently	-10.8831
▁untersuchen	-10.8831
▁entgegen	-10.8831
▁waschsalon	-10.8831
▁dimly	-10.8831
▁partially	-10.8831
▁stairway	-10.8831
▁wettrennen	-10.8831
▁europe	-10.8831
▁crane	-10.8831
▁formation	-10.8831
▁entspannen	-10.8831
▁brandung	-10.8831
▁reinigen	-10.8831
▁nighttime	-10.8831
▁fegt	-10.8832
haube	-10.8832
▁calm	-10.8832
▁blumenmuster	-10.8832
▁batman	-10.8832
▁silberfarbene	-10.8832
▁barber	-10.8833
▁dazu	-10.8833
▁overhead	-10.8833
▁trainieren	-10.8833
▁frisbeescheibe	-10.8833
▁planscht	-10.8834
▁kahl	-10.8834
▁feuerwehrmann	-10.8834
▁schweißt	-10.8835
▁test	-10.8835
▁marschieren	-10.8835
▁wasserflasche	-10.8835
▁sportwagen	-10.8835
▁grasfläche	-10.8836
▁noch	-10.8838
▁beißt	-10.8839
▁pret	-10.8841
spielzeug	-10.8842
▁taucher	-10.8843
▁jeansjacke	-10.8844
▁statt	-10.8844
▁elmo	-10.8844
▁füttert	-10.8844
▁shakes	-10.8844
▁brok	-10.8845
▁tend	-10.8846
▁spielkleidung	-10.8847
▁feiert	-10.8851
▁messer	-10.8851
▁ange	-10.8852
▁japanische	-10.8852
ious	-10.8853
▁bewölkten	-10.8853
▁umhang	-10.8854
▁röcken	-10.8857
▁bogen	-10.8861
▁cast	-10.8861
träger	-10.8862
▁flur	-10.8862
▁cop	-10.8862
▁kugel	-10.8865
▁feder	-10.8869
▁flute	-10.8875
▁tied	-10.8877
▁rollt	-10.8885
▁vorne	-10.8886
▁pigeons	-10.8889
▁kran	-10.8889
findet	-10.8892
▁aufgestellt	-10.8896
▁mitglieder	-10.8897
▁following	-10.8901
▁farbenfroher	-10.8908
▁palmen	-10.8909
▁trailer	-10.8918
▁candles	-10.8924
▁herren	-10.8931
▁listens	-10.8934
▁hilfe	-10.8941
▁computers	-10.8957
ieren	-10.8973
▁wad	-10.8974
▁teach	-10.8997
▁catcher	-10.9001
▁geschäften	-10.9009
▁wandern	-10.9025
▁focus	-10.9036
und	-10.9047
and	-10.9047
▁schwert	-10.9065
▁balding	-10.9078
ige	-10.9081
ard	-10.9081
▁act	-10.9088
▁rais	-10.9089
ze	-10.9117
▁fliegende	-10.9118
au	-10.913
nis	-10.917
artige	-10.9196
arbeiter	-10.9211
▁admir	-10.928
▁pieces	-10.9306
▁viewing	-10.9308
▁microphones	-10.9325
▁schafe	-10.9331
rying	-10.9335
▁hug	-10.9347
ke	-10.9351
▁state	-10.9352
▁necklace	-10.9355
▁teammate	-10.9356
▁thin	-10.9357
ky	-10.9363
▁share	-10.9368
▁schmutz	-10.9371
farben	-10.9377
ell	-10.938
▁knie	-10.9399
▁loung	-10.9403
sleeve	-10.9404
▁con	-10.9405
▁breite	-10.9409
muster	-10.9412
wand	-10.9412
▁text	-10.9414
küche	-10.9417
▁motorräder	-10.9421
com	-10.9427
▁doors	-10.9428
ti	-10.9437
▁renn	-10.9439
eil	-10.9441
▁tape	-10.9442
▁stufe	-10.9443
▁jede	-10.9443
▁jack	-10.9456
▁guitars	-10.9459
▁dünne	-10.9467
▁langhaarige	-10.9471
▁überprüf	-10.9472
▁dis	-10.948
▁parkt	-10.9482
▁wasserski	-10.9482
▁contain	-10.9483
▁corn	-10.9485
neath	-10.9495
▁visit	-10.9497
▁coca	-10.9497
▁advertising	-10.9497
▁bückt	-10.9497
▁bürste	-10.9497
▁diskutieren	-10.9497
▁hamburger	-10.9497
▁juggle	-10.9497
▁klassenraum	-10.9497
▁mülltonne	-10.9497
▁obdachlose	-10.9497
▁piste	-10.9497
▁portrait	-10.9497
▁scheinbar	-10.9497
▁stomach	-10.9497
▁säugling	-10.9497
▁terrain	-10.9497
▁wischt	-10.9497
▁örtliche	-10.9497
▁übergewichtige	-10.9497
▁bandana	-10.9497
▁lobby	-10.9497
▁verdeckt	-10.9497
▁näht	-10.9497
▁jogger	-10.9497
▁learn	-10.9497
▁lick	-10.9497
▁pedal	-10.9497
▁mittagessen	-10.9497
▁ziegelmauer	-10.9497
▁bundle	-10.9497
▁floß	-10.9497
▁pottery	-10.9497
▁rainbow	-10.9497
▁billboard	-10.9498
▁celebrate	-10.9498
▁reifenschaukel	-10.9498
▁verlässt	-10.9498
▁bewegen	-10.9498
▁festhält	-10.9498
▁dorf	-10.9498
▁treibt	-10.9498
▁starren	-10.9498
▁chew	-10.9498
▁maulkorb	-10.9498
▁trench	-10.9499
▁elefanten	-10.95
▁world	-10.95
▁badewanne	-10.95
▁feuerwehrleute	-10.9501
▁jubeln	-10.9501
▁bespritzt	-10.9501
▁observing	-10.9501
▁bekommen	-10.9502
▁fireman	-10.9502
▁bewundert	-10.9502
▁exit	-10.9502
▁befahrene	-10.9502
▁waldweg	-10.9503
▁beine	-10.9505
▁ähnlich	-10.9505
▁ausgestellt	-10.9505
▁köche	-10.9506
▁tribüne	-10.9506
▁fahrgeschäft	-10.9506
▁called	-10.9506
▁job	-10.9506
▁dekoriert	-10.9509
schieben	-10.9511
▁forward	-10.9511
▁parasailing	-10.9511
▁händler	-10.9512
▁sportkleidung	-10.9513
▁official	-10.9518
▁pine	-10.9519
▁flöte	-10.952
▁büschen	-10.9521
▁torhüter	-10.9523
▁ex	-10.9525
▁schmuck	-10.9529
▁crosses	-10.9534
wendet	-10.9536
▁engen	-10.9538
li	-10.9541
▁violine	-10.9542
▁welpen	-10.9559
▁ohren	-10.9562
▁köpfen	-10.9567
▁schildern	-10.9567
more	-10.9576
▁stepp	-10.9581
▁dad	-10.9581
▁karten	-10.9582
▁baumes	-10.9589
▁modell	-10.9599
▁fur	-10.9612
▁item	-10.9616
▁follows	-10.9628
▁protesting	-10.9639
eishockeyspieler	-10.9662
▁ausgestreckt	-10.9671
he	-10.9675
▁swimmers	-10.9675
▁flaschen	-10.9682
zeug	-10.9686
▁hübsche	-10.9687
▁arch	-10.9687
▁kleider	-10.969
▁nasse	-10.9699
▁directions	-10.9714
ue	-10.9721
▁seilen	-10.9725
▁shades	-10.9738
▁trainer	-10.9748
all	-10.9753
lit	-10.9771
▁sl	-10.9778
▁objects	-10.9783
stellen	-10.9794
v	-10.9813
▁operate	-10.9822
▁stangen	-10.9845
▁cage	-10.9854
▁produkte	-10.9856
▁nass	-10.9859
▁engage	-10.986
▁videospiel	-10.9879
▁stelle	-10.9915
▁abzu	-10.9929
que	-10.9942
schlag	-10.9973
ol	-10.9979
icht	-10.9982
▁follow	-10.9994
▁plates	-11
▁gr	-11.0007
▁sc	-11.0018
lt	-11.0021
drückt	-11.0047
▁bars	-11.0059
▁feather	-11.0064
▁soda	-11.0067
schau	-11.0071
▁pillow	-11.0073
▁luftballon	-11.0075
▁passenger	-11.0076
▁fels	-11.0076
▁trunk	-11.0077
▁schiff	-11.0082
▁weiter	-11.0093
▁tags	-11.0097
über	-11.0101
as	-11.0106
▁ro	-11.0115
vor	-11.012
▁times	-11.0122
▁nets	-11.0122
▁süßigkeiten	-11.0125
brett	-11.0126
kleid	-11.0129
▁shovels	-11.013
fenster	-11.013
voll	-11.0133
▁verschneite	-11.0137
▁silberne	-11.0137
▁lines	-11.0139
▁hüte	-11.016
▁tennisspielerin	-11.0161
▁rauch	-11.0161
▁spazier	-11.0161
▁kamel	-11.0168
ex	-11.0168
▁turns	-11.0173
▁sh	-11.0176
▁kiste	-11.018
▁sonnenschirm	-11.0182
▁breakdance	-11.0182
▁hike	-11.0186
▁polizei	-11.0188
▁geschminkte	-11.0197
▁fo	-11.0198
▁tug	-11.0206
▁patch	-11.0207
▁whil	-11.0207
▁kunststoff	-11.0211
▁exercise	-11.0211
▁pfadfinder	-11.0211
▁snowsuit	-11.0211
▁tricycle	-11.0211
science	-11.0212
▁arcade	-11.0212
▁aufmerksam	-11.0212
▁bibliothek	-11.0212
▁chopp	-11.0212
▁gleichzeitig	-11.0212
▁jenga	-11.0212
▁lokal	-11.0212
▁ponytail	-11.0212
▁scoop	-11.0212
▁slightly	-11.0212
▁wheelbarrow	-11.0212
▁airborne	-11.0212
▁cheese	-11.0212
▁consist	-11.0212
wohl	-11.0212
▁zöpfen	-11.0212
▁innenstadt	-11.0212
▁badezimmer	-11.0212
▁fernglas	-11.0212
▁aisle	-11.0212
▁weaving	-11.0212
▁diner	-11.0212
▁drinnen	-11.0212
▁hindurch	-11.0212
▁schlauchboot	-11.0212
▁demonstration	-11.0212
▁steel	-11.0212
▁akustikgitarre	-11.0212
▁stirnband	-11.0212
▁greifen	-11.0212
▁asiatinnen	-11.0212
▁fetch	-11.0212
▁trip	-11.0212
▁krankenhaus	-11.0212
▁poor	-11.0212
▁gewickelt	-11.0213
▁radrennen	-11.0213
▁herbst	-11.0213
▁marktplatz	-11.0213
▁stern	-11.0214
▁formelle	-11.0214
▁homeless	-11.0214
▁pony	-11.0214
▁firemen	-11.0215
▁aquarium	-11.0215
▁monument	-11.0215
▁pinata	-11.0215
▁einrad	-11.0215
ul	-11.0216
▁binoculars	-11.0217
▁vorbeigeht	-11.0218
▁tv	-11.022
▁webt	-11.0221
▁burn	-11.0221
▁tablett	-11.0222
▁landet	-11.0223
▁story	-11.0223
▁entlanggeht	-11.0224
▁beginnt	-11.0224
▁ticket	-11.0227
▁geöffnet	-11.0227
▁grand	-11.0228
▁nature	-11.0228
▁bewegung	-11.0228
▁rettungswesten	-11.0232
▁hier	-11.0232
▁salon	-11.0234
▁segel	-11.0234
▁complete	-11.0234
▁locken	-11.0243
▁brows	-11.0248
▁häusern	-11.0249
▁hocker	-11.0253
▁streifen	-11.0253
▁tauben	-11.0254
ruhen	-11.0257
▁neugeborenes	-11.0258
▁leger	-11.0264
▁sowi	-11.0266
▁photographed	-11.0269
▁camper	-11.027
▁reis	-11.0272
▁ringer	-11.0274
▁ruhigen	-11.0276
▁parents	-11.0278
▁grimassen	-11.03
partment	-11.0312
▁aufführung	-11.0334
▁barrier	-11.0341
▁trommeln	-11.0341
▁anzu	-11.0342
▁scheibe	-11.0345
tanz	-11.0355
▁power	-11.0358
▁blättern	-11.0358
▁bekleidet	-11.0366
weil	-11.0368
▁malen	-11.0386
▁spielerisch	-11.0386
▁wh	-11.0398
▁inner	-11.0423
ven	-11.0425
▁ka	-11.0425
aus	-11.0426
▁ta	-11.0441
▁zubereitet	-11.0468
▁di	-11.0485
▁snowboardfahre	-11.0499
gging	-11.0503
stück	-11.051
anie	-11.0512
▁repairs	-11.0519
▁careful	-11.0519
▁leads	-11.0533
▁schaufeln	-11.0533
▁performers	-11.0548
▁khakis	-11.0551
dy	-11.0552
▁schlammige	-11.0557
▁guns	-11.0571
▁athletes	-11.0573
▁grab	-11.0588
▁reflecti	-11.0596
rampe	-11.06
▁freu	-11.0646
▁spiels	-11.0646
▁stehend	-11.066
▁eben	-11.0663
ant	-11.0673
▁photos	-11.0679
▁gelbbraune	-11.0698
▁schreiben	-11.0708
▁rings	-11.0745
▁aussehen	-11.075
fährt	-11.0754
▁skiers	-11.0766
▁maler	-11.0791
zelt	-11.08
▁papiere	-11.083
▁wir	-11.0833
▁ozean	-11.0839
▁shadow	-11.0842
▁customer	-11.0846
rlich	-11.0846
landschaft	-11.0847
▁dudelsack	-11.0854
▁monitor	-11.0861
▁papers	-11.0861
▁farmer	-11.0866
gelb	-11.0867
▁netze	-11.0867
ched	-11.0873
▁bad	-11.089
▁rohr	-11.0891
sprung	-11.0894
zahl	-11.0895
weight	-11.0896
▁dunk	-11.0897
▁wange	-11.0899
▁stühle	-11.0906
rock	-11.0907
block	-11.0909
ziehen	-11.0909
▁america	-11.091
auto	-11.0911
▁stöcke	-11.0913
boot	-11.0916
▁tur	-11.0916
▁karte	-11.0921
▁gestreiftes	-11.0926
▁entertain	-11.0932
cular	-11.0936
bus	-11.0938
▁bounc	-11.0943
▁beleuchtet	-11.0957
▁range	-11.0958
▁rollerskat	-11.0959
light	-11.0963
▁fass	-11.0968
▁wig	-11.0973
▁lager	-11.0975
▁exhibit	-11.098
▁quad	-11.0981
▁achterbahn	-11.0981
▁attention	-11.0981
▁auditorium	-11.0981
▁autumn	-11.0981
▁brauen	-11.0981
▁bulldozer	-11.0981
▁burgundy	-11.0981
▁debris	-11.0981
▁groceries	-11.0981
▁gymnastik	-11.0981
▁ipod	-11.0981
▁jubelt	-11.0981
▁lecture	-11.0981
▁mug	-11.0981
▁popcorn	-11.0981
▁rickshaw	-11.0981
▁sailboat	-11.0981
▁sauber	-11.0981
▁service	-11.0981
▁sniff	-11.0981
▁strickmütze	-11.0981
▁ultimate	-11.0981
▁volks	-11.0981
▁vortrag	-11.0981
▁aqua	-11.0981
▁dusk	-11.0981
▁bleachers	-11.0981
▁kettensäge	-11.0981
▁loom	-11.0981
▁gemusterte	-11.0981
▁score	-11.0981
▁crawl	-11.0981
▁pudel	-11.0981
▁chainsaw	-11.0981
▁bauarbeiten	-11.0981
▁laborkittel	-11.0981
▁uhr	-11.0981
▁geschmückt	-11.0981
▁kasse	-11.0981
▁bound	-11.0981
▁halstuch	-11.0981
▁asien	-11.0981
▁dough	-11.0981
▁oven	-11.0981
gesichtsbemalung	-11.0981
▁radio	-11.0981
▁marathonläufer	-11.0981
▁gestikuliert	-11.0981
▁semi	-11.0981
▁stall	-11.0982
▁spotted	-11.0982
▁golfball	-11.0983
▁medizinische	-11.0983
▁treat	-11.0983
▁bal	-11.0983
▁wings	-11.0984
▁klatscht	-11.0984
▁telephone	-11.0984
▁ceremony	-11.0985
▁fremde	-11.0986
▁bra	-11.0986
▁company	-11.0986
▁glä	-11.0987
▁sneakers	-11.0987
▁waterfront	-11.0988
▁movie	-11.0988
▁messy	-11.0989
▁pay	-11.0991
▁fänger	-11.0991
▁werkstatt	-11.0991
▁coaster	-11.0991
▁versammlung	-11.0991
▁tents	-11.0993
▁handschuh	-11.0994
▁screaming	-11.0997
▁studying	-11.0997
▁anhänger	-11.0998
▁bystanders	-11.0998
▁tiger	-11.0998
▁inlineskates	-11.0998
▁bush	-11.0999
▁waterway	-11.1002
▁lower	-11.1005
kette	-11.1008
▁leckt	-11.1011
▁logo	-11.1016
▁praying	-11.1016
▁szene	-11.1019
▁herz	-11.1025
stellung	-11.1034
ansammlung	-11.1036
▁schilder	-11.1037
▁vordere	-11.1044
▁mo	-11.1045
braune	-11.1047
▁meeting	-11.1055
▁ballet	-11.1064
▁gestures	-11.1064
▁bällen	-11.1069
▁dra	-11.1078
▁fashion	-11.1087
ried	-11.1096
▁hochzeitskleid	-11.1098
▁eggs	-11.1098
kampf	-11.1123
▁besucht	-11.1136
▁care	-11.1166
▁hotdogs	-11.1177
rot	-11.1188
bedeckte	-11.119
▁create	-11.1196
ungen	-11.12
▁wach	-11.1215
▁prob	-11.1221
▁observes	-11.1221
gu	-11.1235
▁link	-11.1248
▁vorbereitet	-11.1258
▁fingern	-11.1262
na	-11.1265
▁abends	-11.127
▁kunstwerke	-11.1286
▁tackl	-11.1292
▁machines	-11.1307
▁sha	-11.1311
ber	-11.1318
op	-11.1328
▁beladen	-11.1379
▁bilden	-11.1393
ock	-11.1428
▁stab	-11.1435
▁houses	-11.1444
▁schaukeln	-11.1447
gang	-11.1449
bändern	-11.1453
▁landing	-11.1457
▁tires	-11.1474
ity	-11.153
▁kn	-11.1531
▁backs	-11.1537
ben	-11.154
▁kindes	-11.1557
▁tiere	-11.1565
▁spä	-11.158
▁listen	-11.1602
▁schau	-11.1627
wettbewerb	-11.1644
▁shops	-11.1651
▁seichte	-11.1652
▁innen	-11.1653
falls	-11.1654
nehmen	-11.1655
tte	-11.1656
▁heißluftballon	-11.1667
▁suitcase	-11.1667
▁mcdonald	-11.1676
laufen	-11.1691
▁flips	-11.1703
dress	-11.1717
stuhl	-11.1721
los	-11.1721
schaukel	-11.1724
turnier	-11.1725
mitarbeiter	-11.1728
▁radfahrern	-11.1729
trikot	-11.1731
läuft	-11.1732
führen	-11.1733
▁schleife	-11.1733
▁mehrfarbige	-11.1735
▁scaffold	-11.1735
▁meet	-11.1736
▁bälle	-11.1737
▁gürtel	-11.1737
american	-11.1737
▁köpfe	-11.1738
▁welpe	-11.1738
grauen	-11.1738
▁spin	-11.1745
▁east	-11.1757
▁wate	-11.1767
ap	-11.1768
▁stare	-11.1768
▁beginn	-11.1768
sicherheitsweste	-11.1772
▁win	-11.178
▁cups	-11.1781
tuch	-11.1782
▁schach	-11.1785
▁tätowierung	-11.1787
▁sweat	-11.179
▁pre	-11.1792
ily	-11.1808
lichen	-11.1812
▁mow	-11.1812
▁collect	-11.1812
▁process	-11.1813
▁konferenz	-11.1813
▁weihnachts	-11.1814
▁asphalt	-11.1814
▁bongo	-11.1814
▁apfel	-11.1814
▁beisammen	-11.1814
▁kellner	-11.1814
▁support	-11.1814
quoi	-11.1814
▁aufgereiht	-11.1814
▁await	-11.1814
▁backdrop	-11.1814
▁badminton	-11.1814
▁bamboo	-11.1814
▁butcher	-11.1814
▁descend	-11.1814
▁einheimische	-11.1814
▁herumstehen	-11.1814
▁knife	-11.1814
▁kümmert	-11.1814
▁lernt	-11.1814
▁merchandise	-11.1814
▁motion	-11.1814
▁pigtails	-11.1814
▁poodle	-11.1814
▁professor	-11.1814
▁pumpkin	-11.1814
▁puppies	-11.1814
▁second	-11.1814
▁spanish	-11.1814
▁stolz	-11.1814
▁stoop	-11.1814
▁treppenstufen	-11.1814
▁tribal	-11.1814
▁trübe	-11.1814
▁umpire	-11.1814
▁unique	-11.1814
▁vergnügungspark	-11.1814
league	-11.1814
▁forehead	-11.1814
▁shoppers	-11.1814
▁trolley	-11.1814
▁celebration	-11.1814
▁comfort	-11.1814
▁snap	-11.1814
▁strange	-11.1814
▁prüft	-11.1814
▁waschbecken	-11.1814
▁juice	-11.1814
▁schnitzt	-11.1814
▁sparring	-11.1814
▁angeboten	-11.1814
▁schützen	-11.1814
▁dessert	-11.1814
▁rückwärts	-11.1814
▁lieferwagen	-11.1814
▁rollerblading	-11.1814
▁fischernetz	-11.1814
▁cowgirl	-11.1814
▁knall	-11.1814
▁clapping	-11.1814
▁mützen	-11.1814
▁ansieht	-11.1814
▁brother	-11.1814
▁gläsern	-11.1814
▁nebel	-11.1814
▁besuch	-11.1815
▁badeanzügen	-11.1815
▁human	-11.1815
▁task	-11.1815
▁flat	-11.1815
▁soap	-11.1815
▁betonwand	-11.1815
▁röhre	-11.1815
▁alleyway	-11.1815
▁countryside	-11.1815
▁schwingen	-11.1815
▁sprungbrett	-11.1815
maschendrahtzaun	-11.1815
▁begleitet	-11.1816
▁paperwork	-11.1816
▁case	-11.1816
▁location	-11.1816
▁reflection	-11.1816
▁teal	-11.1816
▁abgestellt	-11.1816
▁chess	-11.1816
▁colli	-11.1817
▁highway	-11.1818
▁einkäufer	-11.1818
▁kneipe	-11.1818
▁reflektierende	-11.1818
▁rikscha	-11.1818
▁schulkinder	-11.1818
▁stahl	-11.1818
▁blood	-11.1818
▁wasserrutsche	-11.1819
made	-11.1819
▁freundin	-11.1819
▁knöpfen	-11.182
▁label	-11.182
▁rollerskates	-11.1822
▁stöß	-11.1822
▁kette	-11.1824
▁tut	-11.1824
▁hafen	-11.1825
▁teilnehmer	-11.1825
▁terrier	-11.1825
▁suchen	-11.1825
▁border	-11.1825
▁buffet	-11.1825
▁elektrische	-11.1826
ches	-11.1827
▁schmale	-11.1828
▁ballett	-11.1828
▁gepunkteten	-11.1831
▁mower	-11.1831
nzende	-11.1832
▁fabrik	-11.1832
▁arzt	-11.1832
▁putzen	-11.1832
▁spaziergang	-11.1833
▁tänzerin	-11.1835
▁treiben	-11.1836
▁kreuz	-11.1839
▁beleuchtung	-11.184
▁autobahn	-11.184
▁tätowierungen	-11.1841
▁wirbelt	-11.1847
▁blasen	-11.1849
▁linie	-11.1851
kel	-11.1851
▁dreirad	-11.1854
▁tun	-11.1856
▁gymnastics	-11.1857
▁gesichtern	-11.1858
▁packt	-11.1859
▁wares	-11.1859
▁früchte	-11.1864
▁bagpipes	-11.1869
▁scouts	-11.1869
▁haltung	-11.1869
▁laster	-11.1869
▁flug	-11.187
▁tropische	-11.1872
▁säulen	-11.1878
▁caps	-11.1879
▁klasse	-11.1882
▁fußballteam	-11.1883
▁appl	-11.1893
▁my	-11.1895
▁geräten	-11.1898
▁staff	-11.1906
▁olympics	-11.1918
▁bemalten	-11.1925
▁muster	-11.1928
▁speaker	-11.1928
▁rust	-11.1939
▁türen	-11.1948
▁mcdonalds	-11.1954
▁fahrradhelm	-11.1957
▁painter	-11.1962
▁schn	-11.1962
▁legen	-11.1963
▁wette	-11.1965
▁shadows	-11.1967
▁creat	-11.1971
▁headdress	-11.1971
▁incline	-11.1972
▁straßenmusik	-11.1972
▁pillows	-11.1979
▁aneinander	-11.1986
▁kleinkinder	-11.1991
gar	-11.1996
▁paddles	-11.2004
ktion	-11.2013
▁package	-11.2018
▁fein	-11.2018
▁ungewöhnliche	-11.2034
▁schüsseln	-11.2036
▁rafting	-11.2037
▁beverages	-11.2041
▁parti	-11.2049
▁funn	-11.207
▁wires	-11.2073
die	-11.2082
▁designs	-11.2091
▁flache	-11.2098
▁angezogene	-11.212
▁lachende	-11.2128
kle	-11.216
▁featur	-11.2165
▁shower	-11.2181
▁knees	-11.2204
▁meiste	-11.2209
erry	-11.2221
▁wasch	-11.2234
lose	-11.2235
▁regenbogen	-11.2243
▁falls	-11.2246
▁kerle	-11.2254
▁br	-11.2254
▁lo	-11.2293
▁real	-11.2303
▁fröhlich	-11.2306
fahrrad	-11.2309
▁handle	-11.2309
▁zw	-11.2312
len	-11.2316
art	-11.2325
▁booten	-11.2336
▁scooters	-11.238
▁gemacht	-11.2388
its	-11.2391
of	-11.2395
▁niedrige	-11.2435
▁orientalisch	-11.2449
spielerin	-11.2462
▁classic	-11.2466
▁ne	-11.2485
▁mess	-11.2494
führung	-11.2496
port	-11.2501
▁kricket	-11.2517
▁blankets	-11.2548
▁wade	-11.2553
▁cheek	-11.2576
▁parachute	-11.2576
▁tray	-11.2576
▁karton	-11.2583
lauf	-11.2585
▁egg	-11.2585
▁candle	-11.2586
▁newspapers	-11.2587
▁firefighter	-11.2587
halten	-11.2592
work	-11.2599
▁japan	-11.2611
sam	-11.2624
rischen	-11.2629
▁diver	-11.263
skulptur	-11.2632
▁ny	-11.2634
korb	-11.2636
▁ruder	-11.2636
schaut	-11.2637
▁march	-11.2639
cola	-11.264
unterwäsche	-11.264
wasser	-11.2641
hund	-11.2642
▁waffe	-11.2642
foto	-11.2643
loch	-11.2644
▁einkaufstasche	-11.2644
▁cree	-11.2645
sion	-11.2645
▁auge	-11.2649
eben	-11.267
▁mi	-11.2674
▁pirate	-11.269
▁platte	-11.2694
▁senior	-11.2695
▁fecht	-11.2697
▁stir	-11.2702
▁weather	-11.2704
▁transport	-11.2708
▁fern	-11.2709
▁rally	-11.2711
▁coast	-11.2711
▁uns	-11.2715
▁sta	-11.2718
▁cab	-11.2719
▁wei	-11.2722
▁saxofon	-11.2723
▁ärmel	-11.2723
▁digital	-11.2723
▁bordstein	-11.2723
▁lippen	-11.2723
▁händchen	-11.2723
▁porträt	-11.2723
▁rifle	-11.2723
▁ureinwohner	-11.2723
motiv	-11.2723
▁attraktive	-11.2723
▁bouquet	-11.2723
▁erklimmen	-11.2723
▁erzeugnisse	-11.2723
▁felsvorsprung	-11.2723
▁gefleckte	-11.2723
▁grauhaarige	-11.2723
▁lagerfeuer	-11.2723
▁laundromat	-11.2723
▁morning	-11.2723
▁möglicherweise	-11.2723
▁parallel	-11.2723
▁passersby	-11.2723
▁pocket	-11.2723
▁präsentiert	-11.2723
▁schütteln	-11.2723
▁separate	-11.2723
▁serviert	-11.2723
▁säuber	-11.2723
▁telefonzelle	-11.2723
▁türöffnung	-11.2723
▁underwear	-11.2723
▁unusual	-11.2723
▁vergnügt	-11.2723
▁visible	-11.2723
▁yarn	-11.2723
▁gesprungen	-11.2723
▁rapids	-11.2723
▁surgery	-11.2723
▁verteilt	-11.2723
▁vorderseite	-11.2723
▁schlecht	-11.2723
▁zylinder	-11.2723
▁handrail	-11.2723
▁chatting	-11.2723
▁supplies	-11.2723
▁unordentlich	-11.2723
▁every	-11.2723
▁medium	-11.2723
▁erdhügel	-11.2723
▁pfeil	-11.2723
▁huddle	-11.2723
▁webstuhl	-11.2723
baseballschläger	-11.2723
▁löschen	-11.2723
▁karussell	-11.2723
richter	-11.2724
▁dump	-11.2724
▁abgeworfen	-11.2724
▁expression	-11.2724
▁rice	-11.2724
▁perlen	-11.2724
licht	-11.2724
▁chalkboard	-11.2724
▁schlagmann	-11.2724
▁suspenders	-11.2724
krankenschwester	-11.2724
▁element	-11.2724
▁politi	-11.2724
▁holzbank	-11.2724
▁brettspiel	-11.2724
▁geländewagen	-11.2725
▁teilnehmen	-11.2725
▁artwork	-11.2725
▁shoreline	-11.2725
▁besteht	-11.2725
▁skyline	-11.2725
▁cable	-11.2726
▁untergrund	-11.2726
▁injured	-11.2726
▁lens	-11.2726
▁obststand	-11.2726
▁sunlight	-11.2726
▁fußballdress	-11.2726
▁descent	-11.2727
▁beachvolleyball	-11.2727
▁torch	-11.2727
▁eiscreme	-11.2728
▁miami	-11.2728
▁symbol	-11.2728
▁schwebt	-11.2728
▁sammeln	-11.2728
▁transportiert	-11.2728
▁joy	-11.2729
▁verwenden	-11.273
▁aussicht	-11.2731
▁bevor	-11.2731
▁squat	-11.2734
▁schnapp	-11.2735
▁tracht	-11.2735
▁single	-11.2737
▁workout	-11.2738
▁redner	-11.2739
▁guide	-11.2739
▁defender	-11.2741
▁turnschuhen	-11.2743
air	-11.2745
▁offer	-11.2746
▁geschnitten	-11.2749
▁langärmeligen	-11.2749
▁angebracht	-11.2749
▁bietet	-11.275
▁mopp	-11.275
▁closely	-11.2755
▁snowshoes	-11.2757
▁mixer	-11.2757
▁carve	-11.2757
▁ador	-11.2759
▁furr	-11.276
▁last	-11.2766
▁folded	-11.2766
▁kragen	-11.2768
▁militärische	-11.2768
▁va	-11.2773
▁namen	-11.2779
▁kon	-11.2782
▁rahmen	-11.2783
▁kante	-11.2784
gespannt	-11.2787
▁goldfarbene	-11.2787
▁vorrichtung	-11.2792
schuhen	-11.2793
▁spike	-11.2794
▁rudern	-11.2806
▁surfen	-11.2809
stürzt	-11.281
▁op	-11.2812
▁lifted	-11.2813
▁rechte	-11.282
▁gericht	-11.2824
▁tights	-11.2837
▁mitarbeiter	-11.2847
▁blocken	-11.2847
▁crossed	-11.2849
▁strike	-11.2854
▁helme	-11.2856
▁thumbs	-11.2863
▁aufgeregt	-11.287
▁staubige	-11.2871
▁altes	-11.288
▁tour	-11.2888
▁gegenständen	-11.2888
▁bras	-11.289
▁cola	-11.2892
schwanz	-11.2901
ally	-11.2905
ett	-11.2911
▁boxen	-11.2912
cent	-11.2914
▁fußgängern	-11.2929
▁mind	-11.2939
straßenverkäufer	-11.2943
▁lighted	-11.2969
▁computern	-11.2969
▁motorcyclists	-11.2986
▁comm	-11.2992
▁ruhig	-11.2998
bbing	-11.3035
▁gitarren	-11.3039
▁kayaking	-11.3041
▁snacks	-11.3041
▁magazines	-11.3041
▁swimsuits	-11.3055
▁paare	-11.3082
ift	-11.3099
▁bräunliche	-11.3105
▁watched	-11.3106
▁menu	-11.3117
▁logs	-11.3124
▁rutschen	-11.3124
▁maschinen	-11.3128
lot	-11.3141
▁linke	-11.315
haft	-11.316
▁lebensmitteln	-11.3173
▁mini	-11.3185
horn	-11.3191
▁bedruckte	-11.3208
als	-11.3209
rimmed	-11.3214
▁bikinis	-11.3231
▁news	-11.3232
▁schminkt	-11.3297
▁floats	-11.3305
▁skaters	-11.3319
▁sieg	-11.332
▁spanische	-11.335
fashioned	-11.3356
▁verzierte	-11.339
▁dunkel	-11.3395
ond	-11.3396
▁stump	-11.3398
▁windhund	-11.3405
ken	-11.3409
▁cra	-11.341
▁zweite	-11.3418
▁gleiche	-11.3419
▁heavi	-11.3442
▁wer	-11.3459
j	-11.347
▁races	-11.3488
▁eishockey	-11.3509
▁sleep	-11.351
▁boards	-11.3511
▁been	-11.3514
ated	-11.352
▁gathers	-11.357
▁notebook	-11.3576
▁soll	-11.3583
▁thumb	-11.3584
▁wen	-11.3587
▁goat	-11.3589
▁schaf	-11.3592
▁gaze	-11.3595
▁upward	-11.36
uniform	-11.3613
maske	-11.3622
spielen	-11.3624
▁entfern	-11.3624
▁asia	-11.3631
▁even	-11.3632
▁cans	-11.3635
house	-11.3636
folgt	-11.364
behälter	-11.364
▁vacuum	-11.364
pass	-11.3641
▁punch	-11.3641
schutz	-11.3641
künstler	-11.3641
derby	-11.3641
▁halskette	-11.3641
wood	-11.3643
green	-11.3643
garten	-11.3644
▁engag	-11.3645
wed	-11.3651
schlafen	-11.3652
zieht	-11.3654
▁ente	-11.366
▁dot	-11.3661
▁lade	-11.3661
▁pflanze	-11.3671
rie	-11.3671
▁säule	-11.3677
▁bricks	-11.3683
▁handschuhe	-11.3687
▁picks	-11.3694
▁rag	-11.3694
▁schlittschuh	-11.3695
▁amüsier	-11.3696
▁regne	-11.3708
▁puppe	-11.3708
stil	-11.3709
▁kostüme	-11.371
▁versch	-11.3711
▁gl	-11.3711
▁potato	-11.3715
▁gummi	-11.3717
ular	-11.3719
set	-11.3721
▁mexic	-11.3721
▁deli	-11.3722
▁instruct	-11.3723
▁sculpt	-11.3723
▁bambus	-11.3723
▁apart	-11.3723
digkeit	-11.3723
wissenschaftlich	-11.3723
▁abgebildet	-11.3723
▁activity	-11.3723
▁afrikaner	-11.3723
▁almos	-11.3723
▁bergsteiger	-11.3723
▁bewaldete	-11.3723
▁bruder	-11.3723
▁contraption	-11.3723
▁demonstrant	-11.3723
▁disney	-11.3723
▁dämmerung	-11.3723
▁earphones	-11.3723
▁embracing	-11.3723
▁erhobene	-11.3723
▁facility	-11.3723
▁flannel	-11.3723
▁fontäne	-11.3723
▁frozen	-11.3723
▁gallery	-11.3723
▁gipfel	-11.3723
▁helicopter	-11.3723
▁highchair	-11.3723
▁husky	-11.3723
▁hüfte	-11.3723
▁käse	-11.3723
▁maintenance	-11.3723
▁mannequin	-11.3723
▁meißel	-11.3723
▁morgen	-11.3723
▁nike	-11.3723
▁nächtliche	-11.3723
▁renaissance	-11.3723
▁riot	-11.3723
▁schneit	-11.3723
▁section	-11.3723
▁stelzen	-11.3723
▁tournament	-11.3723
▁trashcan	-11.3723
▁tripod	-11.3723
▁valley	-11.3723
▁verteidiger	-11.3723
▁zeremonie	-11.3723
▁öffentlichkeit	-11.3723
▁british	-11.3723
▁bronze	-11.3723
▁canvas	-11.3723
▁harvest	-11.3723
▁ließt	-11.3723
▁monkey	-11.3723
▁olive	-11.3723
▁pullunder	-11.3723
▁schaulustige	-11.3723
▁trifft	-11.3723
▁canad	-11.3723
▁reklametafel	-11.3723
▁strumpfhose	-11.3723
▁university	-11.3723
▁dumpster	-11.3723
▁talent	-11.3723
▁elektronische	-11.3723
▁kratzt	-11.3723
▁twirl	-11.3723
▁scrap	-11.3723
▁bockende	-11.3723
▁priest	-11.3723
▁sideways	-11.3723
▁klappstuhl	-11.3723
▁slam	-11.3723
▁wonder	-11.3723
▁year	-11.3723
▁spotlight	-11.3723
▁freizeitpark	-11.3723
▁series	-11.3723
▁acrobatic	-11.3723
▁jeweil	-11.3723
▁einkaufen	-11.3723
▁essensstand	-11.3723
▁schmetterling	-11.3723
▁esstisch	-11.3723
▁festgebunden	-11.3723
▁waist	-11.3723
▁wolken	-11.3724
▁ziegelwand	-11.3724
▁mülleimer	-11.3724
▁quiet	-11.3724
▁waschmaschine	-11.3724
▁transportation	-11.3724
▁stilts	-11.3724
▁backflip	-11.3724
▁unterrichtet	-11.3724
▁partner	-11.3724
▁ziellinie	-11.3724
▁steintreppe	-11.3724
▁than	-11.3724
▁hawaiian	-11.3724
▁workshop	-11.3724
▁metallstange	-11.3724
▁monk	-11.3724
▁pub	-11.3724
▁driveway	-11.3724
▁holzzaun	-11.3724
▁holzboden	-11.3725
▁landstraße	-11.3725
▁sorg	-11.3725
▁axt	-11.3725
▁gap	-11.3726
▁quickly	-11.3726
▁dig	-11.3726
▁le	-11.3726
▁erreichen	-11.3726
▁mäht	-11.3726
▁straßenseite	-11.3726
heruntergekommen	-11.3726
▁done	-11.3727
▁kürbis	-11.3728
▁rooftop	-11.3728
▁namensschild	-11.3728
▁winterjacke	-11.3728
▁casino	-11.3728
▁maneuver	-11.3728
▁kauert	-11.3729
▁swimmingpool	-11.3729
▁roadside	-11.3732
▁tail	-11.3732
▁reporter	-11.3732
▁mischt	-11.3733
▁pale	-11.3733
▁schritt	-11.3733
ständer	-11.3734
▁mehr	-11.3734
▁mad	-11.3734
▁branches	-11.3735
▁größeren	-11.3736
▁bestellen	-11.3737
▁plank	-11.3737
▁seattle	-11.3737
▁sooners	-11.3737
▁feuerwehrauto	-11.3737
▁approaches	-11.3739
▁superman	-11.3739
▁leinwand	-11.374
▁schnur	-11.3742
▁gleisen	-11.3742
▁unterhemd	-11.3742
▁organiz	-11.3744
▁gebaut	-11.3745
▁gesehen	-11.3746
▁venue	-11.3746
▁zahn	-11.3746
▁kabine	-11.3746
▁formt	-11.3747
▁ampel	-11.3749
▁force	-11.3753
▁interesting	-11.3753
▁präsentation	-11.3754
▁scarves	-11.3754
▁frisur	-11.3754
▁varie	-11.3756
▁geparkte	-11.3756
ston	-11.3756
▁ausgebreitet	-11.376
▁bündel	-11.3763
▁wieder	-11.3764
▁körben	-11.3769
▁trucks	-11.3769
▁washer	-11.377
▁filmt	-11.3773
▁gitarristen	-11.3776
▁khakihose	-11.3781
▁nasser	-11.3782
▁streichen	-11.3784
▁cute	-11.3795
▁passiert	-11.3804
▁tomaten	-11.3807
▁fitness	-11.3811
▁sprayed	-11.3811
▁fischt	-11.3813
▁carts	-11.3813
▁nurses	-11.382
▁dart	-11.3822
arbeit	-11.3823
▁spritzen	-11.3834
▁navigate	-11.3844
▁products	-11.385
▁liegenden	-11.3861
▁battl	-11.3863
▁gazes	-11.3871
▁einfach	-11.3876
▁gruppen	-11.3876
▁namens	-11.3879
schutzausrüstung	-11.388
▁auslage	-11.3884
▁stöcken	-11.3885
blau	-11.3892
▁hu	-11.3901
▁rugbyspieler	-11.3902
puppe	-11.3919
▁warn	-11.392
▁rollen	-11.3922
▁turm	-11.3941
▁drape	-11.3947
ence	-11.3956
▁handwerk	-11.3965
ress	-11.3968
▁bootes	-11.3968
▁bildern	-11.3969
gestellt	-11.397
▁belts	-11.397
car	-11.3974
▁richtungen	-11.3975
▁locat	-11.3985
▁aufzug	-11.3991
▁abs	-11.4004
▁beamte	-11.4009
lar	-11.4015
▁racers	-11.4031
▁ziegelsteine	-11.4034
▁fröhliche	-11.4053
rädern	-11.4076
▁pins	-11.4077
decke	-11.4093
▁taste	-11.4098
▁erd	-11.4102
▁rollschuh	-11.4106
▁smooth	-11.4112
▁medi	-11.4116
▁pu	-11.415
▁wa	-11.4156
▁eimern	-11.4157
▁washe	-11.4159
▁lu	-11.4179
kund	-11.4199
▁herrn	-11.4205
kl	-11.4209
▁mar	-11.4221
hä	-11.4229
▁pots	-11.423
▁cards	-11.4231
▁sw	-11.4245
▁'	-11.4253
▁main	-11.4267
▁interessante	-11.4278
nny	-11.4284
▁multi	-11.4319
▁segelboot	-11.4323
tet	-11.4352
▁eng	-11.4355
pfad	-11.4361
▁cl	-11.4371
lei	-11.4411
▁too	-11.4418
▁lächelnden	-11.4434
ever	-11.4436
▁played	-11.4466
sägt	-11.4516
▁bill	-11.4517
heit	-11.4517
satz	-11.4518
▁receive	-11.4577
▁met	-11.4578
▁grills	-11.4582
▁sommer	-11.459
cart	-11.4595
schwarz	-11.4599
▁heim	-11.4602
ische	-11.4605
▁say	-11.4622
selbe	-11.4627
her	-11.463
ko	-11.465
▁schlafend	-11.4662
▁sip	-11.4671
roll	-11.4674
▁mus	-11.4678
▁zoo	-11.468
ller	-11.4688
▁spot	-11.469
▁product	-11.4695
▁olympic	-11.4696
▁stripe	-11.4697
▁find	-11.4701
▁spül	-11.4705
▁mal	-11.4706
▁tight	-11.471
dach	-11.4711
vo	-11.4715
▁schwer	-11.4724
boden	-11.473
anzeige	-11.4743
steigen	-11.4744
zeit	-11.4747
kraft	-11.475
essen	-11.475
▁warte	-11.475
vorrichtung	-11.475
▁schneeschuhe	-11.4751
pult	-11.4751
▁würde	-11.4752
nimmt	-11.4752
werbung	-11.4752
stange	-11.4753
blätter	-11.4753
strecke	-11.4753
werfen	-11.4754
striped	-11.4754
party	-11.4754
eimer	-11.4755
flugzeug	-11.4755
geben	-11.4755
▁schachtel	-11.4755
zw	-11.4758
▁steile	-11.4758
▁kalte	-11.4759
▁circu	-11.4763
▁hellblaue	-11.4767
▁gepflasterte	-11.4774
▁displays	-11.4775
▁drop	-11.4776
▁bicycl	-11.4784
robe	-11.4787
▁own	-11.4792
▁sessel	-11.4795
rand	-11.48
▁crash	-11.4802
▁aufnahme	-11.4805
▁interview	-11.4806
▁angle	-11.4806
▁asiat	-11.4808
▁darin	-11.4809
▁fische	-11.4809
▁muslim	-11.4813
▁mitglied	-11.4816
▁gaz	-11.4816
▁horizon	-11.4819
farbenen	-11.4822
▁miss	-11.4824
▁treppenhaus	-11.4827
▁hockeyspiel	-11.483
▁sunbath	-11.4833
▁einkaufs	-11.4834
▁boogie	-11.4834
▁stroh	-11.4834
kräfte	-11.4834
▁broad	-11.4834
▁freiluft	-11.4834
▁euro	-11.4834
▁contest	-11.4834
▁zebra	-11.4834
▁bedroom	-11.4834
▁religious	-11.4834
▁schlafzimmer	-11.4834
▁smartphone	-11.4834
▁afternoon	-11.4834
▁akustische	-11.4834
▁bathtub	-11.4834
▁bedienen	-11.4834
▁begeisterung	-11.4834
▁belongings	-11.4834
▁bindet	-11.4834
▁bodysuit	-11.4834
▁breakdancing	-11.4834
▁built	-11.4834
▁chocolate	-11.4834
▁chopsticks	-11.4834
▁cockpit	-11.4834
▁congregate	-11.4834
▁content	-11.4834
▁cycling	-11.4834
▁foliage	-11.4834
▁gesturing	-11.4834
▁happen	-11.4834
▁illuminat	-11.4834
▁irokesenschnitt	-11.4834
▁kapuzenpullover	-11.4834
▁möchte	-11.4834
▁mönch	-11.4834
▁nachbarschaft	-11.4834
▁pencil	-11.4834
▁religiöse	-11.4834
▁schützt	-11.4834
▁shawl	-11.4834
▁solo	-11.4834
▁turkey	-11.4834
▁vergnügen	-11.4834
▁vorführt	-11.4834
▁völlig	-11.4834
▁öffnen	-11.4834
ahrschein	-11.4834
▁canyon	-11.4834
▁dribbelt	-11.4834
▁flame	-11.4834
▁gefangen	-11.4834
▁nagel	-11.4834
▁marsh	-11.4834
▁squeez	-11.4834
▁cherry	-11.4834
▁terminal	-11.4834
▁umringt	-11.4834
▁folgen	-11.4834
▁geschwi	-11.4834
▁paket	-11.4834
▁betrachter	-11.4834
▁decorations	-11.4834
▁felsbrocken	-11.4834
▁gehstock	-11.4834
▁gemalt	-11.4834
▁muskul	-11.4834
▁blech	-11.4834
▁cannon	-11.4834
▁season	-11.4834
▁rush	-11.4834
▁bauernmarkt	-11.4834
▁karohemd	-11.4834
▁synchroniz	-11.4834
▁cheerleading	-11.4834
▁plüschtier	-11.4834
▁burger	-11.4834
▁stuck	-11.4834
▁unhappy	-11.4834
▁unload	-11.4834
▁beret	-11.4835
▁getroffen	-11.4835
▁wollmütze	-11.4835
▁french	-11.4835
▁sledding	-11.4835
▁flussufer	-11.4835
▁wildwasser	-11.4835
▁irgendwo	-11.4835
▁letter	-11.4835
▁pretend	-11.4835
▁ziegelgebäude	-11.4835
▁butterfly	-11.4835
▁kostümierte	-11.4835
▁kill	-11.4835
▁want	-11.4835
▁außenbereich	-11.4835
▁cord	-11.4835
▁raincoat	-11.4835
▁daran	-11.4835
▁engel	-11.4835
▁papa	-11.4835
▁braid	-11.4835
▁bartender	-11.4835
▁tanzfläche	-11.4835
▁garn	-11.4835
▁spiegelbild	-11.4836
stunde	-11.4836
▁mechanic	-11.4836
▁regal	-11.4836
▁telefonieren	-11.4836
▁protestiert	-11.4836
▁mexikanische	-11.4836
▁langärmlige	-11.4836
▁kampfsportler	-11.4836
▁barren	-11.4836
▁earth	-11.4836
▁icy	-11.4836
▁polohemd	-11.4836
▁rasenfläche	-11.4836
▁gelangen	-11.4836
▁ausländische	-11.4837
▁ausgezogen	-11.4837
▁flipflops	-11.4837
▁mur	-11.4837
▁cott	-11.4837
▁attracti	-11.4837
▁rake	-11.4837
▁wohnung	-11.4838
▁fußballtrikot	-11.4838
▁sandburg	-11.4838
▁lampe	-11.4838
▁pathway	-11.4838
▁wasserbecken	-11.4839
▁bohr	-11.4839
▁musikgruppe	-11.4839
▁sandhügel	-11.4839
▁stromschnellen	-11.4839
▁kastanienbraune	-11.484
▁downhill	-11.484
▁picknick	-11.484
▁forscher	-11.484
▁cigar	-11.484
▁eiswagen	-11.484
▁puzzle	-11.484
▁schlendert	-11.484
▁spongebob	-11.484
▁stativ	-11.484
späht	-11.4841
▁checkers	-11.4841
▁tennisplatz	-11.4842
▁bib	-11.4843
▁mich	-11.4843
▁historische	-11.4844
▁umzäunte	-11.4844
▁sad	-11.4844
▁einkaufstüten	-11.4848
▁anhaben	-11.4849
▁speedo	-11.4849
▁darbietung	-11.485
▁upset	-11.485
gefeuert	-11.4852
▁kopfschmuck	-11.4852
▁absperrung	-11.4853
▁cave	-11.4853
▁oberfläche	-11.4853
▁panel	-11.4854
▁fahrzeuge	-11.4856
▁geschminkt	-11.4857
▁hook	-11.4857
▁hinterbeinen	-11.4858
▁angehalten	-11.4858
▁wasserfläche	-11.4858
▁friseur	-11.4859
konstruktion	-11.4859
▁beutel	-11.4859
▁verkaufsstand	-11.4859
▁marker	-11.486
▁hervor	-11.4862
kostümen	-11.4863
▁swan	-11.4865
▁entfernen	-11.4865
helfe	-11.4865
▁scen	-11.4867
▁flügeln	-11.4867
▁heraushängen	-11.4869
▁brushes	-11.4869
▁käfig	-11.4869
ang	-11.4871
▁perücke	-11.4872
▁fasst	-11.4872
▁laufbahn	-11.4873
▁toast	-11.4876
▁krabbel	-11.4877
▁think	-11.4877
▁web	-11.4878
▁protesters	-11.4878
▁surg	-11.4879
▁überprüfen	-11.4881
▁chin	-11.4886
▁parcours	-11.4888
▁dieselbe	-11.4889
▁werfer	-11.4889
▁zeitschriften	-11.4893
▁hind	-11.4894
▁pads	-11.4894
▁rostige	-11.4894
▁angezogener	-11.4901
▁best	-11.4903
▁curve	-11.4904
▁fishes	-11.4907
▁love	-11.4908
▁writes	-11.4909
▁kimonos	-11.491
▁jogs	-11.491
▁klaren	-11.4911
▁suck	-11.4912
▁patienten	-11.4913
▁heller	-11.4916
▁konstruktion	-11.4919
▁kraft	-11.492
▁puppen	-11.4923
kasten	-11.4925
▁crates	-11.4926
▁flusses	-11.4937
▁begins	-11.4944
▁shad	-11.4945
▁ansicht	-11.4948
tzt	-11.4955
▁dunking	-11.4955
▁begeistert	-11.4957
▁chips	-11.4959
▁hallen	-11.4959
▁employees	-11.496
▁kameras	-11.4968
▁waiter	-11.4971
▁weight	-11.4973
▁displayed	-11.4978
acht	-11.4978
▁hübschen	-11.4978
▁muss	-11.4981
▁bildes	-11.4994
kuchen	-11.5009
▁kartons	-11.501
öse	-11.5017
▁cr	-11.502
▁numbers	-11.5021
▁late	-11.5038
▁grabs	-11.5039
▁lei	-11.5045
▁lighting	-11.5046
▁farmers	-11.5047
holzkonstruktion	-11.5055
▁scale	-11.5076
▁jumper	-11.5086
ast	-11.5086
▁mon	-11.5101
▁tal	-11.5102
tic	-11.5105
▁para	-11.5117
▁xylophone	-11.5159
ial	-11.5167
▁larger	-11.5173
▁information	-11.5174
▁splash	-11.518
▁cameras	-11.5182
▁ducks	-11.5198
▁windhunde	-11.5202
▁volleyballspiel	-11.5208
▁industri	-11.5218
kopf	-11.522
▁las	-11.5222
▁helle	-11.5226
io	-11.5229
▁fort	-11.5234
▁gardening	-11.5252
▁ca	-11.5261
▁dri	-11.5264
▁dr	-11.5269
▁punkt	-11.5282
▁sicht	-11.5295
▁types	-11.5305
ove	-11.5316
▁holen	-11.5367
cial	-11.5367
▁angemalte	-11.5369
vil	-11.5378
▁si	-11.5378
▁bauwerk	-11.5385
▁booths	-11.5389
▁wash	-11.5404
tier	-11.5414
och	-11.5429
▁schürzen	-11.544
ord	-11.5445
du	-11.5446
▁fri	-11.5447
▁clouds	-11.546
▁produkt	-11.5464
▁l	-11.5466
waschen	-11.5467
ature	-11.547
training	-11.5492
▁ko	-11.551
▁stre	-11.5523
▁zer	-11.5532
lu	-11.5541
▁farbenfroh	-11.5544
▁straßenarbeite	-11.5573
▁bestehend	-11.5587
meister	-11.5593
▁ruhige	-11.5601
tlich	-11.5603
▁tow	-11.5611
▁albern	-11.5626
ischer	-11.5627
▁crack	-11.5629
saiteninstrument	-11.5639
▁tri	-11.5646
▁punk	-11.5652
▁faci	-11.568
▁schwimmende	-11.5683
va	-11.5689
▁oranger	-11.5698
▁verlassene	-11.5719
▁klapp	-11.5745
▁gefallen	-11.576
▁reihen	-11.577
▁pe	-11.5792
▁plain	-11.5802
▁blaugrüne	-11.581
tan	-11.5812
▁farb	-11.5816
▁disc	-11.5826
▁staub	-11.5839
▁gerichtet	-11.5842
kommen	-11.5844
▁spielende	-11.5853
ance	-11.5876
▁tanzende	-11.5879
recht	-11.588
▁spa	-11.5882
▁aufgeregte	-11.5882
▁sa	-11.5906
del	-11.5917
▁su	-11.5928
▁cre	-11.5937
▁gown	-11.594
figur	-11.5942
▁column	-11.5943
▁employee	-11.5944
ickt	-11.5944
▁rug	-11.5945
lassen	-11.5946
▁gesture	-11.5946
▁rettungs	-11.595
▁etwa	-11.5951
▁rauchen	-11.5955
handschuh	-11.5957
▁nail	-11.5958
punkt	-11.5959
ill	-11.5959
bewegung	-11.5971
▁türkise	-11.5974
▁chip	-11.5975
bank	-11.5978
läufer	-11.5978
▁fliege	-11.598
▁call	-11.598
flug	-11.5985
schlauch	-11.5991
hügel	-11.5993
zentrum	-11.5993
mount	-11.5993
coat	-11.5994
cause	-11.5995
style	-11.5996
▁liegende	-11.5997
konzert	-11.5997
wurf	-11.5998
piercing	-11.5999
tür	-11.5999
kante	-11.6
rahmen	-11.6001
tunnel	-11.6001
restaurant	-11.6002
schwimmen	-11.6002
brille	-11.6002
mauer	-11.6002
free	-11.6002
crew	-11.6002
truck	-11.6003
nummer	-11.6003
box	-11.6003
hammer	-11.6003
body	-11.6003
caf	-11.6003
▁kabel	-11.6004
grill	-11.6004
zusehen	-11.6004
fang	-11.6004
bluse	-11.6004
wirft	-11.6004
frau	-11.6004
love	-11.6005
paved	-11.6005
ender	-11.6006
stiefeln	-11.6006
▁taube	-11.6009
▁india	-11.601
orangefarbenen	-11.601
▁seifenblase	-11.601
▁waterski	-11.6011
stab	-11.6017
▁passagiere	-11.6017
▁fackel	-11.6019
▁ausstellung	-11.602
klasse	-11.6021
▁cu	-11.6021
▁aprons	-11.6022
haltung	-11.6023
▁pfanne	-11.6024
▁stiefel	-11.6027
saugt	-11.6042
▁horizont	-11.6043
▁spitz	-11.6044
▁erhält	-11.6051
▁organ	-11.6053
▁ja	-11.6053
▁hydrant	-11.6056
▁leopard	-11.6056
▁rub	-11.6057
füllen	-11.6064
▁bord	-11.6068
technik	-11.6071
▁compan	-11.6075
schnüffelt	-11.6075
▁pa	-11.6075
▁toilet	-11.6081
sichtig	-11.6083
▁clut	-11.6083
ränkte	-11.6083
▁hawaii	-11.6083
▁dinosaur	-11.6084
führer	-11.6084
▁briefcase	-11.6084
▁bungee	-11.6084
▁crosscountry	-11.6084
▁handbag	-11.6084
▁nipp	-11.6084
▁skull	-11.6084
▁sombrero	-11.6084
▁tracksuit	-11.6084
flammen	-11.6084
objektiv	-11.6084
räumen	-11.6084
terior	-11.6084
▁abandoned	-11.6084
▁babies	-11.6084
▁befindliche	-11.6084
▁blaskapelle	-11.6084
▁blühende	-11.6084
▁buchstaben	-11.6084
▁citizen	-11.6084
▁complex	-11.6084
▁connect	-11.6084
▁dekorative	-11.6084
▁destination	-11.6084
▁dirigier	-11.6084
▁double	-11.6084
▁easel	-11.6084
▁elaborate	-11.6084
▁erklimmt	-11.6084
▁europa	-11.6084
▁faulenzen	-11.6084
▁fedora	-11.6084
▁fotograph	-11.6084
▁gefrorene	-11.6084
▁geisha	-11.6084
▁gießen	-11.6084
▁gleichgewicht	-11.6084
▁hammock	-11.6084
▁harmonica	-11.6084
▁hispanic	-11.6084
▁hochhackige	-11.6084
▁hängematte	-11.6084
▁kaffeetasse	-11.6084
▁kanadische	-11.6084
▁kitchenaid	-11.6084
▁kämpft	-11.6084
▁laboratory	-11.6084
▁marble	-11.6084
▁marmor	-11.6084
▁minivan	-11.6084
▁oldtimer	-11.6084
▁pizzeria	-11.6084
▁powder	-11.6084
▁register	-11.6084
▁rührt	-11.6084
▁sample	-11.6084
▁schlanke	-11.6084
▁schlucht	-11.6084
▁schwenken	-11.6084
▁scientist	-11.6084
▁scrubs	-11.6084
▁servieren	-11.6084
▁starbucks	-11.6084
▁toothbrush	-11.6084
▁treadmill	-11.6084
▁tuxedo	-11.6084
▁unicef	-11.6084
▁vibrant	-11.6084
▁victory	-11.6084
▁yamaha	-11.6084
▁zahnbürste	-11.6084
▁accident	-11.6084
▁aktentasche	-11.6084
▁ascend	-11.6084
▁gelegenen	-11.6084
▁greet	-11.6084
▁lernen	-11.6084
▁oklahoma	-11.6084
▁outfielder	-11.6084
▁tarp	-11.6084
▁weißhaarige	-11.6084
▁welche	-11.6084
▁chisel	-11.6084
▁oxford	-11.6084
▁zigarre	-11.6084
▁backsteinmauer	-11.6084
▁bowtie	-11.6084
▁beißen	-11.6084
▁gespielt	-11.6084
▁hosenträgern	-11.6084
▁müllcontainer	-11.6084
▁warehouse	-11.6084
▁campfire	-11.6084
▁henna	-11.6084
▁establishment	-11.6084
▁nun	-11.6084
▁osten	-11.6084
ußgängerübergang	-11.6084
▁turtle	-11.6084
▁zuhause	-11.6084
▁baumstumpf	-11.6084
▁eingewickelt	-11.6084
▁supermarkt	-11.6084
▁badekappe	-11.6084
▁dunkelheit	-11.6084
▁conductor	-11.6084
▁griff	-11.6084
▁suv	-11.6084
▁darüber	-11.6084
▁envi	-11.6084
schlendern	-11.6084
▁yell	-11.6084
▁billard	-11.6084
▁sommertag	-11.6085
▁sonnenlicht	-11.6085
▁geldautomaten	-11.6085
nsehen	-11.6085
▁cries	-11.6085
▁videokamera	-11.6085
▁mittelgroße	-11.6085
▁randstein	-11.6085
▁feuerstelle	-11.6085
▁hüpfen	-11.6085
▁spielsachen	-11.6085
▁stance	-11.6085
▁betonmauer	-11.6085
▁ziegelbau	-11.6085
▁wildnis	-11.6085
▁laufband	-11.6085
▁capri	-11.6085
▁steinbank	-11.6085
▁fleck	-11.6085
▁underground	-11.6085
▁pfeife	-11.6085
▁straßenszene	-11.6085
▁social	-11.6085
▁lion	-11.6085
ntage	-11.6085
▁kaufhaus	-11.6086
▁shout	-11.6086
▁oberhemd	-11.6086
▁elf	-11.6086
▁waffel	-11.6086
▁fischmarkt	-11.6086
▁hour	-11.6086
▁feldhockey	-11.6086
▁flock	-11.6086
▁pig	-11.6086
▁gewinnen	-11.6086
▁split	-11.6086
▁geflochtene	-11.6087
▁daytime	-11.6087
▁straßenfest	-11.6087
▁rack	-11.6087
▁nine	-11.6087
▁projector	-11.6087
▁extreme	-11.6087
▁matsch	-11.6087
▁holzbrett	-11.6087
agle	-11.6088
▁capture	-11.6088
▁paintball	-11.6088
uff	-11.6088
▁grünfläche	-11.6088
wahl	-11.6088
▁indien	-11.6088
▁straßenrennen	-11.6088
gestürzte	-11.6088
▁squa	-11.6089
▁vend	-11.6089
▁sporthalle	-11.6089
▁wassersprenger	-11.6089
▁somewhere	-11.6089
zündet	-11.6089
▁stretches	-11.609
▁pickup	-11.609
▁lohfarbene	-11.6091
▁glatze	-11.6091
▁major	-11.6091
▁wippe	-11.6091
▁ausgeschnittene	-11.6091
▁arrangement	-11.6091
▁baton	-11.6091
▁fernsehen	-11.6091
▁hochstuhl	-11.6092
ffel	-11.6092
▁burgunderrote	-11.6092
▁deere	-11.6094
▁fernseher	-11.6094
▁stadtpark	-11.6094
▁vorbeifahren	-11.6095
▁puste	-11.6095
▁headset	-11.6095
▁verwirrt	-11.6097
▁sprüht	-11.6098
▁schicke	-11.6099
▁baseballfeld	-11.61
teams	-11.6101
▁reparatur	-11.6102
▁fächer	-11.6102
▁kiosk	-11.6102
▁south	-11.6102
▁tuba	-11.6102
▁haut	-11.6103
▁anweisungen	-11.6103
▁straßenbahn	-11.6103
▁staubsauger	-11.6104
gefahren	-11.6105
▁footballspiel	-11.6106
bahnstation	-11.6107
▁betet	-11.6107
▁rosaroten	-11.6111
▁rosen	-11.6112
▁zelte	-11.6112
▁ernte	-11.6113
▁hellgrünen	-11.6113
▁wanne	-11.6113
▁bridesmaids	-11.6113
▁hause	-11.6113
▁canal	-11.6114
▁unfall	-11.6114
▁stay	-11.6115
▁entwe	-11.6116
▁ju	-11.6116
▁bagger	-11.6118
▁schreiende	-11.612
▁purchase	-11.6121
▁amish	-11.6126
▁fat	-11.6128
▁richten	-11.6128
▁yo	-11.613
▁übung	-11.613
▁entertainer	-11.613
▁tüten	-11.6132
▁beads	-11.6132
▁judges	-11.6132
▁owner	-11.6133
▁gurt	-11.6136
▁measur	-11.6137
liegenden	-11.6138
▁pistole	-11.6138
▁wetter	-11.614
▁designer	-11.614
▁our	-11.6141
▁tackled	-11.6142
▁trockenen	-11.6147
▁brechen	-11.6147
▁lad	-11.615
▁vorführung	-11.615
▁crayons	-11.6151
▁ziegen	-11.6153
▁ste	-11.6156
▁kittel	-11.6159
▁sortiert	-11.6167
mach	-11.6167
▁waterskiing	-11.6167
kiste	-11.6171
▁busses	-11.6173
▁stil	-11.6177
▁crashing	-11.6178
▁rollerskater	-11.618
▁blockt	-11.6181
▁schachteln	-11.6181
▁hellrote	-11.6184
▁hocken	-11.6186
▁notes	-11.6187
▁lips	-11.6188
▁skatet	-11.6192
▁herrliche	-11.6195
▁zahl	-11.6196
▁verleg	-11.6197
▁piercing	-11.6199
dem	-11.62
ugging	-11.6202
rest	-11.6203
▁messen	-11.6204
▁slic	-11.6205
▁mehrfarbigen	-11.6207
▁skills	-11.6209
▁armee	-11.6209
▁kopfstein	-11.6216
▁skies	-11.6222
▁columns	-11.6228
▁colorfully	-11.6233
▁rund	-11.6237
▁lampen	-11.6237
ette	-11.6238
nel	-11.624
▁circus	-11.6246
▁zuhört	-11.6248
▁vögeln	-11.6249
▁miniature	-11.6263
▁rennfahrer	-11.6265
▁tap	-11.627
▁sca	-11.6272
▁hellgelbe	-11.6291
▁halle	-11.6299
▁passt	-11.6306
▁hills	-11.6317
▁ozeans	-11.6324
automaten	-11.6325
▁arrow	-11.6333
▁carrier	-11.6335
▁dar	-11.6336
▁leere	-11.6341
iges	-11.6346
▁katzen	-11.6349
▁indianische	-11.6353
▁golfer	-11.6358
▁fahrzeugen	-11.6363
▁teammates	-11.6363
▁press	-11.6367
topf	-11.6374
grüne	-11.6375
▁camels	-11.6383
aving	-11.6391
▁wi	-11.6392
▁zelten	-11.6399
▁island	-11.6426
lad	-11.6442
▁bake	-11.6451
▁spät	-11.6457
uell	-11.6459
▁fenstern	-11.6461
▁einsatz	-11.6462
▁challenge	-11.6462
size	-11.6464
▁verkehrs	-11.6466
▁figuren	-11.6494
▁bunn	-11.6504
▁peers	-11.6521
▁wor	-11.653
▁strip	-11.6532
▁grasp	-11.6539
▁angels	-11.6541
▁erleuchtete	-11.6557
llen	-11.6588
ipping	-11.6596
▁busch	-11.6605
ign	-11.6608
▁probier	-11.6614
▁banners	-11.662
hang	-11.6638
▁guards	-11.6639
blaue	-11.6653
▁taxis	-11.666
schl	-11.6669
erie	-11.6674
▁wort	-11.6674
▁keine	-11.6701
▁flugzeugs	-11.672
eis	-11.6725
tch	-11.6726
eine	-11.674
▁reflect	-11.6757
round	-11.6766
▁zauns	-11.6775
iel	-11.6776
inten	-11.6788
▁jahre	-11.6815
▁gefüllte	-11.6817
ß	-11.6836
▁mitspieler	-11.6842
▁divers	-11.6843
▁beten	-11.6892
hoe	-11.6892
hinter	-11.6894
deck	-11.6895
muff	-11.6902
grün	-11.6904
let	-11.6908
▁photographers	-11.6909
lten	-11.6914
▁flo	-11.6919
▁feature	-11.6923
▁canoes	-11.6924
▁th	-11.6926
▁walker	-11.6951
vi	-11.6957
▁erleuchtet	-11.6995
▁eisenbahn	-11.7
tical	-11.7057
▁pyramid	-11.7085
▁artists	-11.7091
▁xylophon	-11.7104
▁purses	-11.7133
pfen	-11.7144
▁launch	-11.7171
▁rolls	-11.7202
ick	-11.721
▁masks	-11.7214
▁kunstvolle	-11.7237
▁hero	-11.7247
▁abge	-11.7274
▁lie	-11.7288
▁scal	-11.7296
▁begin	-11.7297
liche	-11.7299
springer	-11.7304
▁teenagern	-11.7307
▁strik	-11.7311
ierte	-11.7327
▁rid	-11.7334
graue	-11.7353
▁alt	-11.736
fall	-11.737
▁character	-11.737
ied	-11.7374
▁leucht	-11.7374
spi	-11.7375
▁parent	-11.7375
▁skill	-11.7376
▁pigeon	-11.7376
▁rollerblade	-11.7379
▁lego	-11.7379
▁crown	-11.7384
▁spik	-11.7401
zimmer	-11.7404
▁complet	-11.7409
weste	-11.7413
▁cheerleaderin	-11.7417
flasche	-11.7419
spritzt	-11.7421
szene	-11.7425
plakat	-11.7425
unterricht	-11.7425
▁nurse	-11.7426
übung	-11.7427
zaun	-11.7427
kittel	-11.7427
treppe	-11.7429
bad	-11.7429
kugel	-11.7429
schüssel	-11.743
kegel	-11.7431
geländer	-11.7431
verkehr	-11.7431
shape	-11.7431
finish	-11.7432
schlange	-11.7432
tattoo	-11.7432
getränk	-11.7432
säge	-11.7432
break	-11.7432
▁warnweste	-11.7432
durch	-11.7432
back	-11.7433
field	-11.7433
pullover	-11.7433
camera	-11.7433
paar	-11.7433
brot	-11.7433
▁ziege	-11.7433
high	-11.7433
▁häuser	-11.7436
theke	-11.7437
bett	-11.7438
▁comic	-11.7439
▁remove	-11.7439
stock	-11.7444
stöcken	-11.7445
▁aller	-11.7447
netz	-11.7447
phone	-11.7453
reichen	-11.7457
▁stadtszene	-11.7459
gestell	-11.7461
gläser	-11.7462
gericht	-11.7463
boy	-11.7463
blöcken	-11.7466
▁versuch	-11.7473
try	-11.7475
▁gleis	-11.7486
▁alkohol	-11.7486
affe	-11.7486
▁kau	-11.7487
▁bärtige	-11.7487
gestreiften	-11.7488
▁objekte	-11.7489
▁palme	-11.7489
▁glid	-11.7491
▁sold	-11.7491
▁fog	-11.7493
▁dose	-11.7495
zel	-11.7496
▁though	-11.7497
▁tre	-11.7497
▁steuer	-11.7498
▁gesch	-11.7498
▁weigh	-11.7498
kart	-11.7498
platte	-11.7501
▁marineblaue	-11.7501
▁flow	-11.7502
▁blurr	-11.7503
▁domino	-11.7505
▁struggl	-11.751
gitter	-11.7511
stimmt	-11.7511
▁tell	-11.7511
▁equ	-11.7512
▁install	-11.7512
äufer	-11.7512
onfetti	-11.7512
▁afro	-11.7512
▁select	-11.7512
edient	-11.7512
▁cell	-11.7513
▁flash	-11.7513
▁pflaster	-11.7513
bart	-11.7513
▁plüsch	-11.7513
▁schutt	-11.7513
▁speer	-11.7513
ashore	-11.7513
fällig	-11.7513
gesichtsausdruck	-11.7513
maskottchen	-11.7513
▁activities	-11.7513
▁aufgeblasen	-11.7513
▁backseat	-11.7513
▁baskenmütze	-11.7513
▁betonstufen	-11.7513
▁bleiben	-11.7513
▁bleibt	-11.7513
▁bronco	-11.7513
▁broschüre	-11.7513
▁bücherregal	-11.7513
▁cafeteria	-11.7513
▁chinatown	-11.7513
▁competitive	-11.7513
▁dschungel	-11.7513
▁embrace	-11.7513
▁ereignis	-11.7513
▁exercising	-11.7513
▁faulenzt	-11.7513
▁felsklippe	-11.7513
▁filz	-11.7513
▁flaming	-11.7513
▁friedenszeichen	-11.7513
▁gletscher	-11.7513
▁grüß	-11.7513
▁habseligkeiten	-11.7513
▁harbor	-11.7513
▁holiday	-11.7513
▁kaninchen	-11.7513
▁kathedrale	-11.7513
▁kunstgalerie	-11.7513
▁kümmern	-11.7513
▁mascara	-11.7513
▁mascot	-11.7513
▁mattress	-11.7513
▁meadow	-11.7513
▁mickey	-11.7513
▁müde	-11.7513
▁mülltüte	-11.7513
▁ochsen	-11.7513
▁ornament	-11.7513
▁pancake	-11.7513
▁reception	-11.7513
▁reiß	-11.7513
▁schwebebalken	-11.7513
▁staffelei	-11.7513
▁supermarket	-11.7513
▁tauziehen	-11.7513
▁tempel	-11.7513
▁trophy	-11.7513
▁töpferware	-11.7513
▁ukulele	-11.7513
▁wandmalerei	-11.7513
▁wilderness	-11.7513
▁zeichnen	-11.7513
▁zugewandt	-11.7513
▁cathedral	-11.7513
▁detail	-11.7513
▁gesichert	-11.7513
▁resort	-11.7513
▁snorkel	-11.7513
▁vegas	-11.7513
▁beendet	-11.7513
▁gepolsterte	-11.7513
▁husband	-11.7513
▁lautsprecher	-11.7513
▁mule	-11.7513
▁plow	-11.7513
▁richtig	-11.7513
▁slacks	-11.7513
▁videotap	-11.7513
▁dozen	-11.7513
▁monster	-11.7513
▁fireworks	-11.7513
▁visor	-11.7513
▁abgesperrt	-11.7513
▁begriff	-11.7513
▁gesichtsmaske	-11.7513
▁sister	-11.7513
▁temple	-11.7513
▁abgedunkelte	-11.7513
▁lädt	-11.7513
▁aufgesetzte	-11.7513
▁backsteinstraße	-11.7513
▁expans	-11.7513
▁kuss	-11.7513
▁oil	-11.7513
▁schnorchel	-11.7513
▁vegetation	-11.7513
▁innenhof	-11.7513
▁trottet	-11.7513
▁genau	-11.7513
▁trotting	-11.7513
▁zebrastreifen	-11.7513
▁oar	-11.7513
▁geldbeutel	-11.7513
▁regelt	-11.7513
▁hackt	-11.7513
▁leitet	-11.7513
▁großstadt	-11.7513
otted	-11.7513
▁sidelines	-11.7513
▁seafood	-11.7513
▁kinn	-11.7513
▁buckelnde	-11.7513
▁cardigan	-11.7513
▁modellflugzeug	-11.7513
▁polish	-11.7513
▁felsblock	-11.7513
▁spiderman	-11.7513
▁gefärbte	-11.7513
▁maybe	-11.7513
▁gehüllt	-11.7513
▁laternen	-11.7513
eval	-11.7513
zzy	-11.7513
▁special	-11.7513
▁innenraum	-11.7513
▁search	-11.7513
▁tablecloth	-11.7513
▁crops	-11.7513
▁torbogen	-11.7514
▁betonplatte	-11.7514
▁preis	-11.7514
▁pop	-11.7514
▁seitenlinie	-11.7514
▁speisekarte	-11.7514
▁konfetti	-11.7514
▁glastür	-11.7514
▁stammeskleidung	-11.7514
▁message	-11.7514
▁pinsel	-11.7514
▁hochzuklettern	-11.7514
▁highschool	-11.7514
▁barkeeper	-11.7514
▁ringkampf	-11.7514
▁tankstelle	-11.7514
▁eislaufen	-11.7515
▁säge	-11.7515
▁sunhat	-11.7515
▁steinerne	-11.7515
▁seife	-11.7515
▁paw	-11.7515
▁clutch	-11.7515
▁claus	-11.7515
▁sound	-11.7515
▁kehren	-11.7515
schenkt	-11.7515
▁starring	-11.7516
▁zip	-11.7516
▁gokart	-11.7516
▁hochgehoben	-11.7516
▁bug	-11.7516
▁hinweg	-11.7516
▁rustic	-11.7517
▁berglandschaft	-11.7517
▁wintertag	-11.7517
▁lustige	-11.7517
▁woodland	-11.7517
▁kamm	-11.7518
▁conveni	-11.7518
▁soft	-11.7519
▁shack	-11.7519
▁soar	-11.7519
▁lackiert	-11.7519
▁policemen	-11.752
▁baumstämmen	-11.752
▁brautjungfern	-11.752
▁tippt	-11.752
▁liebe	-11.752
vogelperspektive	-11.752
▁sattel	-11.752
▁strahlend	-11.752
▁europäische	-11.752
▁getreide	-11.752
▁jazz	-11.752
▁level	-11.752
▁stöber	-11.752
▁transit	-11.752
▁huhn	-11.752
▁ruderboot	-11.7521
▁dinosaurier	-11.7521
▁lands	-11.7521
▁fasziniert	-11.7521
▁geschrieben	-11.7521
▁tischdecke	-11.7521
▁versteckt	-11.7521
▁schleift	-11.7521
▁pump	-11.7521
▁besitz	-11.7522
▁mounted	-11.7523
artikel	-11.7523
▁interagieren	-11.7524
▁studier	-11.7524
grube	-11.7524
▁hundespielzeug	-11.7525
geräum	-11.7525
schließt	-11.7526
▁türkisfarbene	-11.7526
▁cargo	-11.7528
▁bounce	-11.7528
▁defensiv	-11.7529
▁stamm	-11.7529
▁kartenspiel	-11.753
▁felsformation	-11.753
▁geflie	-11.7531
▁basketballfeld	-11.7531
▁hacken	-11.7532
▁zitronen	-11.7532
▁blind	-11.7532
▁rockband	-11.7532
▁skydiving	-11.7532
▁kameramann	-11.7533
▁footballfeld	-11.7533
▁armor	-11.7533
▁schere	-11.7533
▁schwester	-11.7533
▁lush	-11.7533
▁fassade	-11.7533
▁landung	-11.7534
▁zone	-11.7534
▁geländefahrzeug	-11.7534
▁puppet	-11.7535
▁kontrolle	-11.7536
▁mountaintop	-11.7537
▁binden	-11.7538
▁topless	-11.7539
▁schneeball	-11.7539
▁mic	-11.7539
▁fahrradrennen	-11.754
▁may	-11.7541
▁wasserstraße	-11.7542
▁cellphones	-11.7543
▁regnet	-11.7543
▁weinende	-11.7543
▁butter	-11.7544
▁imbiss	-11.7545
▁conducting	-11.7545
▁jar	-11.7545
▁toiletten	-11.7545
▁axe	-11.7546
angehöriger	-11.7546
▁getragen	-11.7546
▁obama	-11.7546
▁system	-11.7546
▁strom	-11.7546
▁kanal	-11.7546
▁steaks	-11.7547
▁steuert	-11.7548
▁kor	-11.755
▁streetlight	-11.755
▁besitzer	-11.755
▁file	-11.7552
▁cameraman	-11.7553
tery	-11.7553
▁schlittschuhen	-11.7554
▁möwen	-11.7556
▁bananen	-11.7556
▁dryer	-11.7558
▁einrichtung	-11.756
▁überdachte	-11.756
▁historic	-11.7562
▁probieren	-11.7564
arre	-11.7565
▁dunkelgrüne	-11.7566
▁herzen	-11.7567
▁wassermelonen	-11.7568
▁rau	-11.7568
▁laufende	-11.7569
▁gehoben	-11.757
▁dropp	-11.7571
▁latz	-11.7573
▁sims	-11.7576
▁reicht	-11.7576
▁zielt	-11.758
▁neun	-11.7581
▁schuss	-11.7586
▁struktur	-11.7586
▁pflasterstraße	-11.7587
▁remov	-11.7587
▁welt	-11.7589
▁schnu	-11.759
▁zuguck	-11.759
▁lanterns	-11.7591
▁fr	-11.7593
▁dosen	-11.7597
▁fang	-11.7597
agged	-11.76
▁bring	-11.7612
▁aufgenommen	-11.7612
▁bananas	-11.7613
▁patrons	-11.7613
▁watermelons	-11.7613
▁passagieren	-11.7621
▁vorstellung	-11.7623
bt	-11.7624
▁gefahren	-11.7625
▁türkis	-11.7628
▁denkt	-11.7628
▁patrol	-11.7633
▁punching	-11.7635
▁vacuuming	-11.7635
▁pult	-11.7635
▁peaks	-11.7635
▁indianer	-11.7641
▁einkaufstaschen	-11.7643
▁waffen	-11.7643
▁kla	-11.7655
▁pops	-11.7655
▁ketten	-11.7655
▁characters	-11.7658
▁legos	-11.7659
▁geschichte	-11.7663
parcours	-11.7671
▁fliesen	-11.7671
mber	-11.7677
▁boote	-11.7687
▁hunt	-11.7689
▁elevat	-11.77
kop	-11.7701
blauem	-11.7701
▁prepared	-11.7701
kommende	-11.7704
bh	-11.7713
▁heran	-11.7713
▁dor	-11.7715
▁arbeitende	-11.7719
▁upwards	-11.7725
▁ordering	-11.7726
▁noten	-11.7734
▁dribble	-11.7739
▁damage	-11.774
▁ingr	-11.7741
▁rauchend	-11.7745
yo	-11.7751
▁bean	-11.7756
oh	-11.7763
▁enten	-11.7766
▁strap	-11.7768
ional	-11.7771
▁sommerkleid	-11.7785
▁chil	-11.7793
▁monitors	-11.7793
▁jo	-11.7797
▁drawn	-11.7806
▁san	-11.7807
▁drying	-11.7807
▁angeln	-11.7808
▁seichtem	-11.7809
▁voran	-11.7811
▁schiffs	-11.7816
▁reisen	-11.782
▁seating	-11.7836
▁necklaces	-11.7839
▁trocken	-11.7844
right	-11.7847
py	-11.7854
▁barrels	-11.7861
▁brillen	-11.787
▁tu	-11.7872
turne	-11.7874
▁hochkletter	-11.7879
▁wüsten	-11.7883
▁doctors	-11.7885
▁pans	-11.7889
par	-11.789
▁layer	-11.7891
▁boxers	-11.7893
▁secure	-11.7899
▁tumbl	-11.79
▁litter	-11.7902
▁unbekannte	-11.7902
▁geburtstags	-11.7923
▁aufzu	-11.7924
▁dolls	-11.793
▁stofftier	-11.7938
zunehmen	-11.7943
▁schauspieler	-11.7955
front	-11.7956
▁pyramide	-11.796
▁aufeinander	-11.797
suche	-11.799
aking	-11.7991
▁badehosen	-11.7999
▁betrieb	-11.8008
musikinstrumente	-11.8019
▁advertisements	-11.8023
▁slip	-11.8027
druck	-11.8031
▁kaputte	-11.804
▁che	-11.8042
uf	-11.8044
ica	-11.8052
▁kisse	-11.8064
▁haltend	-11.8084
spielerinnen	-11.812
▁recline	-11.8129
▁verletzte	-11.814
▁rafts	-11.8145
▁schale	-11.8147
▁funk	-11.8151
host	-11.8158
▁concentrate	-11.816
▁fountains	-11.8171
▁schmink	-11.8178
sicht	-11.8183
▁kühl	-11.8206
anz	-11.8235
▁squ	-11.8248
ade	-11.8249
▁pf	-11.8258
▁videospiele	-11.826
▁misch	-11.827
▁projektor	-11.8309
▁build	-11.8315
▁sculptures	-11.833
▁strings	-11.833
▁nummern	-11.8342
ix	-11.835
mittelalterliche	-11.836
▁umhänge	-11.8386
▁erhöhte	-11.8389
ips	-11.84
streifen	-11.8408
▁writ	-11.8417
gent	-11.8429
roter	-11.8446
▁traurig	-11.8449
long	-11.8452
▁spend	-11.8456
▁accompani	-11.8474
▁cats	-11.8475
steinen	-11.8477
nüss	-11.848
▁diverse	-11.8484
▁verletzt	-11.8486
torte	-11.8499
stein	-11.85
ligen	-11.8505
per	-11.8535
amerikanische	-11.8545
▁stretch	-11.8546
cting	-11.8565
lender	-11.8565
▁gute	-11.8567
▁cro	-11.8591
▁stunts	-11.8597
▁wenig	-11.8605
anging	-11.8617
▁raining	-11.8618
tritt	-11.8625
▁kajaks	-11.863
▁bell	-11.863
▁el	-11.8659
▁spielzeuge	-11.867
▁fahrzeugs	-11.8675
▁mittel	-11.8678
▁shine	-11.8678
leitung	-11.868
rou	-11.8688
wache	-11.8704
▁einzu	-11.8715
▁komische	-11.8717
▁rin	-11.8719
bling	-11.8745
unk	-11.8765
geräte	-11.8777
sgeschäft	-11.8786
nding	-11.8817
▁besch	-11.8835
gepackte	-11.8843
ath	-11.8845
▁ladens	-11.8847
▁railings	-11.8847
ort	-11.8859
▁drag	-11.8864
▁desks	-11.8871
▁tiefe	-11.8873
▁explor	-11.8874
▁familien	-11.8883
▁fork	-11.8912
pri	-11.8915
cking	-11.8921
▁geschlagen	-11.8921
▁har	-11.8924
▁aufschlag	-11.893
▁freizeit	-11.8933
legen	-11.8938
▁parken	-11.8948
▁mac	-11.8955
ängen	-11.8975
arbeiten	-11.8982
time	-11.8991
lastwagen	-11.8996
aufen	-11.8999
▁arti	-11.9018
▁hun	-11.9028
▁pillar	-11.9028
▁lemon	-11.9028
▁ausge	-11.9032
▁poncho	-11.9032
▁weapon	-11.9032
▁zombie	-11.9035
gelegte	-11.9038
▁crate	-11.9043
▁peak	-11.9043
wettkampf	-11.905
▁steer	-11.905
▁fle	-11.9059
ausstellung	-11.9061
genommen	-11.9063
▁stair	-11.9068
▁cigarettes	-11.9075
oße	-11.9082
pad	-11.9084
hält	-11.9084
gibt	-11.9087
kommt	-11.909
storm	-11.9092
struktur	-11.9092
schmuck	-11.9093
lampe	-11.9093
pflasterstraße	-11.9094
brechen	-11.9094
springt	-11.9094
schuss	-11.9094
▁schmetter	-11.9095
aufnahme	-11.9095
werfer	-11.9095
▁assist	-11.9095
hütte	-11.9095
brücke	-11.9095
ansicht	-11.9096
kragen	-11.9096
day	-11.9097
guckt	-11.9097
flute	-11.9097
karren	-11.9097
festival	-11.9097
bogen	-11.9097
football	-11.9097
aufführung	-11.9097
pool	-11.9097
becher	-11.9097
mänteln	-11.9098
sportler	-11.9098
stapel	-11.9098
objekt	-11.9098
held	-11.9098
spiegel	-11.9099
steigt	-11.9099
papier	-11.9099
▁bandmitglieder	-11.9099
umgebung	-11.9099
schaufel	-11.9099
brunnen	-11.9099
motorrad	-11.9099
filled	-11.9099
rosa	-11.9099
jump	-11.9099
leiter	-11.9099
piece	-11.9099
wiese	-11.9099
holz	-11.9099
bunte	-11.91
welt	-11.91
leute	-11.9101
sturm	-11.9101
view	-11.9101
schale	-11.9101
cement	-11.9102
▁körbe	-11.9102
▁wände	-11.9103
zwei	-11.9104
well	-11.9105
▁kunde	-11.9105
schneidet	-11.9109
▁klare	-11.911
▁lande	-11.9112
bäumen	-11.912
▁nachrichten	-11.9123
▁eishockeyspiel	-11.9123
cast	-11.9126
▁neu	-11.9128
volleyball	-11.9131
▁reise	-11.9131
▁fit	-11.9134
mature	-11.9134
dressed	-11.9138
▁schieß	-11.9138
▁defend	-11.9146
▁teenagerin	-11.9148
▁inspizier	-11.9151
▁metro	-11.9151
▁neb	-11.9155
ständ	-11.9162
▁pray	-11.9162
▁wicke	-11.9162
schließ	-11.9164
rüstung	-11.9167
▁brief	-11.9168
gebung	-11.9169
▁ceremon	-11.917
▁tomato	-11.9172
▁softballspiel	-11.9173
▁unterhaltung	-11.9174
▁werbe	-11.9174
mobil	-11.9174
burg	-11.9174
attraktion	-11.9174
strauß	-11.9178
▁nachmittag	-11.9178
onne	-11.9178
▁communicat	-11.9178
wolke	-11.9179
▁nude	-11.9179
▁attack	-11.9179
▁wrist	-11.9179
ingham	-11.9179
▁cash	-11.9179
▁früh	-11.9179
fältig	-11.9179
▁magnif	-11.9179
▁brindle	-11.9179
▁civil	-11.9179
▁curious	-11.9179
▁kommunizier	-11.9179
▁scantily	-11.9179
cient	-11.918
geführt	-11.918
kapelle	-11.918
komplex	-11.918
leidenschaftlich	-11.918
sponsor	-11.918
▁agility	-11.918
▁alcohol	-11.918
▁aufmerksamkeit	-11.918
▁ausgestopfte	-11.918
▁available	-11.918
▁barbie	-11.918
▁barricade	-11.918
▁berggipfel	-11.918
▁beschädigte	-11.918
▁breast	-11.918
▁breath	-11.918
▁brochure	-11.918
▁camcorder	-11.918
▁clarinet	-11.918
▁convention	-11.918
▁cycle	-11.918
▁donuts	-11.918
▁dutzend	-11.918
▁einkaufspassage	-11.918
▁einzufangen	-11.918
▁elegant	-11.918
▁enclos	-11.918
▁erwischt	-11.918
▁explosion	-11.918
▁füttern	-11.918
▁gemütlich	-11.918
▁geometri	-11.918
▁glacier	-11.918
▁gyro	-11.918
▁hochzeitstorte	-11.918
▁hüpfburg	-11.918
▁identical	-11.918
▁irgendetwas	-11.918
▁javelin	-11.918
▁jüdische	-11.918
▁kampfkunst	-11.918
▁karaoke	-11.918
▁karneval	-11.918
▁komplizierte	-11.918
▁küchentresen	-11.918
▁labrador	-11.918
▁lieblings	-11.918
▁liegestühlen	-11.918
▁limousine	-11.918
▁lipstick	-11.918
▁liquor	-11.918
▁machete	-11.918
▁mariachi	-11.918
▁maulkörben	-11.918
▁memorial	-11.918
▁milch	-11.918
▁muschel	-11.918
▁navigier	-11.918
▁ninja	-11.918
▁ollie	-11.918
▁pflückt	-11.918
▁progress	-11.918
▁question	-11.918
▁ravine	-11.918
▁razor	-11.918
▁relay	-11.918
▁ritual	-11.918
▁sackhüpfen	-11.918
▁samurai	-11.918
▁sauna	-11.918
▁schattige	-11.918
▁schippt	-11.918
▁scissors	-11.918
▁seilspringen	-11.918
▁socializing	-11.918
▁spatula	-11.918
▁spielmannszug	-11.918
▁stabhochsprung	-11.918
▁submerge	-11.918
▁suburb	-11.918
▁sunshine	-11.918
▁supervis	-11.918
▁sweet	-11.918
▁textnachricht	-11.918
▁tischtennis	-11.918
▁utili	-11.918
▁verrückt	-11.918
▁versehen	-11.918
▁vorlesung	-11.918
▁wasserfontäne	-11.918
▁weihnachten	-11.918
▁wolkige	-11.918
▁wunderkerze	-11.918
▁wäre	-11.918
▁zuckerwatte	-11.918
entgegengesetzte	-11.918
▁amboss	-11.918
▁durchsucht	-11.918
▁gänse	-11.918
▁hollister	-11.918
▁kartoffel	-11.918
▁milk	-11.918
▁occurr	-11.918
▁panda	-11.918
▁scratch	-11.918
▁eager	-11.918
▁frown	-11.918
▁gallop	-11.918
▁hörsaal	-11.918
▁nadelstreifen	-11.918
▁recreat	-11.918
▁verfolgen	-11.918
▁vieh	-11.918
▁berlin	-11.918
▁fahrgäste	-11.918
▁goatee	-11.918
▁rückwärtssalto	-11.918
▁stachel	-11.918
▁teddy	-11.918
schonern	-11.918
▁bummel	-11.918
▁dekorationen	-11.918
▁minigolf	-11.918
▁minne	-11.918
▁fitnessstudio	-11.918
▁powerpoint	-11.918
▁accept	-11.918
▁lippenstift	-11.918
▁slum	-11.918
batik	-11.918
▁digitalkamera	-11.918
▁kamin	-11.918
▁pflüg	-11.918
▁plush	-11.918
▁schädel	-11.918
▁wettlauf	-11.918
rgert	-11.918
▁flood	-11.918
▁kurzhaarige	-11.918
▁möbelstück	-11.918
▁normal	-11.918
▁rise	-11.918
▁session	-11.918
▁corgi	-11.918
▁schotterstraße	-11.918
▁assistant	-11.918
▁bordsteinkante	-11.918
▁mustang	-11.918
▁schält	-11.918
▁krankenhausbett	-11.918
▁spazierstock	-11.918
▁bmw	-11.918
trennt	-11.918
▁massive	-11.918
▁schwimmflügeln	-11.918
▁sparkler	-11.918
▁final	-11.918
▁bequem	-11.918
▁strickt	-11.918
lpen	-11.918
▁bricht	-11.918
▁fußgängerbrücke	-11.918
▁karge	-11.918
▁knitting	-11.918
▁nachtclub	-11.918
▁deliver	-11.918
▁fingernägel	-11.918
▁schotterweg	-11.918
gedruckt	-11.918
▁landkarte	-11.918
▁lim	-11.918
▁tausch	-11.918
▁anschauen	-11.918
▁chat	-11.918
▁tribe	-11.918
▁haken	-11.918
▁salat	-11.918
▁chunk	-11.918
▁essenswagen	-11.918
▁fischerboot	-11.918
▁archway	-11.918
▁strandpromenade	-11.918
▁aufwärmen	-11.918
▁haul	-11.918
▁whistle	-11.918
▁nightclub	-11.918
▁instructor	-11.918
▁seesaw	-11.918
▁vermu	-11.918
▁öl	-11.918
▁awning	-11.918
▁cremefarbene	-11.918
▁kaukasische	-11.918
▁betonbank	-11.9181
▁puff	-11.9181
▁swamp	-11.9181
haps	-11.9181
▁drift	-11.9181
▁schwimmhilfe	-11.9181
▁außenseite	-11.9181
calist	-11.9181
▁saddle	-11.9181
▁intensiv	-11.9181
▁kopftücher	-11.9181
▁dragon	-11.9181
▁metallzaun	-11.9181
▁jew	-11.9181
▁motorboot	-11.9181
▁tunic	-11.9181
▁fußtritt	-11.9181
▁wii	-11.9181
schwarm	-11.9181
▁besetzte	-11.9181
▁toyota	-11.9181
▁blumenstrauß	-11.9181
▁sailor	-11.9181
▁verteilen	-11.9181
▁akrobatische	-11.9181
▁meeresfrüchte	-11.9182
▁wineglasses	-11.9182
▁lama	-11.9182
▁limo	-11.9182
▁crab	-11.9182
▁teilnimmt	-11.9182
▁riverbank	-11.9182
▁badge	-11.9182
▁taucheranzug	-11.9182
▁golfplatz	-11.9182
▁tänzerinnen	-11.9182
▁begutachten	-11.9182
▁feuerwerk	-11.9182
▁gestützt	-11.9183
▁geradeaus	-11.9183
▁western	-11.9183
▁glasgebäude	-11.9183
▁wasserpistole	-11.9183
▁handgelenk	-11.9183
▁erreicht	-11.9183
▁straßenmarkt	-11.9183
▁thai	-11.9184
▁clap	-11.9184
▁beteiligt	-11.9184
▁assembled	-11.9184
▁hochhält	-11.9185
▁hochspringt	-11.9185
ctors	-11.9185
▁gefäll	-11.9185
▁badekleidung	-11.9186
▁uferweg	-11.9186
▁hairstyle	-11.9186
ofen	-11.9186
▁drain	-11.9186
▁cru	-11.9187
▁sharp	-11.9187
▁bikinioberteil	-11.9187
▁tomatoes	-11.9187
▁platziert	-11.9187
▁lakers	-11.9188
▁fist	-11.9188
▁soup	-11.9188
▁draht	-11.9188
▁occup	-11.9188
▁ethnische	-11.9188
▁promenade	-11.9188
▁pyjama	-11.9188
▁volunteer	-11.9188
▁zutaten	-11.9188
▁begleiter	-11.919
▁trocknet	-11.919
▁girlfriend	-11.919
stroke	-11.919
▁lovely	-11.919
▁belly	-11.919
wählt	-11.919
▁überblickt	-11.9191
▁spark	-11.9191
▁sandskulptur	-11.9191
▁poliert	-11.9191
ator	-11.9191
lehrt	-11.9192
▁autositz	-11.9192
spekt	-11.9193
reich	-11.9193
▁windsurfer	-11.9194
▁constructed	-11.9194
▁joe	-11.9195
▁hol	-11.9195
▁skateboardtrick	-11.9195
▁polizeibeamte	-11.9195
▁q	-11.9196
▁verä	-11.9196
▁radfahren	-11.9196
▁untergeht	-11.9196
▁completely	-11.9196
händige	-11.9197
▁cad	-11.9197
▁soon	-11.9198
gerahmte	-11.9198
▁skateboardpark	-11.9199
▁tennisschuhen	-11.9199
▁wartungsarbeite	-11.9199
▁need	-11.92
▁excitedly	-11.92
▁eisbahn	-11.9201
▁wetteifern	-11.9202
bell	-11.9202
▁notizen	-11.9203
grund	-11.9204
▁retriever	-11.9204
▁bohrt	-11.9204
▁enthusiast	-11.9204
▁haarschnitt	-11.9204
▁hubschrauber	-11.9204
▁krug	-11.9204
▁mouse	-11.9204
▁wok	-11.9204
reckt	-11.9206
▁durchgang	-11.9206
▁glider	-11.9207
▁solder	-11.9207
▁inspizieren	-11.9208
▁antique	-11.9208
▁spielzeugauto	-11.9209
gelegt	-11.921
▁ausschau	-11.9212
▁marineblau	-11.9213
pain	-11.9214
▁walkie	-11.9214
▁fernrohr	-11.9215
▁leoparden	-11.9218
▁hydranten	-11.9218
▁snowball	-11.9219
▁besprüht	-11.9219
▁schrift	-11.922
▁rasenmäher	-11.922
▁schwein	-11.922
▁steg	-11.9221
▁punkten	-11.9223
▁spielplatzgerät	-11.9224
▁grins	-11.9225
▁saal	-11.9225
▁freut	-11.9225
▁arriv	-11.9225
▁sash	-11.9225
▁let	-11.9226
▁cli	-11.9226
▁vorübergehen	-11.9227
▁deckel	-11.9227
▁fro	-11.923
▁kiefern	-11.9231
▁rangel	-11.9231
▁waterside	-11.9233
▁aufgehängt	-11.9234
▁senioren	-11.9234
▁decide	-11.9234
▁fechten	-11.9235
▁messe	-11.9235
▁schloss	-11.9236
teilen	-11.9236
▁kre	-11.9238
▁angestellte	-11.9238
pferd	-11.9239
▁wanderweg	-11.9239
▁bahngleisen	-11.9239
▁verkehrt	-11.9241
▁mill	-11.9243
▁massen	-11.9244
▁trim	-11.9244
hin	-11.9245
▁eiswaffeln	-11.9246
▁bulle	-11.9246
▁kontrollier	-11.9248
▁soak	-11.9248
▁frag	-11.9248
▁framed	-11.9252
▁sms	-11.9253
▁pain	-11.9255
▁hung	-11.9255
▁bieg	-11.9255
ellen	-11.9256
rudel	-11.9256
▁herein	-11.9257
szenerie	-11.926
rolle	-11.9262
▁modische	-11.9264
▁assisting	-11.9264
meter	-11.9264
lace	-11.9265
▁geschlossen	-11.9268
▁ausflug	-11.9269
▁lea	-11.9271
▁words	-11.9273
▁seagulls	-11.9273
▁warnwesten	-11.9276
töpfe	-11.9276
▁schienen	-11.9277
▁schippe	-11.9278
ice	-11.9278
▁aufhat	-11.9279
▁blower	-11.928
▁tips	-11.9284
▁poloshirt	-11.9284
▁deer	-11.9286
▁militäruniform	-11.9288
▁sal	-11.9289
▁meter	-11.9289
▁padde	-11.9292
▁cupcakes	-11.9299
▁kabeln	-11.9299
▁stoß	-11.9304
mützen	-11.9305
▁clothed	-11.9305
▁gewehren	-11.9307
▁werkzeugen	-11.9311
▁japaner	-11.9321
▁feuert	-11.9322
▁dunkeln	-11.9324
▁demonstrat	-11.9325
▁zombies	-11.9326
gi	-11.9329
▁platten	-11.9333
▁dunkelbraune	-11.9335
▁schwanz	-11.9338
▁aufrecht	-11.9344
▁zune	-11.9346
▁schick	-11.9348
▁footballteam	-11.9349
▁gürteln	-11.935
▁festliche	-11.935
▁raus	-11.9357
handlung	-11.9362
▁teile	-11.9362
▁fußballspielen	-11.9364
leng	-11.937
▁prop	-11.937
▁pie	-11.9372
▁gowns	-11.938
▁rugs	-11.938
▁nails	-11.938
▁checked	-11.9382
▁tiefen	-11.9385
▁niedliche	-11.9393
ätzen	-11.9394
▁shave	-11.9396
stehenden	-11.94
▁texting	-11.9402
flated	-11.9403
aune	-11.9406
▁spüle	-11.9406
▁spots	-11.9407
▁disk	-11.9408
▁fer	-11.9422
▁dots	-11.9424
fallschirmspring	-11.9432
freizeitkleidung	-11.9433
▁spielerin	-11.9434
▁fröhliches	-11.9436
▁stücke	-11.9445
▁warmer	-11.9454
▁comb	-11.9463
trainer	-11.9471
▁stütz	-11.9481
ough	-11.9485
junge	-11.9486
tly	-11.9486
▁unterricht	-11.9491
▁mikrofone	-11.9493
▁explore	-11.9495
▁emerge	-11.9498
▁kegeln	-11.9501
▁mau	-11.9501
eye	-11.9512
▁pat	-11.9513
▁wip	-11.9516
▁sche	-11.9516
▁spitzen	-11.9526
talkie	-11.9526
▁barriers	-11.9533
eitlich	-11.9543
▁sodas	-11.9543
▁dreckige	-11.9548
▁gesichter	-11.9551
▁irgendein	-11.9553
▁rasier	-11.9558
▁wurden	-11.9562
▁essend	-11.9568
▁zeichnung	-11.9582
▁zähnen	-11.9593
zeichnet	-11.9598
▁softballspieler	-11.9621
▁brooms	-11.9626
▁sprinklers	-11.9654
▁dil	-11.9662
▁tänzern	-11.967
▁ribbons	-11.9681
▁lanes	-11.9681
▁beams	-11.9686
teig	-11.9691
▁verbunden	-11.9693
▁ur	-11.9696
▁hearts	-11.9706
bri	-11.9709
▁jumpsuits	-11.9709
▁swords	-11.9709
▁eingangs	-11.9711
▁vault	-11.9727
▁noodle	-11.9727
▁sleeves	-11.9737
fie	-11.9749
old	-11.9756
▁bows	-11.9761
ringen	-11.9766
▁kicken	-11.9785
▁bark	-11.9791
llt	-11.9802
▁twi	-11.9809
eilen	-11.9815
▁tubes	-11.9819
▁schülern	-11.9827
ak	-11.9843
▁pipes	-11.9849
▁bottoms	-11.9849
▁perche	-11.9866
▁unglücklich	-11.9876
▁wheelchairs	-11.9878
▁hear	-11.9886
schiedenfarbige	-11.9903
▁presents	-11.9906
▁blocking	-11.9932
▁accompanie	-11.9938
▁crouch	-11.9955
▁probe	-11.9961
con	-11.9968
▁traurige	-11.9968
▁devices	-11.9992
▁bitte	-11.9997
tang	-12.002
shake	-12.0021
stücke	-12.0023
▁schwarzweiß	-12.0029
▁noses	-12.0051
▁slopes	-12.0051
▁gesenkt	-12.0064
▁release	-12.007
▁mittelalter	-12.0072
▁ebene	-12.0113
unterteil	-12.0116
▁musikern	-12.0123
▁thema	-12.0141
▁mikrofonen	-12.0149
▁seltsam	-12.0174
hre	-12.0176
▁fre	-12.0182
▁posts	-12.0182
act	-12.0188
▁gesenkte	-12.0198
▁tw	-12.0205
▁wend	-12.0205
▁rosarot	-12.021
▁microscopes	-12.0224
▁beladene	-12.0227
▁kein	-12.0236
pflege	-12.0246
▁mast	-12.0266
sper	-12.0284
▁trimm	-12.0319
tackelt	-12.0324
our	-12.0345
▁förmliche	-12.0357
▁trot	-12.037
▁gedrängt	-12.037
▁geh	-12.0376
▁wegen	-12.0388
▁ohrring	-12.0392
ute	-12.0396
braun	-12.0397
▁ferr	-12.0413
ppy	-12.0418
▁rein	-12.0438
chaufensterfront	-12.0446
bee	-12.0455
▁bastelt	-12.0462
▁rollern	-12.0488
▁bi	-12.0498
▁sanit	-12.0507
skifahrer	-12.0515
▁scheinwerfer	-12.0534
▁entl	-12.0535
▁sprinkl	-12.0574
ple	-12.0599
chaufensterpuppe	-12.062
▁plan	-12.0623
▁plantsch	-12.0636
▁rec	-12.0641
▁barbecu	-12.0647
nach	-12.067
▁chan	-12.0677
▁gesäumt	-12.0687
▁relaxe	-12.0701
▁par	-12.0716
zer	-12.0722
▁buck	-12.0728
▁umgedrehte	-12.0735
zeichnungen	-12.0744
▁slop	-12.0759
rutsche	-12.0763
▁recht	-12.0772
▁krone	-12.0772
ski	-12.0776
besucher	-12.0789
▁saft	-12.081
reicht	-12.0811
rank	-12.0838
▁leb	-12.0865
▁athlet	-12.0867
▁wipe	-12.0884
blade	-12.089
hat	-12.0893
▁shi	-12.0893
ierung	-12.0897
nische	-12.0902
hole	-12.0932
cap	-12.0955
▁tanne	-12.0962
baby	-12.0964
stens	-12.0968
ohren	-12.0977
▁beg	-12.0979
▁geb	-12.0979
skating	-12.0982
decker	-12.0986
▁protestieren	-12.0999
sessel	-12.1005
▁runde	-12.1009
▁pelz	-12.1012
orange	-12.1017
gestreifte	-12.1018
▁schwimmerin	-12.1029
▁lock	-12.1031
▁sock	-12.1033
▁cupcake	-12.1035
eisten	-12.1035
▁banana	-12.1037
▁watermelon	-12.1037
▁patron	-12.1037
▁lip	-12.1038
▁kimono	-12.1039
▁jog	-12.104
stelle	-12.1042
▁bagpipe	-12.1042
▁neugeborene	-12.1042
▁scout	-12.1044
langen	-12.1044
▁pedestrian	-12.1045
▁presse	-12.1048
▁bro	-12.1048
doo	-12.1049
bude	-12.105
▁backward	-12.1057
▁jung	-12.106
▁löwen	-12.1065
bull	-12.1068
▁älter	-12.1075
fertige	-12.1077
viertel	-12.1082
▁cooler	-12.1083
▁wasserball	-12.1083
musik	-12.1085
latz	-12.1086
nähe	-12.1087
welcome	-12.1088
wanderung	-12.1088
malen	-12.1089
feier	-12.1089
where	-12.1091
rennbahn	-12.1092
kappe	-12.1092
ausflug	-12.1093
haufen	-12.1093
vorstellung	-12.1094
ähne	-12.1094
▁kletter	-12.1095
graben	-12.1095
bündel	-12.1095
▁know	-12.1095
neck	-12.1096
gurt	-12.1096
gegend	-12.1096
girl	-12.1096
schirm	-12.1096
print	-12.1097
torhüter	-12.1097
arena	-12.1097
projekt	-12.1097
skater	-12.1097
▁letzte	-12.1098
position	-12.1098
wheeler	-12.1098
verkauf	-12.1098
kissen	-12.1098
trommel	-12.1098
terrasse	-12.1098
feder	-12.1098
blatt	-12.1098
tief	-12.1098
gerüst	-12.1099
kamera	-12.1099
kreis	-12.1099
runner	-12.1099
jagt	-12.1099
stadt	-12.1099
▁eiswaffel	-12.1099
kunststück	-12.1099
computer	-12.1099
bühne	-12.1099
leckt	-12.1099
herum	-12.11
pants	-12.11
▁wassermelone	-12.11
▁tüte	-12.1101
wett	-12.1101
stoff	-12.1102
nah	-12.1102
▁blase	-12.1103
▁büsche	-12.1103
▁ausgebreitete	-12.1103
▁bewölkte	-12.1103
▁kerze	-12.1103
▁rucksäcke	-12.1104
▁speise	-12.1104
wall	-12.1105
ucking	-12.1105
▁mittlere	-12.1105
sims	-12.1106
treffen	-12.1108
kind	-12.1115
▁schreien	-12.1121
zeugen	-12.1124
ailing	-12.1124
scheinen	-12.1125
▁schweiß	-12.1128
▁enge	-12.1132
radfahrer	-12.1133
züg	-12.1135
▁synchron	-12.1136
zieh	-12.1137
▁reit	-12.1139
figuren	-12.1142
pflanzen	-12.1145
▁patriot	-12.1147
▁teddybär	-12.1149
▁champagne	-12.1149
▁elektri	-12.115
▁melon	-12.115
▁lenk	-12.1151
▁poke	-12.1152
wachsen	-12.1158
▁construct	-12.1161
räumt	-12.1161
▁notiz	-12.1162
▁bauer	-12.1162
▁dränge	-12.1163
▁blut	-12.1163
▁multicolor	-12.1163
strümpfen	-12.1164
bert	-12.1164
▁bewunder	-12.1165
▁robot	-12.1166
liga	-12.1167
▁kit	-12.1168
▁brid	-12.1168
▁aufgabe	-12.1168
▁hellrosa	-12.1169
boo	-12.1169
wirbelt	-12.1172
▁latin	-12.1172
▁arabi	-12.1173
▁boa	-12.1174
zuheben	-12.1174
▁super	-12.1174
sänger	-12.1176
▁geste	-12.1176
▁jonglier	-12.1176
schlüssel	-12.1176
▁interess	-12.1177
mechani	-12.1177
laterne	-12.1178
▁limb	-12.1178
hüpf	-12.1179
holen	-12.1179
wärme	-12.1179
▁arrange	-12.1179
▁express	-12.1179
▁schotter	-12.1179
orridor	-12.1179
loud	-12.1179
▁eisschnelll	-12.1179
riff	-12.1179
putzer	-12.1179
ordnet	-12.1179
▁trau	-12.1179
magazin	-12.1179
dunkelte	-12.1179
▁curren	-12.1179
▁errichtet	-12.1179
▁gemeinde	-12.1179
▁kitesurf	-12.1179
▁umgekippt	-12.1179
▁öffnung	-12.1179
estrian	-12.118
gefunden	-12.118
gerissen	-12.118
metallgegenstand	-12.118
nschaftskollegen	-12.118
quaint	-12.118
sgesellschaft	-12.118
stöckige	-12.118
unruhige	-12.118
uvre	-12.118
würfel	-12.118
▁abstammung	-12.118
▁anorak	-12.118
▁ballbesitz	-12.118
▁befestigen	-12.118
▁bookshelf	-12.118
▁burka	-12.118
▁canopy	-12.118
▁carousel	-12.118
▁cinder	-12.118
▁cityscape	-12.118
▁community	-12.118
▁consult	-12.118
▁dafür	-12.118
▁demonstrier	-12.118
▁depict	-12.118
▁deutet	-12.118
▁diadem	-12.118
▁dolphin	-12.118
▁erzielen	-12.118
▁erzählt	-12.118
▁escape	-12.118
▁excitement	-12.118
▁exciting	-12.118
▁eyeglasses	-12.118
▁fireplace	-12.118
▁fluores	-12.118
▁friedhof	-12.118
▁funktioniert	-12.118
▁garagentor	-12.118
▁gemischte	-12.118
▁geschnitzte	-12.118
▁gestrüpp	-12.118
▁gewicht	-12.118
▁gewonnen	-12.118
▁gärtner	-12.118
▁harfe	-12.118
▁heißt	-12.118
▁hijab	-12.118
▁hochzeitsfeier	-12.118
▁huckepack	-12.118
▁identisch	-12.118
▁internet	-12.118
▁irgendwelche	-12.118
▁karikatur	-12.118
▁kleinigkeit	-12.118
▁matratze	-12.118
▁mehl	-12.118
▁merchant	-12.118
▁nibbl	-12.118
▁orangensaft	-12.118
▁passerby	-12.118
▁passionate	-12.118
▁peacock	-12.118
▁pflanzt	-12.118
▁possession	-12.118
▁pursu	-12.118
▁remote	-12.118
▁represent	-12.118
▁rowboat	-12.118
▁rubble	-12.118
▁rustikal	-12.118
▁schanze	-12.118
▁schaumbad	-12.118
▁schokolade	-12.118
▁schusswaffe	-12.118
▁schwierigkeiten	-12.118
▁shampoo	-12.118
▁sheepdog	-12.118
▁shoeshine	-12.118
▁slowly	-12.118
▁staffellauf	-12.118
▁stolpert	-12.118
▁sturz	-12.118
▁surgeons	-12.118
▁sweatsuit	-12.118
▁söhne	-12.118
▁süße	-12.118
▁tambourine	-12.118
▁tauchausrüstung	-12.118
▁tiara	-12.118
▁tightrope	-12.118
▁tread	-12.118
▁truthahn	-12.118
▁unidentifi	-12.118
▁unknown	-12.118
▁vacation	-12.118
▁verloren	-12.118
▁versorg	-12.118
▁verteidigen	-12.118
▁watercraft	-12.118
▁weave	-12.118
▁weingläsern	-12.118
▁wissenschaftler	-12.118
▁wälder	-12.118
▁zerbrochene	-12.118
▁äpfel	-12.118
▁überwiegend	-12.118
dehnt	-12.118
hantel	-12.118
hnachtsgeschenke	-12.118
penguin	-12.118
▁abgewandt	-12.118
▁blossom	-12.118
▁campsite	-12.118
▁dirigent	-12.118
▁dragster	-12.118
▁kanone	-12.118
▁kastenwagen	-12.118
▁klassische	-12.118
▁kongress	-12.118
▁lateinamerikan	-12.118
▁refresh	-12.118
▁rehears	-12.118
▁respond	-12.118
▁riemen	-12.118
ctively	-12.118
taught	-12.118
▁curtain	-12.118
▁dramatic	-12.118
▁garment	-12.118
▁impress	-12.118
▁oak	-12.118
▁stricken	-12.118
▁verliert	-12.118
▁werkzeuggürtel	-12.118
▁bauernhof	-12.118
▁crocs	-12.118
▁dachshund	-12.118
▁sprache	-12.118
▁streicheln	-12.118
▁zupft	-12.118
ausstattung	-12.118
schwamm	-12.118
▁automobile	-12.118
▁esszimmer	-12.118
▁rötliche	-12.118
▁winzige	-12.118
klötze	-12.118
▁blass	-12.118
▁dampf	-12.118
▁kriech	-12.118
darsteller	-12.118
▁gepflegte	-12.118
▁gesteckt	-12.118
▁hängebrücke	-12.118
▁lappen	-12.118
▁elbow	-12.118
▁bracelet	-12.118
▁halfpipe	-12.118
▁strawberr	-12.118
▁strum	-12.118
▁backsteinwand	-12.118
▁ruinen	-12.118
▁lausch	-12.118
▁snake	-12.118
▁squirt	-12.118
▁cartoon	-12.118
▁contemplat	-12.118
▁hafengebiet	-12.118
▁scharfe	-12.118
▁absperrband	-12.118
▁drunk	-12.118
▁answer	-12.118
▁geschossen	-12.118
▁salad	-12.118
▁bäckerei	-12.118
▁assort	-12.118
▁fliesenboden	-12.118
▁meditat	-12.118
zange	-12.118
▁stecken	-12.118
▁riss	-12.118
▁fleece	-12.118
▁schwanger	-12.118
▁kleinstadt	-12.118
▁pracht	-12.118
▁schluck	-12.118
▁solid	-12.118
▁jetski	-12.118
▁operationssaal	-12.118
▁endzone	-12.118
▁erdboden	-12.118
▁quilt	-12.118
cept	-12.118
▁stylish	-12.118
▁türeingang	-12.118
ngry	-12.118
▁clock	-12.118
▁parachuting	-12.118
▁jackhammer	-12.118
▁antike	-12.118
▁toreinfahrt	-12.118
▁blätterhaufen	-12.118
▁ruins	-12.118
▁retai	-12.118
▁umhängetasche	-12.118
▁apparatus	-12.118
▁freiluftmarkt	-12.118
▁doktor	-12.118
▁mike	-12.118
▁hedge	-12.118
▁cattle	-12.118
▁ginger	-12.118
▁schildkröte	-12.118
▁dojo	-12.118
▁holzplattform	-12.118
termin	-12.118
▁cruis	-12.118
▁princess	-12.118
▁combat	-12.118
▁hipster	-12.118
▁attendant	-12.118
▁audio	-12.118
▁plakatwand	-12.118
▁brace	-12.118
▁puma	-12.118
▁sketch	-12.118
▁pride	-12.118
▁suppe	-12.118
▁sanft	-12.118
▁hechtet	-12.118
▁knab	-12.118
▁shelves	-12.118
gebilde	-12.118
▁cowboyhüte	-12.118
▁slab	-12.118
▁stiel	-12.1181
▁cartwheel	-12.1181
▁flour	-12.1181
▁flier	-12.1181
▁straßenlaterne	-12.1181
▁bademantel	-12.1181
▁selection	-12.1181
▁recent	-12.1181
adles	-12.1181
▁sparse	-12.1181
karten	-12.1181
▁abschluss	-12.1181
▁coke	-12.1181
▁intense	-12.1181
▁gespreizt	-12.1181
▁geholfen	-12.1181
▁kitten	-12.1181
▁konferenztisch	-12.1181
▁moor	-12.1181
▁warenkorb	-12.1181
▁skigebiet	-12.1181
▁skilift	-12.1181
▁aerial	-12.1181
▁needle	-12.1181
▁glow	-12.1181
▁gartenstuhl	-12.1181
▁lid	-12.1181
schlacht	-12.1181
▁mais	-12.1181
▁graduati	-12.1181
apid	-12.1181
▁national	-12.1181
▁äste	-12.1181
▁beaufsichtigt	-12.1181
▁befragt	-12.1181
▁observers	-12.1181
▁baumaschine	-12.1182
▁stämmige	-12.1182
▁nonne	-12.1182
▁bürogebäude	-12.1182
▁bathrobe	-12.1182
▁halter	-12.1182
afrika	-12.1182
▁cub	-12.1182
▁blindfolded	-12.1182
orangen	-12.1182
▁betonrampe	-12.1182
▁attentively	-12.1182
▁exhibition	-12.1182
▁balancieren	-12.1182
▁attraction	-12.1182
▁greenery	-12.1182
▁freundinnen	-12.1182
▁laut	-12.1182
▁marathonlauf	-12.1182
▁fußboden	-12.1182
▁sortieren	-12.1182
▁außerdem	-12.1182
▁fisherm	-12.1182
▁fließen	-12.1182
▁fond	-12.1182
▁fingernail	-12.1183
bbl	-12.1183
▁dirtbike	-12.1183
▁berghang	-12.1183
▁durchsichtige	-12.1183
▁gum	-12.1183
▁delic	-12.1183
kelle	-12.1183
▁seilschaukel	-12.1183
▁ärzte	-12.1183
▁floaties	-12.1183
▁hecke	-12.1183
hahn	-12.1183
▁pacifier	-12.1183
▁bergsteigen	-12.1183
▁bettelt	-12.1184
▁pferderennen	-12.1184
▁wool	-12.1184
▁abhang	-12.1184
▁sprühfarbe	-12.1184
▁faust	-12.1184
▁backstroke	-12.1184
▁auszeichnung	-12.1184
▁holzstuhl	-12.1184
▁violinist	-12.1184
▁mock	-12.1184
▁holzboot	-12.1185
▁handtücher	-12.1185
▁schneehaufen	-12.1185
▁lav	-12.1185
hilf	-12.1185
▁beschmiert	-12.1185
▁confused	-12.1186
▁umklammert	-12.1186
▁cabin	-12.1186
▁acker	-12.1186
echten	-12.1187
▁bakery	-12.1187
▁boss	-12.1188
▁wett	-12.1188
▁absatzschuhe	-12.1188
▁gestaltete	-12.1188
▁tongs	-12.1188
▁spielzug	-12.1188
▁halbw	-12.1189
▁eigene	-12.1189
▁daylight	-12.1189
schützer	-12.1189
strichen	-12.1189
▁kollegen	-12.1189
▁erledigen	-12.1189
▁reagieren	-12.1189
▁cutout	-12.1189
▁roadwork	-12.1189
▁musizieren	-12.1189
▁inlineskater	-12.119
▁erhalten	-12.119
▁matrosen	-12.119
▁ref	-12.119
▁clothesline	-12.119
▁steam	-12.119
▁struggles	-12.119
▁dominoes	-12.119
▁bedienung	-12.1191
▁denkmal	-12.1191
▁hawk	-12.1191
▁klarinette	-12.1191
▁klatschen	-12.1191
▁strohhalm	-12.1191
▁geduldig	-12.1191
▁peddl	-12.1191
▁health	-12.1191
▁hippie	-12.1191
▁vorbereitung	-12.1191
▁kombi	-12.1191
▁kletterwand	-12.1191
▁amaz	-12.1191
▁arabische	-12.1191
▁marktstand	-12.1191
▁spare	-12.1191
▁motorradrennen	-12.1191
▁verkehrsreiche	-12.1191
▁kniehohe	-12.1192
▁sight	-12.1192
▁medal	-12.1192
▁metallic	-12.1192
elve	-12.1192
▁must	-12.1193
▁roboter	-12.1193
▁lifeguard	-12.1193
▁overhang	-12.1194
▁blurry	-12.1194
▁centr	-12.1194
▁oversize	-12.1195
pplies	-12.1195
▁lenkt	-12.1195
▁kniestrümpfe	-12.1195
▁stadtplatz	-12.1195
▁schalter	-12.1196
▁pout	-12.1196
▁upper	-12.1197
▁schrauben	-12.1197
▁marches	-12.1197
▁competitors	-12.1198
jungen	-12.1198
zucker	-12.1198
▁armband	-12.1199
▁babyschaukel	-12.1199
▁torches	-12.1199
▁vorwärts	-12.12
▁collide	-12.1201
▁glo	-12.1201
techniker	-12.1201
gehoben	-12.1202
▁page	-12.1202
▁tennisspielen	-12.1203
▁beeindruckende	-12.1207
▁wasserlauf	-12.1207
▁cler	-12.1208
▁curling	-12.1209
▁interviewt	-12.1209
▁misst	-12.1209
▁veteran	-12.1209
▁poker	-12.121
▁olympia	-12.121
▁aufkleber	-12.121
▁fässer	-12.121
▁gabel	-12.121
▁kutsche	-12.121
▁twister	-12.121
▁legged	-12.121
▁schneemann	-12.121
▁rallye	-12.1211
▁schwertern	-12.1211
▁vw	-12.1214
▁stoßen	-12.1215
▁interviewed	-12.1215
▁rasieren	-12.1215
antly	-12.1216
▁brand	-12.1216
▁schweißen	-12.1217
▁bay	-12.1219
▁balletttänzer	-12.122
▁locker	-12.122
kunstausstellung	-12.122
▁wadet	-12.122
▁such	-12.1221
schwarze	-12.1222
▁fahrradreifen	-12.1222
▁early	-12.1223
▁schutzwesten	-12.1226
▁peel	-12.1226
▁wasserfahrzeug	-12.1226
▁angesicht	-12.1227
▁tim	-12.1227
▁sandwiches	-12.1227
▁übungen	-12.1227
▁safe	-12.1229
▁kämpfer	-12.1229
▁vollständig	-12.1229
▁geschoben	-12.1229
▁foam	-12.1229
▁schrank	-12.123
▁conditions	-12.123
▁sausages	-12.123
▁bones	-12.123
▁höhle	-12.123
▁vordach	-12.1231
▁entlanggehen	-12.1232
▁fülle	-12.1234
▁beenden	-12.1234
▁served	-12.1237
▁vorbeilaufen	-12.1237
▁pfoten	-12.1238
▁zuhören	-12.1238
▁basketballkorb	-12.1239
▁schülerin	-12.124
▁tarnhose	-12.124
▁transporter	-12.1241
▁shingles	-12.1241
▁fairy	-12.1241
▁nudeln	-12.1244
▁lichtern	-12.1247
▁leashes	-12.1249
▁kulisse	-12.1249
▁ordnung	-12.1249
▁gäste	-12.125
▁lost	-12.1252
capp	-12.1254
▁snowman	-12.1254
▁roh	-12.1256
▁trommelt	-12.1259
▁größer	-12.1261
▁butt	-12.1262
▁letzten	-12.1262
▁earrings	-12.1263
▁urlaubs	-12.1263
▁keys	-12.1263
▁freuen	-12.1263
ssaal	-12.1263
seilen	-12.1266
▁gedeckt	-12.1266
▁haupt	-12.1269
▁hochge	-12.1269
▁rennbahn	-12.1274
icle	-12.1274
▁flieger	-12.1278
▁paddler	-12.128
▁propan	-12.128
▁tear	-12.128
▁skulpturen	-12.1285
▁sturm	-12.1289
▁media	-12.1289
▁sportliche	-12.1292
▁completed	-12.1293
▁barking	-12.1296
fives	-12.1297
▁zusammenge	-12.1297
▁cookies	-12.1298
zy	-12.1302
▁programm	-12.1305
▁wal	-12.1307
▁itali	-12.1311
▁kamelen	-12.1312
▁informal	-12.1313
▁lehm	-12.1313
▁theme	-12.1316
▁fackeln	-12.1318
▁cause	-12.133
▁pfannen	-12.1331
▁coolers	-12.1332
▁zueinander	-12.1332
▁würden	-12.1336
icherheitswesten	-12.1337
▁schar	-12.134
bissen	-12.134
▁begleit	-12.1341
▁saying	-12.1345
arbeitsplatz	-12.1346
▁kle	-12.1347
▁rundes	-12.1349
▁fighter	-12.1353
ndern	-12.1356
▁unse	-12.1359
▁signal	-12.1361
▁ponchos	-12.1362
▁weapons	-12.1362
▁steers	-12.1364
fort	-12.1365
▁halsketten	-12.1366
▁übergroße	-12.1371
▁aktivität	-12.1371
▁carried	-12.1375
▁bretter	-12.1376
harp	-12.1376
▁charg	-12.1378
▁heat	-12.1384
▁menschliche	-12.1387
issue	-12.1388
▁führung	-12.1391
▁sichtbar	-12.1391
▁waten	-12.1394
▁crowns	-12.1396
▁bahnen	-12.1396
▁steig	-12.1405
▁spielgerät	-12.1405
▁wangen	-12.1411
▁turnier	-12.1414
▁storm	-12.1425
▁ausstellungs	-12.143
bed	-12.1432
▁moos	-12.1435
▁kleidungsstücke	-12.1444
zier	-12.145
marke	-12.1466
fach	-12.1466
▁breit	-12.1468
▁vorbereiten	-12.1486
▁notebooks	-12.1497
▁goats	-12.1497
▁marking	-12.1504
▁dreh	-12.1506
▁zoom	-12.1506
▁schaufenstern	-12.1508
▁parka	-12.1519
▁count	-12.1523
geschlagene	-12.1528
▁cheeks	-12.1531
▁parachutes	-12.1531
▁trays	-12.1531
▁tages	-12.154
▁büchern	-12.1543
▁wheeler	-12.1543
▁handles	-12.1544
▁teamkollege	-12.1552
▁verbring	-12.1555
gefähr	-12.1559
▁heißluftballons	-12.1565
▁suitcases	-12.1565
amara	-12.1582
▁scr	-12.1583
gruppen	-12.1586
▁brä	-12.1592
gerichtete	-12.16
chor	-12.1606
▁dye	-12.1619
inde	-12.1628
▁feathers	-12.1634
kreuzt	-12.1648
▁retriev	-12.1652
bieten	-12.1658
▁states	-12.1668
hängen	-12.1681
spani	-12.1691
▁pol	-12.1694
▁fed	-12.1698
▁malerische	-12.1699
▁straps	-12.17
▁fashionabl	-12.1701
▁gebückt	-12.1701
▁motorbikes	-12.1703
ef	-12.1708
▁seh	-12.1709
▁nasen	-12.1718
▁jed	-12.1725
▁elephants	-12.1737
▁storefronts	-12.1737
▁grip	-12.1746
instrument	-12.1749
hörn	-12.175
▁clearing	-12.1758
▁kites	-12.178
cas	-12.1791
col	-12.1801
▁küsten	-12.1813
schüttet	-12.1819
mari	-12.1821
lf	-12.1827
rote	-12.1832
▁schw	-12.1846
cheinwerferlicht	-12.1881
stretched	-12.1885
▁write	-12.1885
ität	-12.1886
werkzeug	-12.1909
▁admire	-12.1914
▁möbel	-12.1924
▁bastel	-12.1952
goldene	-12.1953
▁bekannte	-12.1954
tle	-12.1955
▁fau	-12.196
zubereit	-12.1966
▁desp	-12.1984
▁betreib	-12.2004
▁wenige	-12.2008
▁vorbeigehende	-12.2018
▁stu	-12.2063
smittel	-12.2077
ensive	-12.2128
lebt	-12.2162
▁hängende	-12.2171
▁flanke	-12.2176
▁beschreib	-12.218
▁übersäte	-12.219
▁thor	-12.2199
▁masken	-12.22
nds	-12.2205
▁segelboote	-12.222
bow	-12.2222
same	-12.2243
▁sur	-12.225
cla	-12.2292
▁motoris	-12.2307
stützt	-12.2321
▁jahr	-12.2335
▁verschwommene	-12.2338
▁bedruckt	-12.2358
owl	-12.2407
▁scha	-12.2414
ities	-12.2414
coal	-12.2428
▁leckere	-12.244
▁bud	-12.2443
abst	-12.2446
uffle	-12.2456
geschnittene	-12.246
▁angemalt	-12.2494
▁penn	-12.2498
▁ping	-12.2526
▁schön	-12.2527
mittel	-12.2547
dding	-12.2567
▁je	-12.2585
▁dreiräder	-12.2589
oting	-12.2593
▁gegenspieler	-12.2599
▁hübsch	-12.2618
richten	-12.266
artig	-12.2677
▁sei	-12.2693
afroamerikanerin	-12.2708
itz	-12.2708
▁krieg	-12.2758
aufdruck	-12.2763
basketball	-12.2785
▁knappe	-12.2798
lung	-12.2807
▁trockene	-12.2808
▁focuse	-12.2822
betrieben	-12.2824
cle	-12.2867
formationen	-12.2874
jung	-12.2875
▁fuße	-12.2887
head	-12.2894
▁gestapelt	-12.2895
holt	-12.2898
▁qui	-12.2906
▁trockne	-12.2918
▁schneeschuh	-12.2924
▁verbundene	-12.2925
schal	-12.2926
▁ziegelstein	-12.2933
akt	-12.2948
▁stofftiere	-12.2974
▁ungewöhnlich	-12.2994
▁add	-12.3001
kreuz	-12.3019
teen	-12.3023
äu	-12.3026
personal	-12.3028
▁anblick	-12.3038
▁gebückte	-12.3048
▁chi	-12.3066
ude	-12.3082
trupp	-12.3098
▁kniend	-12.3136
boarder	-12.3151
helmen	-12.3151
▁leer	-12.3152
chlich	-12.3155
▁springende	-12.3162
▁pant	-12.3162
chu	-12.3165
▁bemalte	-12.317
▁brünett	-12.3171
▁wirken	-12.3192
▁emerg	-12.32
▁beginnen	-12.3224
▁coun	-12.3238
ford	-12.3241
▁prepar	-12.3249
▁dribbl	-12.3275
handschuhen	-12.3325
imp	-12.3326
▁fahr	-12.3337
▁rolle	-12.3346
▁winken	-12.3351
ragende	-12.3352
beamter	-12.3358
waren	-12.3369
▁char	-12.3376
▁gru	-12.3381
hlt	-12.34
▁pra	-12.34
führenden	-12.3407
▁stor	-12.3414
▁sichtbare	-12.3416
▁tip	-12.3419
▁dokument	-12.3427
▁slice	-12.3432
▁grin	-12.3435
schaffen	-12.3436
iligen	-12.3441
overall	-12.3448
▁thought	-12.3453
▁demonstrate	-12.3455
bare	-12.3457
itzt	-12.3463
▁brow	-12.3468
five	-12.3469
▁leben	-12.3489
bewegungen	-12.3506
geräten	-12.3506
▁leh	-12.351
handed	-12.3516
farbe	-12.3521
haar	-12.3523
▁geburtstag	-12.3523
falle	-12.3527
▁rabbit	-12.3529
▁pad	-12.353
▁troop	-12.3531
▁seagull	-12.3535
▁cookie	-12.3537
▁fir	-12.3538
▁crayon	-12.3538
▁größe	-12.3538
schichten	-12.3542
▁shield	-12.3543
▁gymnastic	-12.3548
hrt	-12.3551
locken	-12.3552
▁stopp	-12.3552
▁modisch	-12.3559
▁chemi	-12.3559
flügel	-12.356
ckt	-12.356
▁word	-12.3562
▁weld	-12.3565
uniformen	-12.3576
▁lantern	-12.3576
▁ripp	-12.3577
schloss	-12.3581
▁hauptsä	-12.3581
becken	-12.3581
rücken	-12.3584
fußballspiel	-12.3585
röcken	-12.3586
blumen	-12.3589
traktor	-12.359
gebiet	-12.359
▁reg	-12.359
pray	-12.359
kulisse	-12.3591
ordnung	-12.3591
bike	-12.3592
gäste	-12.3592
laster	-12.3592
▁krabbe	-12.3592
schlitten	-12.3593
ficial	-12.3593
schiff	-12.3593
scher	-12.3593
drawn	-12.3593
einrichtung	-12.3594
überdachte	-12.3594
hockey	-12.3594
wanderweg	-12.3594
monitor	-12.3594
tafel	-12.3594
rowing	-12.3594
pfosten	-12.3594
armee	-12.3594
produkt	-12.3595
käfig	-12.3595
schüler	-12.3595
frisur	-12.3595
präsentation	-12.3596
scarves	-12.3596
hof	-12.3596
säule	-12.3596
ador	-12.3596
beleuchtung	-12.3596
bringt	-12.3596
logo	-12.3597
lack	-12.3597
shop	-12.3597
school	-12.3597
umhang	-12.3597
reihe	-12.3597
lässt	-12.3598
texas	-12.3598
ziegel	-12.3598
geschirr	-12.3598
orchester	-12.3598
lehrer	-12.3598
salon	-12.3598
gesäumte	-12.3598
cool	-12.3598
stufe	-12.3598
deep	-12.3599
hellbraune	-12.3599
küsst	-12.3599
stoß	-12.3599
hood	-12.3599
screen	-12.3599
video	-12.3599
bahnhof	-12.3599
▁schiene	-12.3599
▁kiefer	-12.3599
clown	-12.3599
court	-12.3599
schlägt	-12.3599
spitze	-12.3599
mutter	-12.3599
zuschauen	-12.3599
schwimmbecken	-12.3599
guitar	-12.36
parade	-12.36
white	-12.36
wearing	-12.36
▁banane	-12.36
▁möwe	-12.36
violett	-12.36
laufbahn	-12.36
food	-12.36
some	-12.36
type	-12.3601
▁purchas	-12.3601
▁künstlerin	-12.3601
dose	-12.3601
luft	-12.3601
lager	-12.3601
gebracht	-12.3602
hold	-12.3602
book	-12.3602
▁langärmelige	-12.3602
perücke	-12.3602
lift	-12.3603
▁rettungsweste	-12.3603
▁hänge	-12.3604
▁anzüge	-12.3605
▁bahngleise	-12.3605
▁africa	-12.3605
fight	-12.3607
enfor	-12.3607
▁schieb	-12.361
▁pee	-12.361
fish	-12.361
personen	-12.3613
stift	-12.3613
fußballspieler	-12.3613
▁interest	-12.3613
hlen	-12.3617
▁bewach	-12.3617
füll	-12.3617
▁law	-12.3618
▁schleif	-12.3622
▁profil	-12.3626
care	-12.3632
▁trink	-12.3634
▁note	-12.3636
ballspiel	-12.3638
lader	-12.3639
▁passagier	-12.3639
yard	-12.3641
▁reklame	-12.3641
▁pul	-12.3642
▁gehe	-12.3642
▁swi	-12.3646
wärts	-12.365
▁anweisung	-12.3652
schlaf	-12.3652
▁vietnames	-12.3653
rafting	-12.3653
▁sprüh	-12.3654
▁windsurf	-12.3656
▁werkzeuge	-12.3659
▁ox	-12.366
▁extend	-12.3661
▁colo	-12.3661
schneide	-12.3663
▁erheb	-12.3664
▁via	-12.3664
▁sumo	-12.3664
▁nudel	-12.3665
ieht	-12.3665
▁versteck	-12.3666
▁eiscrem	-12.3667
▁gart	-12.3668
▁bump	-12.367
ähnen	-12.3673
▁saiten	-12.3673
▁quick	-12.3673
▁kranken	-12.3674
kolle	-12.3675
päck	-12.3676
▁mixt	-12.3676
haltestelle	-12.3676
angehörige	-12.3677
▁graffit	-12.3677
etzten	-12.3677
▁tram	-12.3678
ngerichtet	-12.3678
▁gedenk	-12.3678
hauer	-12.3678
▁came	-12.3678
▁dalmati	-12.3678
▁blank	-12.3679
▁grown	-12.3679
blüte	-12.3679
▁spider	-12.3679
nägel	-12.3679
▁utensil	-12.3679
famili	-12.3679
▁react	-12.3679
▁lös	-12.3679
▁bleistift	-12.3679
pong	-12.3679
angebot	-12.3679
zauber	-12.3679
▁crayola	-12.3679
▁holzkohle	-12.3679
▁trap	-12.3679
▁triangle	-12.3679
▁verbeug	-12.3679
▁zuhörer	-12.3679
▁baltimore	-12.3679
▁läng	-12.3679
▁scheitel	-12.3679
▁skeleton	-12.3679
▁spaghetti	-12.3679
▁speck	-12.3679
amble	-12.368
approximate	-12.368
freiheitsstatue	-12.368
gegriffen	-12.368
geknöpft	-12.368
incredibl	-12.368
journal	-12.368
knurrt	-12.368
labradoodle	-12.368
manövriert	-12.368
mongoli	-12.368
pflücken	-12.368
sprünge	-12.368
vermählte	-12.368
vitrine	-12.368
zufinden	-12.368
▁abenddämmerung	-12.368
▁abzuwehren	-12.368
▁aggressiv	-12.368
▁aircraft	-12.368
▁alaska	-12.368
▁angelschnur	-12.368
▁apparel	-12.368
▁atlanta	-12.368
▁aufgemalt	-12.368
▁ausblick	-12.368
▁balconies	-12.368
▁befreit	-12.368
▁beleibte	-12.368
▁berufs	-12.368
▁bloom	-12.368
▁bookbag	-12.368
▁boutique	-12.368
▁brazil	-12.368
▁breitkrempigen	-12.368
▁budweiser	-12.368
▁bulldog	-12.368
▁burrito	-12.368
▁bärten	-12.368
▁california	-12.368
▁calvin	-12.368
▁chubby	-12.368
▁commuter	-12.368
▁consider	-12.368
▁convertible	-12.368
▁crib	-12.368
▁crutches	-12.368
▁deutlich	-12.368
▁diagram	-12.368
▁diaper	-12.368
▁didgeridoo	-12.368
▁diskutiert	-12.368
▁ehemann	-12.368
▁elektronik	-12.368
▁empanadas	-12.368
▁empor	-12.368
▁erklärt	-12.368
▁erstaun	-12.368
▁erwischen	-12.368
▁espresso	-12.368
▁essstäbchen	-12.368
▁extravagant	-12.368
▁falcon	-12.368
▁fatigue	-12.368
▁felsenklippe	-12.368
▁flexible	-12.368
▁fliederfarbene	-12.368
▁flüster	-12.368
▁foundation	-12.368
▁francisco	-12.368
▁französische	-12.368
▁frustrated	-12.368
▁frustriert	-12.368
▁fundament	-12.368
▁fäuste	-12.368
▁gabelstapler	-12.368
▁galoppier	-12.368
▁gebäck	-12.368
▁gedanken	-12.368
▁geduckt	-12.368
▁gefilmt	-12.368
▁geheimnis	-12.368
▁gehörschutz	-12.368
▁gelandet	-12.368
▁geneigte	-12.368
▁gerätschaften	-12.368
▁gescheckte	-12.368
▁getupfte	-12.368
▁glatzenansatz	-12.368
▁gleiten	-12.368
▁glitzernde	-12.368
▁graduate	-12.368
▁guest	-12.368
▁hausaufgaben	-12.368
▁heineken	-12.368
▁heiraten	-12.368
▁hispanoamerikan	-12.368
▁hockeyschläger	-12.368
▁hopscotch	-12.368
▁hulk	-12.368
▁hämmer	-12.368
▁hölle	-12.368
▁international	-12.368
▁iowa	-12.368
▁kawasaki	-12.368
▁kettle	-12.368
▁kino	-12.368
▁kostet	-12.368
▁kälte	-12.368
▁landmark	-12.368
▁langarmhemd	-12.368
▁leichtathlet	-12.368
▁liberty	-12.368
▁liebkost	-12.368
▁liegestütze	-12.368
▁llama	-12.368
▁locomotive	-12.368
▁lokomotive	-12.368
▁maiskolben	-12.368
▁mermaid	-12.368
▁motorboat	-12.368
▁mulch	-12.368
▁mundharmonika	-12.368
▁mütter	-12.368
▁napkin	-12.368
▁neigt	-12.368
▁octopus	-12.368
▁offiziellen	-12.368
▁origin	-12.368
▁oval	-12.368
▁paintbrush	-12.368
▁papiertüte	-12.368
▁piggyback	-12.368
▁pineapple	-12.368
▁poolbillard	-12.368
▁poverty	-12.368
▁pregnant	-12.368
▁prevent	-12.368
▁prizes	-12.368
▁prunkvolle	-12.368
▁recycl	-12.368
▁renovier	-12.368
▁rescu	-12.368
▁satchel	-12.368
▁sauce	-12.368
▁schlummert	-12.368
▁schläfchen	-12.368
▁schneeengel	-12.368
▁schneidebrett	-12.368
▁schnitzen	-12.368
▁schokoladeneis	-12.368
▁schottische	-12.368
▁scooby	-12.368
▁screwdriver	-12.368
▁seahawks	-12.368
▁seaweed	-12.368
▁senffarbene	-12.368
▁shrimp	-12.368
▁skipiste	-12.368
▁sonnenschein	-12.368
▁spagat	-12.368
▁sportereignis	-12.368
▁stalks	-12.368
▁strafzettel	-12.368
▁streiten	-12.368
▁strickjacke	-12.368
▁studies	-12.368
▁sunrise	-12.368
▁sushi	-12.368
▁swimwear	-12.368
▁tambo	-12.368
▁teammitglied	-12.368
▁technique	-12.368
▁terrace	-12.368
▁thread	-12.368
▁tortillas	-12.368
▁transformer	-12.368
▁trombone	-12.368
▁töpferscheibe	-12.368
▁ungepflegte	-12.368
▁unison	-12.368
▁unscharfe	-12.368
▁unterbricht	-12.368
▁verhindern	-12.368
▁verstärker	-12.368
▁verzerrte	-12.368
▁vorliest	-12.368
▁workbench	-12.368
▁wörter	-12.368
▁yankee	-12.368
▁ymca	-12.368
▁zerrissene	-12.368
▁zwilling	-12.368
▁architectur	-12.368
▁augenbraue	-12.368
▁bierflaschen	-12.368
▁buoy	-12.368
▁bürgerkriegs	-12.368
▁cluster	-12.368
▁dread	-12.368
▁eyeliner	-12.368
▁frühlings	-12.368
▁hydrauli	-12.368
▁jesus	-12.368
▁kapuzenjacke	-12.368
▁kristall	-12.368
▁krokodil	-12.368
▁kuschel	-12.368
▁lollipop	-12.368
▁penske	-12.368
▁prüfung	-12.368
▁scrabble	-12.368
▁slalom	-12.368
▁steinstufen	-12.368
▁tauchen	-12.368
bögen	-12.368
grundschulkinder	-12.368
quadraten	-12.368
▁bistro	-12.368
▁duscht	-12.368
▁hochzeitsfoto	-12.368
▁honor	-12.368
▁küchentheke	-12.368
▁maulesel	-12.368
▁nacken	-12.368
▁parasol	-12.368
▁pokemon	-12.368
▁pounc	-12.368
▁prun	-12.368
▁saust	-12.368
▁scherz	-12.368
▁schneewehe	-12.368
▁seminar	-12.368
▁universität	-12.368
▁verkleiden	-12.368
▁yawn	-12.368
▁absolventen	-12.368
▁spiral	-12.368
farbstiften	-12.368
läden	-12.368
▁angelehnt	-12.368
▁fantas	-12.368
▁sponge	-12.368
▁ufc	-12.368
enthusiastically	-12.368
gekauft	-12.368
propeller	-12.368
▁ananas	-12.368
▁frolic	-12.368
▁harlem	-12.368
▁kunstmuseum	-12.368
▁dealer	-12.368
▁kassier	-12.368
▁pepper	-12.368
▁pinien	-12.368
▁falke	-12.368
▁jackson	-12.368
▁mailbox	-12.368
▁werbetafel	-12.368
▁wohnmobil	-12.368
schwelle	-12.368
▁chief	-12.368
▁dorfbewohner	-12.368
▁freiwillige	-12.368
käfer	-12.368
▁angezeigt	-12.368
▁musikalische	-12.368
▁discover	-12.368
▁loose	-12.368
▁eatery	-12.368
▁graphic	-12.368
▁kunsthandwerk	-12.368
▁padding	-12.368
▁respective	-12.368
▁elektrogitarre	-12.368
▁stairwell	-12.368
▁harmonika	-12.368
▁mesh	-12.368
▁bewer	-12.368
▁israel	-12.368
▁küchentisch	-12.368
▁nahöstliche	-12.368
▁pendler	-12.368
▁prüfen	-12.368
▁staubwolke	-12.368
energi	-12.368
▁footbridge	-12.368
▁hafenbecken	-12.368
▁kühlbox	-12.368
▁lötet	-12.368
▁pastries	-12.368
frucht	-12.368
▁badesachen	-12.368
▁lutsch	-12.368
▁smell	-12.368
schrott	-12.368
pavill	-12.368
vice	-12.368
▁meeresufer	-12.368
▁substance	-12.368
▁tether	-12.368
▁urinal	-12.368
▁flatbed	-12.368
▁sedan	-12.368
▁flanellhemd	-12.368
▁james	-12.368
▁kokosnüsse	-12.368
▁notenständer	-12.368
▁anlass	-12.368
▁knieschützer	-12.368
▁knietief	-12.368
▁laubbläser	-12.368
kwon	-12.368
▁notizbuch	-12.368
▁wäscheleine	-12.368
akko	-12.368
▁holzpfahl	-12.368
nsetzt	-12.368
▁route	-12.368
▁essensverkäufer	-12.368
▁keller	-12.368
▁telefonmasten	-12.368
▁wirbt	-12.368
ottis	-12.368
▁mechanische	-12.368
▁müllbeutel	-12.368
▁schließen	-12.368
▁youngsters	-12.368
omas	-12.368
▁eingegraben	-12.368
▁bauprojekt	-12.368
▁pelzmantel	-12.368
▁miniskirt	-12.368
▁contestant	-12.368
▁schuhputzer	-12.368
ölf	-12.368
▁kopie	-12.368
▁taucherbrille	-12.368
▁verkehrsmittel	-12.368
▁laubhaufen	-12.368
▁pressure	-12.368
▁magic	-12.368
▁patrick	-12.368
▁treppengeländer	-12.368
steck	-12.368
▁martini	-12.368
▁schwan	-12.368
▁siding	-12.368
▁pulley	-12.368
▁playpen	-12.368
▁knock	-12.368
gesagt	-12.368
▁kleinbus	-12.368
▁gasmaske	-12.368
▁digger	-12.368
▁enthält	-12.368
▁wohnwagen	-12.368
▁plastikflasche	-12.368
▁grob	-12.368
▁spill	-12.368
▁enkel	-12.368
litary	-12.368
▁blumenmädchen	-12.368
▁notice	-12.368
▁schulbus	-12.368
xotic	-12.368
▁bookstore	-12.368
▁hairnet	-12.368
▁schnurrbärt	-12.368
▁krücken	-12.368
▁appre	-12.368
▁flap	-12.368
▁wäschekorb	-12.368
▁unterstützung	-12.368
▁elevator	-12.3681
▁drauf	-12.3681
abdeckung	-12.3681
▁großartige	-12.3681
▁houst	-12.3681
▁peep	-12.3681
▁cabinet	-12.3681
▁klim	-12.3681
▁feuerleiter	-12.3681
▁lunger	-12.3681
▁buggy	-12.3681
▁tägliche	-12.3681
▁waage	-12.3681
stocher	-12.3681
▁castro	-12.3681
▁rückhand	-12.3681
▁jewelery	-12.3681
▁glasflasche	-12.3681
▁verstreut	-12.3681
▁spear	-12.3681
▁ceme	-12.3681
▁spectate	-12.3681
▁turnübung	-12.3681
▁jug	-12.3681
▁manual	-12.3681
▁bassgitarre	-12.3681
▁gehören	-12.3681
▁straßenlampe	-12.3681
▁dodg	-12.3682
vious	-12.3682
▁fairway	-12.3682
▁winning	-12.3682
▁simpl	-12.3682
▁saxophonist	-12.3682
▁schwung	-12.3682
▁weeds	-12.3682
gegangen	-12.3682
▁sunbathers	-12.3682
▁gähnt	-12.3682
▁adolescent	-12.3682
▁dös	-12.3682
▁pace	-12.3682
▁abwärts	-12.3682
▁solar	-12.3682
▁metropoli	-12.3682
▁grid	-12.3682
▁sonnenhut	-12.3682
▁collection	-12.3682
▁seetang	-12.3682
▁bassist	-12.3682
▁bestimmte	-12.3682
▁else	-12.3683
▁eisskulptur	-12.3683
▁zusammengebaut	-12.3683
▁rückenschwimmen	-12.3683
▁verspritzt	-12.3683
▁stumbl	-12.3683
▁dollar	-12.3683
▁spinnrad	-12.3683
▁spielzeugpferd	-12.3683
zard	-12.3683
▁showgirl	-12.3683
▁boxkampf	-12.3683
ution	-12.3683
▁lava	-12.3683
▁blumentopf	-12.3683
▁haarnetz	-12.3683
▁protestschild	-12.3683
▁holzkiste	-12.3683
▁holztür	-12.3684
▁wischen	-12.3684
▁steinwand	-12.3684
▁windjacke	-12.3684
▁puder	-12.3684
▁technology	-12.3684
▁gemüsemarkt	-12.3684
planschbecken	-12.3684
sprühdose	-12.3684
▁maultier	-12.3684
▁stadtviertel	-12.3685
▁vase	-12.3685
▁trio	-12.3685
▁töpfen	-12.3685
▁stationary	-12.3685
▁schuhgeschäft	-12.3685
▁bask	-12.3685
▁kayaker	-12.3685
ädt	-12.3685
▁gekreuzt	-12.3685
▁möglich	-12.3685
▁lichter	-12.3685
▁rear	-12.3685
▁glanc	-12.3685
▁kickboxer	-12.3685
▁steingebäude	-12.3685
▁getackelt	-12.3686
▁skimboarde	-12.3686
▁mexico	-12.3686
▁silk	-12.3686
▁meerwasser	-12.3686
▁holzrampe	-12.3686
▁angst	-12.3687
ota	-12.3687
orous	-12.3687
wirtschaftliche	-12.3687
▁stürmische	-12.3687
▁festzug	-12.3687
▁feuerwehrwagen	-12.3687
▁soil	-12.3687
oles	-12.3687
▁bustier	-12.3687
▁herausragen	-12.3688
▁change	-12.3688
igan	-12.3688
▁herunterzu	-12.3688
ämme	-12.3688
▁eiern	-12.3688
▁truppe	-12.3688
lance	-12.3688
stle	-12.3688
▁latino	-12.3689
abrio	-12.3689
▁basketballwurf	-12.3689
▁shell	-12.3689
▁tandem	-12.3689
uation	-12.3689
▁runway	-12.3689
▁megaphone	-12.3689
zustellen	-12.3689
▁gewaschen	-12.369
▁snowmobil	-12.369
▁insekt	-12.369
▁holzstück	-12.369
▁cris	-12.3691
▁bügelt	-12.3691
▁countertop	-12.3691
▁schneehügel	-12.3691
fortun	-12.3691
▁alltag	-12.3692
▁scared	-12.3692
▁stammes	-12.3692
abgelassen	-12.3692
▁besprechen	-12.3692
cyclone	-12.3692
▁ausgefallene	-12.3692
▁chirurgen	-12.3692
▁kickboxen	-12.3692
▁flügel	-12.3693
▁hinunterfährt	-12.3693
▁drähten	-12.3693
▁bumper	-12.3693
▁exposed	-12.3693
▁straßenschild	-12.3693
▁schindel	-12.3694
▁fällen	-12.3694
▁pokal	-12.3694
▁stäbchen	-12.3694
▁temporary	-12.3694
▁tintenfisch	-12.3694
▁verdienen	-12.3694
▁whirlpool	-12.3694
▁offizier	-12.3694
▁pfahl	-12.3694
▁stylist	-12.3694
▁blumenfeld	-12.3695
▁festive	-12.3695
▁fußballplatz	-12.3695
▁verschmierte	-12.3695
▁comfortable	-12.3695
▁circuit	-12.3695
ub	-12.3695
▁feel	-12.3695
▁rode	-12.3695
▁tennisbällen	-12.3696
▁erhebt	-12.3696
▁thre	-12.3696
▁abenteuer	-12.3696
▁mountainside	-12.3696
▁seren	-12.3697
briefkasten	-12.3697
▁vig	-12.3697
▁tightly	-12.3697
▁scri	-12.3697
▁vast	-12.3697
rong	-12.3698
▁hopper	-12.3698
▁hosentasche	-12.3698
▁basketbälle	-12.3698
▁extended	-12.3699
▁hühner	-12.3699
▁grain	-12.3699
▁packung	-12.3699
▁beschnüffelt	-12.3699
▁steal	-12.3699
▁overcoat	-12.37
▁specta	-12.37
▁befördert	-12.3701
▁verbringt	-12.3701
▁basement	-12.3702
▁vine	-12.3702
▁ausdruck	-12.3702
▁luftsprung	-12.3703
▁basketballplatz	-12.3703
▁roadway	-12.3703
wickelt	-12.3704
▁nähern	-12.3704
dish	-12.3704
▁stemm	-12.3704
zuschlagen	-12.3704
würstchen	-12.3705
geschnallt	-12.3705
▁wohn	-12.3705
▁wasserschlauch	-12.3706
▁jeansrock	-12.3706
stimmung	-12.3707
▁sportspiel	-12.3707
airways	-12.3708
▁gummistiefel	-12.3708
industriegebäude	-12.3708
▁oxen	-12.3709
▁pastor	-12.3709
markierung	-12.3709
▁grinst	-12.371
▁schweißer	-12.371
winkel	-12.371
▁bestellung	-12.3712
▁rop	-12.3712
▁darau	-12.3712
▁trade	-12.3712
▁prahl	-12.3712
▁leak	-12.3713
▁papp	-12.3713
▁peach	-12.3713
▁brat	-12.3714
▁dropped	-12.3715
▁ausgelegt	-12.3716
▁kühen	-12.3716
▁limonaden	-12.3716
▁ohrhörern	-12.3716
▁schärpen	-12.3716
▁kopfball	-12.3716
paris	-12.3717
▁melonen	-12.3717
▁hello	-12.3718
▁seeds	-12.3718
▁kickboxing	-12.3718
▁mist	-12.3718
▁bagel	-12.3719
▁flohmarkt	-12.3719
▁ohio	-12.3719
▁stride	-12.3719
▁gebirge	-12.3719
▁reinigungs	-12.3719
▁pulver	-12.372
▁jim	-12.372
▁loop	-12.372
▁kitty	-12.372
▁stramm	-12.3721
▁rett	-12.3721
▁master	-12.3721
▁longboard	-12.3722
wählen	-12.3723
▁seg	-12.3724
▁stockings	-12.3724
▁nacheinander	-12.3724
▁behinderte	-12.3725
dition	-12.3725
▁umschlag	-12.3725
▁drängel	-12.3725
wis	-12.3726
▁ragt	-12.3726
▁marsch	-12.3726
▁gern	-12.3727
▁sportplatz	-12.3728
studio	-12.373
▁save	-12.373
▁muslimische	-12.3731
▁grinsende	-12.3732
▁baker	-12.3732
▁hinterteil	-12.3732
▁angeles	-12.3732
rona	-12.3732
▁vorhang	-12.3735
▁ori	-12.3736
▁weathered	-12.3737
▁chart	-12.3737
▁lenker	-12.3737
▁spar	-12.3737
▁zügen	-12.374
▁zahlen	-12.3743
elo	-12.3743
▁apparat	-12.3745
▁podest	-12.3745
▁schläuche	-12.3745
▁gebunden	-12.3745
lugt	-12.3746
▁coconuts	-12.3746
▁frühstücks	-12.3746
▁participants	-12.3746
▁empfangs	-12.3746
▁frog	-12.3747
gelenkt	-12.3749
▁partly	-12.3749
▁zerr	-12.375
▁region	-12.3751
xy	-12.3751
▁tasting	-12.3751
▁angler	-12.3751
▁bellen	-12.3751
▁sprinting	-12.3752
streut	-12.3752
▁washed	-12.3755
▁professionelle	-12.3757
crop	-12.3757
▁evil	-12.3758
▁bevölkert	-12.3758
aße	-12.3762
ould	-12.3762
▁topic	-12.3762
▁knochen	-12.3762
▁sollen	-12.3763
▁lack	-12.3763
▁ersten	-12.3763
haften	-12.3764
▁aufgebaut	-12.3766
▁sumpfige	-12.3769
bruch	-12.3771
ised	-12.3773
spieß	-12.3773
▁raster	-12.3775
▁freundlich	-12.3777
▁pic	-12.3781
bohr	-12.3782
▁mates	-12.3784
▁created	-12.3785
▁dusche	-12.3788
▁zugedeckt	-12.3788
▁aufgaben	-12.3789
▁known	-12.3789
▁hips	-12.3789
▁gesellschafts	-12.3789
▁regenschirme	-12.379
▁roses	-12.379
▁bauern	-12.3791
▁jogginghose	-12.3792
▁breakdancer	-12.3793
öne	-12.3794
▁sonnenschirmen	-12.3794
▁fahrradgeschäft	-12.3796
▁welcome	-12.3798
▁wachsen	-12.3798
▁kauer	-12.3799
rotes	-12.38
▁herauf	-12.3801
▁maskierte	-12.3803
▁dünner	-12.3804
▁horizontal	-12.3805
▁mingl	-12.3808
▁schmettern	-12.3813
▁bandmitgliedern	-12.3814
▁wasserweg	-12.3815
▁sew	-12.3815
▁wanderung	-12.3819
▁dir	-12.3824
▁masse	-12.3825
▁plansch	-12.3827
▁pion	-12.3828
▁troops	-12.383
▁shields	-12.3833
▁rabbits	-12.3833
▁lebens	-12.3834
▁mixed	-12.3836
▁sägen	-12.3837
▁kayakers	-12.3842
▁linse	-12.3844
▁gitarrespieler	-12.3845
▁nutz	-12.3845
rohre	-12.3846
▁cooked	-12.3846
▁primitive	-12.385
▁bauarbeiterhelm	-12.3856
▁trockenes	-12.3856
▁mount	-12.3859
▁bearer	-12.3868
▁calling	-12.387
▁straßenarbeiten	-12.3872
▁zentrum	-12.3877
▁exp	-12.388
▁bucks	-12.3882
eits	-12.3882
▁hemdchen	-12.3885
▁aufnahmen	-12.3886
▁sesseln	-12.3886
▁gek	-12.3887
▁bewegungen	-12.3888
▁avr	-12.389
heruntergefallen	-12.3893
▁flick	-12.3898
▁aufzunehmen	-12.3899
▁anzeige	-12.3904
▁fahrba	-12.3906
gig	-12.3907
▁provide	-12.3909
lton	-12.3915
▁lemons	-12.3921
▁pillars	-12.3921
▁piraten	-12.3922
info	-12.3923
heft	-12.3929
anten	-12.394
▁pri	-12.3942
▁j	-12.3945
▁linien	-12.3961
▁künstlerische	-12.3961
berg	-12.3963
campus	-12.3965
ettungsschwimmer	-12.3972
▁clog	-12.3988
▁seile	-12.399
kkordeonspieler	-12.3993
▁schnauzer	-12.3999
▁schleifen	-12.4007
ited	-12.4008
bietet	-12.4014
overalls	-12.4018
▁goldgelbe	-12.4023
▁taller	-12.4037
▁viewer	-12.4038
jo	-12.4047
▁waldes	-12.4051
▁reh	-12.4053
▁beifahrer	-12.4075
opf	-12.4076
elben	-12.4081
▁backware	-12.4086
▁objekten	-12.4102
▁kekse	-12.4116
▁rennhunde	-12.4116
▁chemis	-12.4129
bra	-12.413
potted	-12.4139
▁rappe	-12.4145
gefallene	-12.417
▁ausgef	-12.4174
▁wirk	-12.4186
▁pi	-12.4199
▁flee	-12.4202
rade	-12.4214
▁schräg	-12.4217
▁gel	-12.4227
kronen	-12.4228
gepackt	-12.423
▁fallschirme	-12.4231
bin	-12.4234
vie	-12.4239
liches	-12.4245
▁buses	-12.4249
check	-12.426
▁hitch	-12.427
▁gi	-12.4276
▁rodel	-12.4289
▁umgedreht	-12.4297
▁crush	-12.4321
▁kricketspiel	-12.4322
zi	-12.4343
otte	-12.4391
kten	-12.4397
bund	-12.4403
zieren	-12.4432
▁einzigartige	-12.4441
utsch	-12.446
▁sprinkle	-12.4468
▁torwar	-12.4484
trockner	-12.4486
▁typische	-12.4493
▁wartende	-12.45
säcken	-12.4512
schlagen	-12.4518
leine	-12.4522
▁hebe	-12.4527
▁bodyboard	-12.4533
▁tätowiert	-12.4545
▁spritz	-12.4564
▁mustach	-12.459
▁scho	-12.4617
▁künstliche	-12.4648
▁swa	-12.4657
ata	-12.4658
ambu	-12.4665
stäben	-12.4725
▁blasinstrumente	-12.4726
▁dahin	-12.4747
blickfeld	-12.4748
▁prächtige	-12.4753
pfer	-12.4775
lbernen	-12.4796
▁falsch	-12.4829
▁bessere	-12.4837
▁förmlich	-12.4844
▁unpa	-12.4862
üssen	-12.4882
▁tackel	-12.4888
▁löcher	-12.4898
bu	-12.4911
▁sprinte	-12.4948
▁bänder	-12.4959
utzt	-12.497
▁neongrüne	-12.4988
klappe	-12.5
▁inderin	-12.5005
pie	-12.5019
krügen	-12.505
▁tipp	-12.5066
immer	-12.507
orb	-12.5145
farbige	-12.5173
maintain	-12.5216
▁verschwommen	-12.5228
keeper	-12.5251
tained	-12.526
evil	-12.5286
▁releas	-12.5309
pfleg	-12.5314
got	-12.5381
▁busse	-12.5389
▁sprint	-12.5396
▁styl	-12.5397
fliegen	-12.5397
undschaft	-12.5404
kler	-12.5453
pack	-12.5485
▁flach	-12.5495
schienen	-12.5538
▁angeleint	-12.5566
▁adventur	-12.557
▁lebhaft	-12.557
▁falsche	-12.5605
treiben	-12.5607
▁unglückliche	-12.5644
▁barriere	-12.5667
wänden	-12.569
▁tatt	-12.5691
▁tast	-12.5743
ampel	-12.5746
gierig	-12.5757
drehen	-12.5765
liegend	-12.5767
▁schwe	-12.5809
▁senkrecht	-12.5845
▁süd	-12.5846
▁industrie	-12.585
▁fra	-12.5884
gerollte	-12.592
▁säcke	-12.5958
▁neongrün	-12.5966
gabe	-12.5979
laufende	-12.6004
▁address	-12.6005
▁strahl	-12.6009
ryan	-12.6033
▁fi	-12.605
▁wolle	-12.6067
wan	-12.6069
umble	-12.6077
▁secur	-12.6082
▁kultur	-12.6102
▁problem	-12.6114
carol	-12.6123
▁cul	-12.6143
▁dip	-12.6169
▁retrieve	-12.6173
rench	-12.6176
▁dro	-12.6199
▁automat	-12.6202
musiker	-12.6212
▁fac	-12.6225
spritzen	-12.6235
gan	-12.6266
bringen	-12.6271
off	-12.6287
gemachte	-12.6304
▁üppige	-12.6327
▁besondere	-12.6334
▁attach	-12.6353
inner	-12.6357
ugh	-12.6374
kühlen	-12.6385
▁mass	-12.6413
▁kra	-12.6432
▁miniatur	-12.6502
▁navigat	-12.657
oose	-12.6574
▁chun	-12.6589
▁begeisterte	-12.6611
▁spei	-12.6627
igung	-12.6648
▁statu	-12.6663
▁bris	-12.6694
▁bie	-12.6702
ecke	-12.6712
gedeckte	-12.6719
roth	-12.6738
eckige	-12.6772
▁pirat	-12.6778
saal	-12.6783
▁def	-12.6783
▁rose	-12.6792
lated	-12.6806
▁träg	-12.6809
buster	-12.6811
schrift	-12.6815
risk	-12.682
▁marin	-12.6829
▁reih	-12.6831
bällen	-12.6833
ierende	-12.6834
fon	-12.6841
▁rost	-12.6842
studenten	-12.6843
▁program	-12.6845
pflanze	-12.6847
fleisch	-12.6849
gesicht	-12.6854
▁arc	-12.6857
▁measure	-12.686
▁gesellschaft	-12.6862
shes	-12.6863
sprecher	-12.6863
steht	-12.6864
▁urlaub	-12.6866
▁key	-12.6867
▁earring	-12.6869
▁crashe	-12.6872
▁judge	-12.6872
▁bead	-12.6873
▁hip	-12.6874
▁snowshoe	-12.6875
▁onlooker	-12.688
handschuhe	-12.6882
karte	-12.6884
hill	-12.6885
▁sumpf	-12.6889
▁leuchten	-12.689
▁erste	-12.6899
semble	-12.6903
friend	-12.6909
hohen	-12.6911
post	-12.6918
polizist	-12.6919
wheel	-12.6919
keep	-12.6919
gebunden	-12.6921
frog	-12.6922
apparat	-12.6922
podest	-12.6922
schläuche	-12.6922
geschoben	-12.6922
nudel	-12.6922
marsch	-12.6922
kämpfer	-12.6924
flieger	-12.6924
completed	-12.6924
foam	-12.6925
safe	-12.6925
vollständig	-12.6925
basketballkorb	-12.6925
steg	-12.6925
plane	-12.6925
wasch	-12.6925
jahr	-12.6926
schrank	-12.6926
rasenmäher	-12.6926
gold	-12.6926
imbiss	-12.6927
walk	-12.6927
eisenbahn	-12.6927
obama	-12.6927
angestellte	-12.6927
getragen	-12.6927
dreht	-12.6927
kanal	-12.6927
▁professionell	-12.6928
system	-12.6928
höhle	-12.6928
beutel	-12.6928
strom	-12.6928
bagger	-12.6928
hüte	-12.6928
karierte	-12.6928
wanne	-12.6928
busses	-12.6928
friseur	-12.6929
klaren	-12.6929
verkaufsstand	-12.6929
ault	-12.6929
kabine	-12.6929
balken	-12.6929
vorführung	-12.6929
zahn	-12.6929
unfall	-12.6929
gesehen	-12.6929
händler	-12.6929
color	-12.6929
statt	-12.693
club	-12.693
fabrik	-12.693
putzen	-12.693
spaziergang	-12.693
arzt	-12.693
bereit	-12.693
anhänger	-12.693
watch	-12.693
venue	-12.693
ticket	-12.693
water	-12.693
probe	-12.6931
taucher	-12.6931
füttert	-12.6931
blöcke	-12.6931
point	-12.6931
quarterback	-12.6931
▁conduct	-12.6931
ilitärangehörige	-12.6931
bücher	-12.6931
bahnsteig	-12.6931
bänken	-12.6931
easter	-12.6931
teleskop	-12.6932
frauenvolleyball	-12.6932
taxi	-12.6932
▁schutzweste	-12.6932
circle	-12.6932
teppich	-12.6932
climb	-12.6932
daughter	-12.6932
höhe	-12.6932
scooter	-12.6932
washing	-12.6932
lkw	-12.6932
badeanzug	-12.6932
vogel	-12.6932
soldaten	-12.6932
pause	-12.6933
trinken	-12.6933
marathon	-12.6933
base	-12.6933
städtische	-12.6933
golf	-12.6933
spricht	-12.6933
schnee	-12.6933
trägt	-12.6933
wald	-12.6933
▁scream	-12.6933
blue	-12.6933
woman	-12.6933
hintergrund	-12.6933
▁study	-12.6934
▁parasail	-12.6934
grand	-12.6934
▁hinterbeine	-12.6935
gräbt	-12.6935
▁ware	-12.6936
▁gepunktete	-12.6936
what	-12.6936
▁hellgrüne	-12.6936
sachen	-12.6937
sorten	-12.6938
▁turnschuhe	-12.6938
▁sandale	-12.6939
saw	-12.6941
step	-12.6943
ground	-12.6945
face	-12.6945
foli	-12.6946
poster	-12.6948
lesen	-12.695
▁habe	-12.6952
elmo	-12.6954
luck	-12.6957
▁toilette	-12.696
koffer	-12.6961
ufer	-12.6965
gro	-12.6966
ählen	-12.6969
▁wartungs	-12.697
fast	-12.697
▁cry	-12.6972
▁pierc	-12.6973
gelbes	-12.6973
▁wäh	-12.6973
fahrzeuge	-12.6975
eeding	-12.6977
▁pfann	-12.6977
sandplatz	-12.6979
▁report	-12.698
▁astronaut	-12.6982
▁verwend	-12.6985
▁interagier	-12.6985
▁knöpf	-12.6986
▁bären	-12.6986
▁tennisschuh	-12.6987
bullen	-12.6988
▁kahlköpfige	-12.6988
koffe	-12.6989
ilden	-12.6992
▁erinner	-12.6993
▁expos	-12.6994
▁passant	-12.6995
▁silber	-12.6995
▁föhn	-12.6996
▁bügel	-12.6997
voller	-12.6997
prüf	-12.6998
zünde	-12.6998
▁korean	-12.6998
▁fähr	-12.6998
▁megaphon	-12.6999
▁latex	-12.7
drängt	-12.7
▁bürger	-12.7
hauses	-12.7001
klammert	-12.7002
▁kirmes	-12.7002
▁nachdenk	-12.7003
▁tech	-12.7003
▁mob	-12.7003
▁proud	-12.7005
ärzt	-12.7007
▁rugbyspiel	-12.7007
▁langärm	-12.7007
▁züge	-12.7008
▁absatz	-12.7008
▁kamele	-12.7008
thek	-12.7008
album	-12.7009
▁emotion	-12.7009
stätte	-12.7009
▁exam	-12.701
▁mosai	-12.7012
östliche	-12.7012
▁riesen	-12.7012
▁karussel	-12.7012
mäher	-12.7012
abteilung	-12.7012
▁acrobat	-12.7012
rümpfe	-12.7012
ierend	-12.7012
source	-12.7012
bläser	-12.7012
lären	-12.7013
schatte	-12.7013
▁physi	-12.7013
▁rummel	-12.7013
▁schür	-12.7013
▁styro	-12.7013
brocken	-12.7013
russell	-12.7013
willig	-12.7013
nitor	-12.7013
▁mega	-12.7013
unterlage	-12.7013
▁schmied	-12.7013
▁flugbegleit	-12.7013
▁leichtathletik	-12.7013
waggon	-12.7013
▁absolvier	-12.7013
▁archaeologi	-12.7013
▁terrori	-12.7013
▁wurzel	-12.7013
stethos	-12.7013
▁gastronomiebe	-12.7013
▁research	-12.7013
▁simultaneous	-12.7013
▁zehen	-12.7013
▁zigeuner	-12.7013
ausschnitt	-12.7013
behörde	-12.7013
blümchen	-12.7013
breeze	-12.7013
brenner	-12.7013
durchschnittlich	-12.7013
feuerwerkskörper	-12.7013
fäustlingen	-12.7013
förderband	-12.7013
fügt	-12.7013
geblieben	-12.7013
gebrochene	-12.7013
grenzt	-12.7013
häuschen	-12.7013
hül	-12.7013
immigration	-12.7013
ingbird	-12.7013
juweliergeschäft	-12.7013
kanister	-12.7013
kasino	-12.7013
knäuel	-12.7013
kreuzfahrtschiff	-12.7013
leuchtreklame	-12.7013
pinguin	-12.7013
quartet	-12.7013
quetscht	-12.7013
ribs	-12.7013
schlapp	-12.7013
spurige	-12.7013
stöpsel	-12.7013
verbindung	-12.7013
wühlt	-12.7013
zapfen	-12.7013
zapft	-12.7013
zwanzig	-12.7013
ändert	-12.7013
▁abfluss	-12.7013
▁abfälle	-12.7013
▁abzufangen	-12.7013
▁advantage	-12.7013
▁aluminum	-12.7013
▁angriffs	-12.7013
▁apotheke	-12.7013
▁architekt	-12.7013
▁archäolog	-12.7013
▁arkade	-12.7013
▁aufgewühlte	-12.7013
▁aufregende	-12.7013
▁augenschein	-12.7013
▁ausführt	-12.7013
▁baggage	-12.7013
▁banquet	-12.7013
▁baumbestandene	-12.7013
▁beanbag	-12.7013
▁behandelt	-12.7013
▁belegte	-12.7013
▁beobachter	-12.7013
▁beruhigt	-12.7013
▁betreut	-12.7013
▁billiard	-12.7013
▁blacksmith	-12.7013
▁boje	-12.7013
▁bonnet	-12.7013
▁brennt	-12.7013
▁bühnenauftritt	-12.7013
▁captain	-12.7013
▁cereal	-12.7013
▁chefkoch	-12.7013
▁choreograph	-12.7013
▁cleats	-12.7013
▁clipboard	-12.7013
▁clipper	-12.7013
▁cocktails	-12.7013
▁concession	-12.7013
▁congregating	-12.7013
▁contort	-12.7013
▁crocodile	-12.7013
▁crystal	-12.7013
▁cushion	-12.7013
▁custody	-12.7013
▁dandelion	-12.7013
▁defense	-12.7013
▁delfin	-12.7013
▁diashow	-12.7013
▁dishwasher	-12.7013
▁document	-12.7013
▁dramatisch	-12.7013
▁drumstick	-12.7013
▁dugout	-12.7013
▁durchnässt	-12.7013
▁dustpan	-12.7013
▁earbuds	-12.7013
▁easy	-12.7013
▁eidechse	-12.7013
▁eierkuchen	-12.7013
▁eingeschaltete	-12.7013
▁einzelhandel	-12.7013
▁eiskrem	-12.7013
▁ellenbogen	-12.7013
▁entdeckt	-12.7013
▁enthusiasm	-12.7013
▁entscheiden	-12.7013
▁erkundet	-12.7013
▁erörter	-12.7013
▁excavat	-12.7013
▁fahrgast	-12.7013
▁festumzug	-12.7013
▁fierce	-12.7013
▁fingertips	-12.7013
▁flamboyant	-12.7013
▁fleißig	-12.7013
▁flöße	-12.7013
▁fotoshooting	-12.7013
▁frankreich	-12.7013
▁fremdländische	-12.7013
▁frischgebackene	-12.7013
▁fühle	-12.7013
▁galerie	-12.7013
▁gebadet	-12.7013
▁gebräunte	-12.7013
▁geeignete	-12.7013
▁geformt	-12.7013
▁geograph	-12.7013
▁gepäckstücken	-12.7013
▁getraut	-12.7013
▁gewebte	-12.7013
▁gewundene	-12.7013
▁gewächshaus	-12.7013
▁glättet	-12.7013
▁golfschläger	-12.7013
▁gottesdienst	-12.7013
▁government	-12.7013
▁grandmother	-12.7013
▁grimacing	-12.7013
▁gruselige	-12.7013
▁handgriff	-12.7013
▁handkerchief	-12.7013
▁heartbeat	-12.7013
▁hingesetzt	-12.7013
▁hispanisch	-12.7013
▁hochdruckreinig	-12.7013
▁hochspringen	-12.7013
▁holzfäller	-12.7013
▁huddling	-12.7013
▁hängegleiter	-12.7013
▁hätte	-12.7013
▁innertube	-12.7013
▁insect	-12.7013
▁jalousie	-12.7013
▁jongleur	-12.7013
▁kartoffelchip	-12.7013
▁keramik	-12.7013
▁kliff	-12.7013
▁kontrabass	-12.7013
▁landwirt	-12.7013
▁leitplanke	-12.7013
▁lizard	-12.7013
▁loaf	-12.7013
▁lodge	-12.7013
▁louis	-12.7013
▁luftmatratze	-12.7013
▁löschfahrzeug	-12.7013
▁lümmel	-12.7013
▁majestätisch	-12.7013
▁manövrieren	-12.7013
▁meditiert	-12.7013
▁meeresstrand	-12.7013
▁moschee	-12.7013
▁mushroom	-12.7013
▁münztelefon	-12.7013
▁nerv	-12.7013
▁nuckel	-12.7013
▁opinion	-12.7013
▁opportunity	-12.7013
▁ostasiatische	-12.7013
▁outstreached	-12.7013
▁paddelboot	-12.7013
▁pappkarton	-12.7013
▁parkettboden	-12.7013
▁parlor	-12.7013
▁patrouillier	-12.7013
▁pebble	-12.7013
▁pelican	-12.7013
▁pelikan	-12.7013
▁pianist	-12.7013
▁plume	-12.7013
▁pompoms	-12.7013
▁presum	-12.7013
▁prinzessin	-12.7013
▁projiziert	-12.7013
▁prozession	-12.7013
▁präsentieren	-12.7013
▁purpurrote	-12.7013
▁quadratische	-12.7013
▁qualmt	-12.7013
▁racquet	-12.7013
▁rassel	-12.7013
▁reenact	-12.7013
▁refuge	-12.7013
▁reibt	-12.7013
▁reluctant	-12.7013
▁ritter	-12.7013
▁rüschen	-12.7013
▁samsung	-12.7013
▁schief	-12.7013
▁schlammpfütze	-12.7013
▁schlittenhunde	-12.7013
▁schmoll	-12.7013
▁schnürsenkel	-12.7013
▁schottenr	-12.7013
▁schubsen	-12.7013
▁schäbig	-12.7013
▁seamstress	-12.7013
▁secret	-12.7013
▁serviette	-12.7013
▁sicherungsseil	-12.7013
▁skewer	-12.7013
▁sleigh	-12.7013
▁smirking	-12.7013
▁snoopy	-12.7013
▁snowflake	-12.7013
▁softdrink	-12.7013
▁sonnenanbeter	-12.7013
▁sonnenaufgang	-12.7013
▁spruchbänder	-12.7013
▁stethoscope	-12.7013
▁stitch	-12.7013
▁stroboskoplicht	-12.7013
▁strömen	-12.7013
▁sunflower	-12.7013
▁suspens	-12.7013
▁tamburin	-12.7013
▁tastatur	-12.7013
▁tobacco	-12.7013
▁traverse	-12.7013
▁trouble	-12.7013
▁turbulent	-12.7013
▁töchter	-12.7013
▁umarmung	-12.7013
▁unkraut	-12.7013
▁unterirdische	-12.7013
▁verborgen	-12.7013
▁verdreckte	-12.7013
▁vergrößerungsgl	-12.7013
▁verschlungene	-12.7013
▁versetzt	-12.7013
▁verteidigt	-12.7013
▁verwahrloste	-12.7013
▁victoria	-12.7013
▁vornübergebeugt	-12.7013
▁vorschlaghammer	-12.7013
▁waffle	-12.7013
▁wasserpfütze	-12.7013
▁waterproof	-12.7013
▁wheat	-12.7013
▁wildflowers	-12.7013
▁wirbeln	-12.7013
▁wochenmarkt	-12.7013
▁wohnhäuser	-12.7013
▁wrangle	-12.7013
▁wundervolle	-12.7013
▁würz	-12.7013
▁wütend	-12.7013
▁zahnspange	-12.7013
▁zeigefinger	-12.7013
▁zerlumpte	-12.7013
▁zirkus	-12.7013
▁zugabteil	-12.7013
▁zweck	-12.7013
▁ängstlich	-12.7013
eifrig	-12.7013
rezept	-12.7013
ängel	-12.7013
▁aussichtspunkt	-12.7013
▁ausstreckt	-12.7013
▁consum	-12.7013
▁doberman	-12.7013
▁dominate	-12.7013
▁doppeldeckerbus	-12.7013
▁elasthan	-12.7013
▁englische	-12.7013
▁execut	-12.7013
▁explain	-12.7013
▁feinkost	-12.7013
▁forearm	-12.7013
▁gemähte	-12.7013
▁gypsy	-12.7013
▁heimwerker	-12.7013
▁investigat	-12.7013
▁kräftig	-12.7013
▁markisen	-12.7013
▁mollige	-12.7013
▁pharmac	-12.7013
▁remain	-12.7013
▁remember	-12.7013
▁skysurf	-12.7013
▁snarl	-12.7013
▁souvenir	-12.7013
▁spirituosen	-12.7013
▁swoop	-12.7013
▁vierbeinige	-12.7013
▁warrior	-12.7013
bukett	-12.7013
erobern	-12.7013
exponat	-12.7013
gewalt	-12.7013
laib	-12.7013
tivate	-12.7013
▁alphabet	-12.7013
▁beisammensein	-12.7013
▁bodies	-12.7013
▁britische	-12.7013
▁canister	-12.7013
▁corral	-12.7013
▁doppel	-12.7013
▁drahtseil	-12.7013
▁headgear	-12.7013
▁kirchenchor	-12.7013
▁kürz	-12.7013
▁orgel	-12.7013
▁sandpit	-12.7013
▁schlachtet	-12.7013
▁scrubb	-12.7013
▁shelter	-12.7013
▁spirit	-12.7013
▁stattfinden	-12.7013
▁totenkopf	-12.7013
▁wichtige	-12.7013
▁zementmischer	-12.7013
bonbon	-12.7013
ootsanlegestelle	-12.7013
sperrt	-12.7013
timate	-12.7013
▁beugen	-12.7013
▁biergläsern	-12.7013
▁glätten	-12.7013
▁handlebars	-12.7013
▁itself	-12.7013
▁kapuzenteil	-12.7013
▁laternenpfahl	-12.7013
▁nahrung	-12.7013
▁noble	-12.7013
▁weht	-12.7013
holzfußboden	-12.7013
▁contin	-12.7013
▁enrolling	-12.7013
▁geblockt	-12.7013
▁glatte	-12.7013
▁glitter	-12.7013
▁halbnackte	-12.7013
▁hochzeitstag	-12.7013
▁irokesenfrisur	-12.7013
▁latten	-12.7013
▁pappteller	-12.7013
▁pilz	-12.7013
▁textile	-12.7013
ambiente	-12.7013
▁angucken	-12.7013
▁condom	-12.7013
▁cork	-12.7013
▁erkunden	-12.7013
▁esswaren	-12.7013
▁heimatland	-12.7013
▁heranrollen	-12.7013
▁knives	-12.7013
▁küchenboden	-12.7013
▁pastellfarben	-12.7013
▁pleasant	-12.7013
▁rampenlicht	-12.7013
▁salmon	-12.7013
▁twigs	-12.7013
▁woodworking	-12.7013
▁chevrolet	-12.7013
▁schmerzen	-12.7013
▁squash	-12.7013
▁sumpfgebiet	-12.7013
▁trough	-12.7013
▁weizen	-12.7013
▁corp	-12.7013
▁pritsche	-12.7013
▁swerv	-12.7013
▁tulips	-12.7013
▁veranstalte	-12.7013
▁vikings	-12.7013
▁vorderrad	-12.7013
selungs	-12.7013
▁arguing	-12.7013
▁darum	-12.7013
▁decals	-12.7013
▁italienische	-12.7013
▁naturprodukte	-12.7013
▁alpin	-12.7013
▁gegrillte	-12.7013
schleier	-12.7013
▁darkness	-12.7013
▁frosting	-12.7013
▁referenc	-12.7013
▁russia	-12.7013
▁schneeflocke	-12.7013
▁subject	-12.7013
▁verregnete	-12.7013
▁hurry	-12.7013
▁maurer	-12.7013
▁rechteckige	-12.7013
▁abschleppwagen	-12.7013
▁carcass	-12.7013
▁culture	-12.7013
▁entsetz	-12.7013
▁forklift	-12.7013
▁insasse	-12.7013
▁klettergurt	-12.7013
▁macbook	-12.7013
▁schwule	-12.7013
gewebe	-12.7013
▁tabak	-12.7013
▁verschwitzt	-12.7013
▁überdachung	-12.7013
▁gesichtsschutz	-12.7013
schuppen	-12.7013
▁bühnenlicht	-12.7013
▁junk	-12.7013
▁kicher	-12.7013
▁meereswelle	-12.7013
▁sarong	-12.7013
▁blutdruck	-12.7013
▁management	-12.7013
▁spannen	-12.7013
▁zauberer	-12.7013
▁aufnahmestudio	-12.7013
▁fixture	-12.7013
▁friseursalon	-12.7013
▁manicure	-12.7013
▁popsicle	-12.7013
▁schutthaufen	-12.7013
abdrücken	-12.7013
▁hurt	-12.7013
▁vielfältige	-12.7013
▁animated	-12.7013
▁außergewöhnlich	-12.7013
▁console	-12.7013
▁smock	-12.7013
▁spritzwasser	-12.7013
▁drahtzaun	-12.7013
schublade	-12.7013
erbsen	-12.7013
▁schwitzt	-12.7013
▁slipper	-12.7013
▁steindenkmal	-12.7013
▁transportmittel	-12.7013
▁peruse	-12.7013
▁technician	-12.7013
▁ausgelassen	-12.7013
▁quadbike	-12.7013
▁sonnenhüte	-12.7013
▁physical	-12.7013
▁rummelplatz	-12.7013
▁paddy	-12.7013
▁halstücher	-12.7013
▁lebendige	-12.7013
▁france	-12.7013
▁rentier	-12.7013
▁revers	-12.7013
▁adobe	-12.7013
▁average	-12.7013
▁teure	-12.7013
ärmeligen	-12.7013
▁align	-12.7013
▁timber	-12.7013
muskeln	-12.7013
▁beaker	-12.7013
▁fechtwettkampf	-12.7013
▁wanderstöcke	-12.7013
▁staple	-12.7013
▁einsatzkräfte	-12.7013
▁herausgestreckt	-12.7013
▁korken	-12.7013
▁werferhügel	-12.7013
▁freiluftkonzert	-12.7013
▁picknickbank	-12.7013
▁levi	-12.7013
▁küstenlinie	-12.7013
▁price	-12.7013
▁spanien	-12.7013
umrandet	-12.7013
▁applied	-12.7013
▁flashlight	-12.7013
▁attackieren	-12.7013
▁dentist	-12.7013
▁tonstudio	-12.7013
▁buntstift	-12.7013
amerika	-12.7013
▁kunstprojekt	-12.7013
▁ditch	-12.7013
▁korbleger	-12.7013
▁pfau	-12.7013
▁ständen	-12.7013
▁weihnachtszeit	-12.7013
▁affection	-12.7013
▁plaster	-12.7013
▁vierergruppe	-12.7013
▁sonnenbad	-12.7013
▁unterlagen	-12.7014
▁laderampe	-12.7014
▁massage	-12.7014
▁papierteller	-12.7014
▁plastikrutsche	-12.7014
kuppe	-12.7014
nual	-12.7014
ricate	-12.7014
▁darstellt	-12.7014
▁freestyle	-12.7014
▁tux	-12.7014
▁wristband	-12.7014
▁cutoff	-12.7014
▁sattelzug	-12.7014
▁rollkoffer	-12.7014
jenige	-12.7014
▁blast	-12.7014
hochstart	-12.7014
▁anschneiden	-12.7014
▁carpent	-12.7014
▁plastikbecher	-12.7014
▁transportieren	-12.7014
geklappte	-12.7014
▁sax	-12.7014
▁specialize	-12.7014
▁broadway	-12.7014
▁shock	-12.7014
▁angeschaut	-12.7014
▁blüten	-12.7014
▁müllhaufen	-12.7014
▁polizeiauto	-12.7014
▁become	-12.7014
▁zerkleinert	-12.7014
gewinkelt	-12.7014
münzfernsprecher	-12.7014
▁aschenbahn	-12.7014
▁ballontier	-12.7014
▁erscheint	-12.7014
▁expert	-12.7014
▁fool	-12.7014
rnstein	-12.7014
▁pferderücken	-12.7014
▁asphaltstraße	-12.7014
▁herzförmige	-12.7014
▁leisten	-12.7014
▁weinflasche	-12.7014
▁frosch	-12.7014
▁gruppenfoto	-12.7014
▁gartenwerkzeug	-12.7014
▁schlammgrube	-12.7014
▁fiddle	-12.7014
schrein	-12.7014
▁corridor	-12.7014
▁frack	-12.7014
▁tuck	-12.7014
▁taschenlampe	-12.7014
▁noise	-12.7014
▁livestock	-12.7014
▁herbsttag	-12.7014
▁tarnmuster	-12.7014
▁england	-12.7014
▁ritz	-12.7014
▁gebogene	-12.7014
▁trägershirt	-12.7014
▁mosaik	-12.7014
▁engelskostüm	-12.7014
▁notfall	-12.7014
▁brustkorb	-12.7014
▁imbissstand	-12.7014
▁tunika	-12.7014
▁unterarm	-12.7014
▁geese	-12.7014
▁grell	-12.7014
▁groucho	-12.7014
▁erklettert	-12.7014
▁placard	-12.7014
▁kürbisfeld	-12.7014
▁teppichboden	-12.7014
▁trinket	-12.7014
senkt	-12.7014
cura	-12.7014
▁sonnentag	-12.7015
olate	-12.7015
gebastelte	-12.7015
ollywood	-12.7015
▁hausgemachte	-12.7015
▁furcht	-12.7015
▁obstkarren	-12.7015
▁plastikstuhl	-12.7015
izab	-12.7015
▁filmset	-12.7015
▁freeway	-12.7015
▁theaterstück	-12.7015
▁feierliche	-12.7015
▁pastry	-12.7015
▁gruppenbild	-12.7015
▁clasp	-12.7015
▁organisier	-12.7015
▁schnellboot	-12.7015
▁sonnt	-12.7015
▁bücherei	-12.7015
▁hochgeschobene	-12.7015
▁sagen	-12.7015
▁rent	-12.7015
▁equip	-12.7015
▁polar	-12.7015
▁seilrutsche	-12.7015
▁seesack	-12.7015
▁stuhlreihe	-12.7016
▁creative	-12.7016
▁mail	-12.7016
▁bahnarbeiter	-12.7016
▁verrichtet	-12.7016
aku	-12.7016
▁logger	-12.7016
▁mold	-12.7016
▁transportwagen	-12.7016
▁sprungtritt	-12.7016
leistung	-12.7016
▁haarsalon	-12.7016
▁musikfestival	-12.7016
lution	-12.7016
▁spielzeuglaster	-12.7016
▁cact	-12.7016
▁eisläufer	-12.7016
▁metallgeländer	-12.7016
▁metallschüssel	-12.7016
▁mosque	-12.7016
▁visitor	-12.7016
▁gigantische	-12.7016
▁trek	-12.7016
▁schildkappe	-12.7016
▁aufbäumende	-12.7016
▁gateway	-12.7016
▁gebäudeeingang	-12.7016
▁shelf	-12.7016
▁berittene	-12.7017
▁ignoriert	-12.7017
▁gewinnt	-12.7017
▁hoist	-12.7017
▁arbeitstag	-12.7017
rapher	-12.7017
▁entertainment	-12.7017
▁protester	-12.7017
inting	-12.7017
▁geländemaschine	-12.7017
▁myster	-12.7017
▁procession	-12.7017
▁plattenspieler	-12.7017
▁bushel	-12.7017
▁wandtafel	-12.7017
▁blumendruck	-12.7017
▁drachenkostüm	-12.7018
▁buff	-12.7018
▁showcas	-12.7018
▁director	-12.7018
empt	-12.7018
orient	-12.7018
▁tye	-12.7018
▁nation	-12.7018
▁skistöcken	-12.7018
cia	-12.7018
▁spielautomaten	-12.7018
▁arrest	-12.7019
▁hochgehalten	-12.7019
foyer	-12.7019
▁kochjacke	-12.7019
▁stadtgebiet	-12.7019
▁untergehende	-12.7019
▁gartenstühlen	-12.7019
▁haustier	-12.7019
oster	-12.7019
rrible	-12.7019
▁toenail	-12.7019
▁assembly	-12.7019
▁abgelegt	-12.7019
▁riech	-12.7019
▁zeltplatz	-12.702
▁sumoringer	-12.702
▁geschirrspüler	-12.702
▁bandkollegen	-12.702
▁moon	-12.702
regt	-12.702
▁bewachsene	-12.702
▁abfall	-12.702
▁fensterbank	-12.702
▁manager	-12.702
▁errichten	-12.702
▁pfirsichfarben	-12.702
▁musikstück	-12.702
▁proudly	-12.702
schwitz	-12.702
▁nachgemachte	-12.702
arbeitung	-12.702
▁fußballnetz	-12.7021
▁turf	-12.7021
▁inspector	-12.7021
▁hundeschlitten	-12.7021
▁schülerinnen	-12.7021
▁arrival	-12.7021
kran	-12.7021
zusammengedrängt	-12.7021
▁verläuft	-12.7021
▁join	-12.7021
▁oversee	-12.7021
▁rechen	-12.7022
▁spout	-12.7022
zusammenpassende	-12.7022
▁rig	-12.7022
▁kaffeetisch	-12.7022
▁marktstraße	-12.7022
▁dreirädrige	-12.7022
▁gitarrenspieler	-12.7023
▁hochzuheben	-12.7023
▁humm	-12.7023
▁schöpft	-12.7023
▁bespritzen	-12.7023
▁moss	-12.7023
ivid	-12.7023
▁kok	-12.7023
dapple	-12.7023
lov	-12.7024
▁self	-12.7024
gallon	-12.7024
▁bergwand	-12.7024
addle	-12.7025
▁rastet	-12.7025
▁ensur	-12.7025
heel	-12.7025
▁mut	-12.7025
▁might	-12.7025
▁zusammenzu	-12.7026
▁regenjacke	-12.7026
▁windel	-12.7026
▁besteck	-12.7026
heruntergelassen	-12.7026
▁transparente	-12.7026
▁zugfahrt	-12.7026
▁radweg	-12.7026
▁latexhandschuh	-12.7026
verkehrspolizist	-12.7027
▁gelassen	-12.7027
▁uphill	-12.7027
▁jogginganzug	-12.7027
▁ernste	-12.7027
▁goof	-12.7027
einkauf	-12.7027
▁binder	-12.7027
▁gemüsestand	-12.7027
▁bevorstehende	-12.7027
▁koreanische	-12.7028
▁lakeside	-12.7028
▁mag	-12.7028
▁lässig	-12.7028
▁glasur	-12.7028
▁nursing	-12.7028
organis	-12.7028
▁lederkleidung	-12.7028
▁abschlag	-12.7028
▁rockkonzert	-12.7029
▁unbe	-12.7029
▁spain	-12.7029
▁holzgebäude	-12.7029
▁eisstand	-12.7029
▁steinweg	-12.7029
▁feil	-12.703
▁föhnt	-12.703
warengeschäft	-12.703
▁hindernisse	-12.7031
▁ladengeschäft	-12.7031
▁sledge	-12.7031
▁herabhängen	-12.7031
▁operieren	-12.7032
▁gestürzt	-12.7032
geburtstagsfeier	-12.7032
▁gewehre	-12.7032
▁pasture	-12.7032
▁handbewegungen	-12.7032
▁abgestimmten	-12.7033
▁eistüten	-12.7033
gehängt	-12.7033
▁spielzeugzug	-12.7033
▁hellrosafarbene	-12.7033
▁straßenstand	-12.7033
▁liefer	-12.7034
ringer	-12.7034
▁playhouse	-12.7034
▁choreogra	-12.7034
▁snowbank	-12.7034
creme	-12.7035
▁headlight	-12.7035
ätzchen	-12.7035
▁vaca	-12.7036
▁wassernähe	-12.7036
▁oceanside	-12.7036
ligato	-12.7036
▁gefährt	-12.7036
▁glocke	-12.7036
▁neugierige	-12.7036
fringe	-12.7036
lway	-12.7037
▁swat	-12.7037
▁erinnerung	-12.7037
▁gedreht	-12.7038
▁biene	-12.7038
▁größerer	-12.7038
▁pulli	-12.7038
▁underway	-12.7038
▁nachdenklich	-12.7038
▁schlepper	-12.7039
▁umgibt	-12.704
▁grasbedeckte	-12.704
egret	-12.704
▁treppenhauses	-12.704
▁kochkleidung	-12.7041
cultur	-12.7042
▁chirurgische	-12.7042
▁bäcker	-12.7042
▁potatoes	-12.7043
▁substan	-12.7044
▁astronauten	-12.7044
▁sonnenblume	-12.7045
▁till	-12.7045
▁bittet	-12.7045
▁besteigen	-12.7045
▁taille	-12.7046
▁baseballplatz	-12.7046
▁troll	-12.7046
▁angreife	-12.7047
ktor	-12.7047
▁vermisch	-12.7047
roller	-12.7049
▁polizeiuniform	-12.7049
habit	-12.7049
▁proper	-12.7049
▁baumgruppe	-12.705
▁role	-12.705
ritten	-12.705
▁falt	-12.7051
ails	-12.7051
schwimmflügel	-12.7053
▁schuljunge	-12.7053
panzer	-12.7053
▁antwort	-12.7054
▁überwach	-12.7054
onserv	-12.7054
▁alarm	-12.7056
▁buddel	-12.7056
▁needed	-12.7056
▁stoppen	-12.7056
▁patches	-12.7056
▁cel	-12.7057
▁schiffes	-12.7057
▁stewardess	-12.7057
▁schuluniform	-12.7058
▁tennisspiel	-12.7059
▁wälzt	-12.706
▁bohrer	-12.7061
fordert	-12.7061
▁wanderin	-12.7061
▁kochmütze	-12.7062
strengt	-12.7063
ßten	-12.7063
▁bahnschiene	-12.7063
▁forever	-12.7063
▁welder	-12.7064
▁sewer	-12.7064
▁blutende	-12.7065
▁überschlagen	-12.7066
▁kostenlos	-12.7067
▁verlie	-12.7068
▁eingehüllt	-12.7068
▁champagner	-12.7068
▁polizeifahrzeug	-12.7068
▁teddybären	-12.7068
▁alber	-12.7071
▁hunderennen	-12.7071
▁straßenmusikant	-12.7071
▁patriotische	-12.7071
▁danebensteh	-12.7072
▁erschöpft	-12.7072
minirock	-12.7073
clips	-12.7077
▁überschlag	-12.7077
gehalten	-12.7077
schmiert	-12.7077
ctic	-12.7078
▁entlangfahren	-12.7078
▁sat	-12.7079
ood	-12.7079
▁jer	-12.7079
▁bowlingspieler	-12.7079
▁pastel	-12.708
▁fußbälle	-12.7081
▁zerleg	-12.7081
leitungen	-12.7082
▁bullet	-12.7084
langläufer	-12.7084
weite	-12.7086
▁entschlossen	-12.7086
▁volley	-12.7087
worker	-12.7089
ynchronschwimmer	-12.7091
das	-12.7093
möglichkeit	-12.7096
▁lachsf	-12.7097
▁topping	-12.7098
▁autofahrer	-12.7098
▁recliner	-12.7098
▁hinterrad	-12.7099
▁restauranttisch	-12.7099
sks	-12.71
zuhören	-12.7101
▁handgerät	-12.7103
▁schwimmring	-12.7106
▁carton	-12.7111
▁denken	-12.7111
grace	-12.7112
▁entertained	-12.7113
häuse	-12.7114
▁pep	-12.7115
▁verwunder	-12.7116
▁verkleidung	-12.7118
▁finden	-12.7119
▁cowboykleidung	-12.712
▁collegestudent	-12.7121
schicht	-12.7121
▁medien	-12.7125
▁rollschuhen	-12.7128
lak	-12.7128
▁mittelpunk	-12.7133
stierkampf	-12.7134
gesprüht	-12.7135
▁prepp	-12.7135
eaks	-12.7136
▁neonfarbene	-12.7136
▁durchzu	-12.7137
halie	-12.7141
gehört	-12.7148
▁lebende	-12.7154
▁blondine	-12.7154
▁gefertigt	-12.7155
▁sportteam	-12.7156
▁gast	-12.7157
gitarrenähnliche	-12.7162
▁bouncer	-12.7163
richtensprecher	-12.7164
rates	-12.7168
▁gir	-12.7171
▁marine	-12.7183
▁joke	-12.7202
▁mixtur	-12.7205
▁fitte	-12.7214
▁gartenarbeit	-12.722
▁baugerät	-12.7222
▁comical	-12.7233
leading	-12.7238
real	-12.7241
eranstaltungsort	-12.7252
▁beigefarben	-12.7255
▁sole	-12.7256
▁dreieck	-12.7261
▁requ	-12.7275
▁dep	-12.728
vul	-12.7296
▁rippl	-12.7309
▁massier	-12.7309
▁spur	-12.731
▁weide	-12.7314
gezeichnete	-12.7317
▁pelzige	-12.7319
bock	-12.7319
▁ausruhen	-12.7319
▁küchenarbeits	-12.7321
▁wassersp	-12.7323
astet	-12.7339
▁prakti	-12.7342
▁gewürze	-12.7356
▁messi	-12.7365
▁buschige	-12.7381
▁creep	-12.7384
velop	-12.7387
addresses	-12.7393
hai	-12.74
▁protestierende	-12.7409
▁metallrohr	-12.741
kippt	-12.7452
▁knu	-12.7452
▁rap	-12.7461
▁bauchtänzer	-12.7461
speist	-12.7471
▁tiefblaue	-12.7489
▁winkend	-12.7489
shipping	-12.7493
▁neongelbe	-12.7494
rutscht	-12.7564
rbeitshandschuhe	-12.758
mitarbeiterin	-12.758
find	-12.7619
▁herunterge	-12.7619
▁attache	-12.7689
nsammlung	-12.7691
quir	-12.7694
ranst	-12.7724
gebaut	-12.7728
▁pap	-12.7728
ktisch	-12.7737
blickt	-12.774
▁besonder	-12.774
▁üppig	-12.7749
▁kunstvoll	-12.7773
runzelt	-12.7803
▁spiegelung	-12.7806
gehende	-12.7822
▁skip	-12.7822
▁scheu	-12.7847
eva	-12.7849
abhängen	-12.7861
▁getrocknet	-12.7865
pear	-12.7866
▁stürm	-12.7869
▁abendlich	-12.7876
▁private	-12.7881
▁erdbeere	-12.7881
▁grate	-12.7893
▁statur	-12.7896
stoppt	-12.7899
gedrückt	-12.7936
▁wasserstrahl	-12.7946
eucht	-12.7947
▁launche	-12.7948
▁hör	-12.7949
ulinar	-12.7951
▁hellhäutig	-12.7979
▁erzeug	-12.7989
ruppig	-12.7994
▁cheerful	-12.8006
kulturelle	-12.8014
▁backstein	-12.8028
▁weinrot	-12.8048
▁beginnende	-12.8059
▁rinde	-12.8091
▁scar	-12.8096
▁komisch	-12.8103
hook	-12.8115
fehlt	-12.8127
basketballspiele	-12.8148
schluss	-12.815
gesägt	-12.8161
stiegs	-12.8189
kanne	-12.823
▁gestapelte	-12.8242
▁zusammengerollt	-12.8243
▁sitze	-12.8263
lette	-12.8272
▁ode	-12.8294
▁pane	-12.8301
▁niedrig	-12.8304
▁merkwürdige	-12.8314
▁senkrechte	-12.8334
▁dah	-12.8361
▁hampe	-12.8366
▁verziert	-12.8373
▁reci	-12.8381
▁knapp	-12.8383
▁betrunken	-12.8469
aiteninstrumente	-12.8475
▁schleppe	-12.8486
▁chinesisch	-12.8493
▁schreibend	-12.8496
▁informell	-12.8512
▁woll	-12.8519
▁spanisch	-12.8554
▁vorübergeh	-12.856
dler	-12.8583
▁adventure	-12.8696
▁lebhafte	-12.8696
▁angeleinte	-12.8701
pro	-12.8722
▁urg	-12.8772
schleudert	-12.8784
▁spenden	-12.8802
demo	-12.8851
beater	-12.8883
krieger	-12.8887
masten	-12.8908
▁erhöht	-12.8986
▁pou	-12.9014
▁lecker	-12.9033
▁gefaltet	-12.9034
medaillen	-12.9037
ernsehbildschirm	-12.9039
▁deutsch	-12.9116
leinwand	-12.9117
▁ye	-12.9137
▁interessant	-12.915
▁metallarbeite	-12.9198
llac	-12.9199
▁visier	-12.9218
fliegt	-12.9236
lichtung	-12.9263
▁traditionell	-12.928
▁grünblau	-12.9315
▁fernseh	-12.9343
▁medaill	-12.9384
▁gefaltete	-12.939
ossen	-12.941
gemacht	-12.9416
▁vat	-12.9424
▁carolin	-12.9465
▁umstehende	-12.9468
schreibt	-12.9472
senbahnschienen	-12.9527
▁wunderschön	-12.953
▁übersät	-12.9538
▁duel	-12.9574
stützen	-12.9579
▁flank	-12.9591
▁schleuder	-12.9647
▁reclin	-12.9658
▁concentrat	-12.9669
löchern	-12.9696
populat	-12.9769
startet	-12.9772
▁besser	-12.979
▁lungi	-12.9858
lstreifen	-12.9899
oberfläche	-12.9917
pose	-12.993
▁indisch	-12.9932
▁informelle	-12.9958
▁stäbe	-12.9962
baseballteam	-12.9975
▁blasinstrument	-13
▁prächtig	-13.0001
▁betrunkene	-13.0008
hundert	-13.0009
aux	-13.0014
postal	-13.0022
gefarbenen	-13.0069
möbeln	-13.0105
shed	-13.018
bergab	-13.0244
▁shoo	-13.0287
▁wasserspritze	-13.0306
▁vornehm	-13.034
imitat	-13.0348
▁schütte	-13.035
kühler	-13.0354
▁challeng	-13.0357
regenbogenfarbig	-13.0376
verschlu	-13.0389
rasierer	-13.0431
▁lesende	-13.0465
hängt	-13.0473
tzen	-13.0535
esco	-13.0568
▁fehl	-13.0584
streu	-13.0588
sammlung	-13.0634
▁unterstütz	-13.0642
▁selbstgeba	-13.0644
eburtstagskuchen	-13.0735
▁privat	-13.0737
▁erdbeer	-13.0737
▁getrocknete	-13.0758
▁pea	-13.0798
eisenbahnschiene	-13.0801
powered	-13.0817
stee	-13.0885
▁schräge	-13.0887
▁tröste	-13.0915
klapp	-13.093
▁lebensmittellad	-13.0953
▁speci	-13.0969
bak	-13.0984
▁klub	-13.0989
tücher	-13.1021
presst	-13.1042
▁bunk	-13.1071
▁kata	-13.1077
kennzeichn	-13.108
▁keks	-13.1084
▁rennhund	-13.1086
▁schaff	-13.1098
färbt	-13.1098
indernisparcours	-13.11
frans	-13.1104
▁wisc	-13.1119
tänzerin	-13.1131
türmt	-13.122
▁weiblich	-13.1235
▁elev	-13.126
▁pferdeschw	-13.1279
▁kleidungsstück	-13.128
tschaft	-13.1282
leger	-13.139
reinig	-13.1402
lope	-13.143
vorspiel	-13.1501
einfahrt	-13.1553
formal	-13.1555
spuren	-13.1557
aktivitäten	-13.1575
▁inflat	-13.1598
hören	-13.1618
spannt	-13.1624
sportart	-13.1627
ucken	-13.1629
pane	-13.1633
▁curv	-13.1637
öpfen	-13.1668
arbeitsplatte	-13.1679
eworfen	-13.1682
ept	-13.1733
klettern	-13.1735
militäruniformen	-13.1736
absperrung	-13.1758
chipper	-13.1758
▁luxu	-13.177
erfahren	-13.177
▁kontroll	-13.1793
▁histori	-13.1795
alia	-13.1796
vertrete	-13.1798
annt	-13.1806
teller	-13.1812
▁konkurr	-13.1817
▁decid	-13.182
lichkeiten	-13.1823
isiert	-13.1826
pole	-13.1833
gezogen	-13.1839
ohlen	-13.1842
▁inlineskate	-13.1848
gelenk	-13.185
▁hüt	-13.1851
stiefel	-13.1851
stöcke	-13.1852
bäume	-13.1853
haben	-13.1856
▁steak	-13.1863
▁empfang	-13.1863
▁coconut	-13.1864
▁participant	-13.1864
▁frühstück	-13.1865
▁sausage	-13.1868
▁condition	-13.1868
▁bridesmaid	-13.1873
▁verpack	-13.1876
▁bystander	-13.1877
▁pajama	-13.1879
▁shingle	-13.1879
▁tätowier	-13.1882
zeichnung	-13.1883
▁bone	-13.1884
schuh	-13.1889
guards	-13.189
▁kickbox	-13.1892
lush	-13.1893
▁unwrap	-13.1893
▁aufstell	-13.1894
awing	-13.1895
person	-13.1899
▁marl	-13.19
student	-13.1902
hallenboden	-13.1903
wohn	-13.1903
▁eisige	-13.1906
▁guid	-13.1906
gleitet	-13.1908
aktivität	-13.1909
▁antiqu	-13.1911
pul	-13.1912
fire	-13.1912
lips	-13.1915
pistole	-13.1917
schlossene	-13.1917
▁wav	-13.1919
▁curl	-13.1921
prächtige	-13.1922
hüllte	-13.1922
schwester	-13.1922
kitty	-13.1923
loop	-13.1923
dusche	-13.1923
gebirge	-13.1923
flohmarkt	-13.1923
stride	-13.1923
sportplatz	-13.1923
reinigungs	-13.1923
lantern	-13.1923
hafen	-13.1923
pulver	-13.1923
ohio	-13.1924
pink	-13.1925
phon	-13.1925
zukommen	-13.1925
programm	-13.1925
olympia	-13.1925
pfoten	-13.1925
transporter	-13.1925
aufkleber	-13.1925
fässer	-13.1925
kutsche	-13.1925
legged	-13.1925
schwertern	-13.1925
twister	-13.1925
gefüllte	-13.1926
veteran	-13.1926
lenker	-13.1926
jim	-13.1926
stamm	-13.1926
▁audi	-13.1926
▁kosten	-13.1926
ddles	-13.1927
q	-13.1927
eingang	-13.1927
enthusiast	-13.1927
haarschnitt	-13.1927
hubschrauber	-13.1927
krug	-13.1927
arriv	-13.1927
fernrohr	-13.1927
pfanne	-13.1927
gabel	-13.1928
gepflasterte	-13.1928
stadion	-13.1928
probieren	-13.1928
steuert	-13.1928
butter	-13.1928
fassade	-13.1928
kontrolle	-13.1928
geländefahrzeug	-13.1928
stofftier	-13.1928
staubsauger	-13.1929
haut	-13.1929
designer	-13.1929
fächer	-13.1929
kiosk	-13.1929
reparatur	-13.1929
fackel	-13.1929
spielzeugauto	-13.1929
tänzer	-13.1929
south	-13.1929
weih	-13.1929
darbietung	-13.1929
zoo	-13.1929
hindernis	-13.193
▁kühe	-13.193
▁limonade	-13.193
▁ohrhörer	-13.193
▁schärpe	-13.193
zeigt	-13.193
plattform	-13.193
flip	-13.193
kopfschmuck	-13.193
pipe	-13.193
seattle	-13.193
superman	-13.193
feuerwehrauto	-13.193
sooners	-13.193
thumbs	-13.193
tracht	-13.1931
fließ	-13.1931
buffet	-13.1931
teilnehmer	-13.1931
schnapp	-13.1931
terrier	-13.1931
spül	-13.1931
fänger	-13.1931
tablett	-13.1931
versammlung	-13.1931
▁crow	-13.1931
kehrt	-13.1931
liegt	-13.1931
fahrgeschäft	-13.1931
köche	-13.1931
tribüne	-13.1931
▁skydiv	-13.1931
werkstatt	-13.1931
colli	-13.1931
beißt	-13.1931
story	-13.1931
fahne	-13.1932
load	-13.1932
nail	-13.1932
binden	-13.1932
birthday	-13.1932
gitarrist	-13.1932
silbernen	-13.1932
▁pfote	-13.1932
motorrädern	-13.1932
happy	-13.1932
material	-13.1932
mädchen	-13.1932
ship	-13.1932
operate	-13.1932
brand	-13.1932
paddelt	-13.1932
bewegt	-13.1932
first	-13.1932
bread	-13.1932
gießt	-13.1932
schießen	-13.1932
shade	-13.1933
banner	-13.1933
hotel	-13.1933
goalie	-13.1933
geld	-13.1933
handwerk	-13.1933
aint	-13.1933
coach	-13.1933
sandwich	-13.1933
veranda	-13.1933
katze	-13.1933
köpfen	-13.1933
flaggen	-13.1933
spaß	-13.1933
badehose	-13.1933
mikroskop	-13.1933
schiedsrichter	-13.1933
einkaufswagen	-13.1933
sandalen	-13.1933
makeup	-13.1933
chase	-13.1933
stunt	-13.1933
starrt	-13.1933
blonde	-13.1933
york	-13.1933
schürze	-13.1933
laptop	-13.1933
rollstuhl	-13.1933
shot	-13.1933
baseballspieler	-13.1933
▁wetteifer	-13.1933
distance	-13.1934
▁beeindrucken	-13.1934
bikini	-13.1934
kopfbedeckung	-13.1934
schwimmt	-13.1934
gekleidet	-13.1934
cowboy	-13.1934
metall	-13.1934
police	-13.1934
schiebt	-13.1934
crowded	-13.1934
raised	-13.1934
sweatshirt	-13.1934
floor	-13.1934
horse	-13.1934
▁violet	-13.1934
schülerin	-13.1934
player	-13.1934
game	-13.1934
himmel	-13.1934
job	-13.1934
who	-13.1934
mouse	-13.1934
▁zitrone	-13.1934
▁hacke	-13.1934
▁gestalt	-13.1935
painted	-13.1935
▁einkaufstüte	-13.1936
leeren	-13.1936
kreuzung	-13.1936
scheine	-13.1937
▁chirurg	-13.1937
zone	-13.1937
parkplatz	-13.1937
fasst	-13.1937
▁röcke	-13.1938
garage	-13.1938
kleidern	-13.1939
abend	-13.1939
store	-13.1939
▁zeige	-13.1939
▁schlitte	-13.1939
deckel	-13.1939
pop	-13.1939
class	-13.194
▁hab	-13.194
▁reife	-13.1941
kick	-13.1941
footballspieler	-13.1941
pinkfarbene	-13.1942
▁drache	-13.1942
▁stewar	-13.1943
▁brennen	-13.195
ungsvoll	-13.1951
ändigen	-13.1953
▁hugg	-13.1955
▁würst	-13.1956
▁hors	-13.1961
ammer	-13.1962
▁rutsch	-13.1962
spectac	-13.1962
reizt	-13.1965
roke	-13.1967
▁bruc	-13.197
▁misc	-13.197
▁schreib	-13.1971
▁bahngleis	-13.1972
▁guck	-13.1973
rasierte	-13.1973
▁erfrisch	-13.1974
▁burgunder	-13.1974
aube	-13.1978
▁schwän	-13.1978
pumpe	-13.1979
burn	-13.198
äht	-13.198
▁besprech	-13.1984
▁musizier	-13.1984
▁kastanien	-13.1984
schütze	-13.1984
▁erledig	-13.1985
▁reagier	-13.1985
▁nachricht	-13.1985
▁operier	-13.1986
▁süßigkeit	-13.1986
▁einkäufe	-13.1986
▁elefant	-13.1986
▁islami	-13.1987
▁männe	-13.1987
▁buddhist	-13.1989
▁list	-13.199
▁kauf	-13.199
transparent	-13.1991
uggling	-13.1992
▁kolleg	-13.1994
▁modi	-13.1994
▁confus	-13.1995
gestreckt	-13.1995
lustig	-13.1995
subs	-13.1996
▁injur	-13.1996
ndige	-13.1996
▁schöpf	-13.1996
wirtschaft	-13.1996
▁medizin	-13.1997
ible	-13.1997
▁beförder	-13.1997
rädrige	-13.1997
▁absperr	-13.1997
▁überblick	-13.1998
▁bob	-13.1998
▁improv	-13.1998
gespann	-13.1998
quert	-13.1999
▁bäck	-13.1999
▁schulk	-13.1999
▁extrem	-13.2
▁bandmitglied	-13.2
▁wasserspreng	-13.2
ländische	-13.2
▁should	-13.2001
sprenger	-13.2002
bien	-13.2002
▁maschendraht	-13.2003
▁technolog	-13.2003
▁possibl	-13.2004
▁bott	-13.2004
▁akrobati	-13.2005
▁keg	-13.2005
eader	-13.2005
▁wohnhaus	-13.2005
röhr	-13.2006
▁wineglass	-13.2006
▁attentive	-13.2006
schriebene	-13.2006
wechsel	-13.2007
▁jugend	-13.2007
rika	-13.2007
iegelt	-13.2008
▁pho	-13.2008
pfeif	-13.2008
zuklettern	-13.2008
holfen	-13.2009
bemalung	-13.2009
losi	-13.2009
shir	-13.2009
▁schneider	-13.201
▁herbs	-13.201
▁irgendw	-13.201
▁erfor	-13.201
▁grouch	-13.201
▁tunik	-13.201
▁prince	-13.2011
tilts	-13.2011
enmark	-13.2011
kröte	-13.2011
kurv	-13.2011
zerkleiner	-13.2011
roffen	-13.2011
▁gäs	-13.2011
schläge	-13.2011
gänger	-13.2012
flüg	-13.2012
▁martin	-13.2012
polis	-13.2012
blading	-13.2012
▁parachuti	-13.2012
geputzt	-13.2012
▁elektro	-13.2012
hiki	-13.2012
triebene	-13.2012
▁affect	-13.2012
bewohner	-13.2012
▁repel	-13.2012
▁kaugummi	-13.2012
▁flanell	-13.2012
▁chur	-13.2012
triebs	-13.2012
utensilien	-13.2012
▁metzger	-13.2013
börse	-13.2013
dium	-13.2013
blum	-13.2013
▁intri	-13.2013
▁applaudi	-13.2013
▁residen	-13.2013
dekoration	-13.2013
brüc	-13.2013
hölzer	-13.2013
▁univers	-13.2013
cussion	-13.2013
▁harmoni	-13.2013
▁chevro	-13.2013
▁mahl	-13.2013
sprach	-13.2013
▁berüh	-13.2013
▁quarter	-13.2013
strumpf	-13.2013
bby	-13.2013
▁aktiv	-13.2013
▁irokesen	-13.2013
▁benzin	-13.2013
▁neighbor	-13.2013
christian	-13.2013
▁einzutau	-13.2013
▁südostasi	-13.2013
ibit	-13.2013
terassen	-13.2013
▁begrüß	-13.2013
▁brutalit	-13.2013
▁gebirgs	-13.2013
▁identif	-13.2013
▁körn	-13.2013
▁lolli	-13.2013
▁länder	-13.2013
▁spezial	-13.2013
▁twenty	-13.2013
▁volvo	-13.2013
▁wissenschafts	-13.2013
▁überschwemm	-13.2013
kündig	-13.2013
ngstreckenläufer	-13.2013
stabhochspringer	-13.2013
verdient	-13.2013
▁aerodynami	-13.2013
▁amphibi	-13.2013
▁appropriate	-13.2013
▁atmosph	-13.2013
▁awkward	-13.2013
▁begrenz	-13.2013
▁besorgt	-13.2013
▁blöd	-13.2013
▁chelsea	-13.2013
▁cleav	-13.2013
▁collaps	-13.2013
▁costco	-13.2013
▁difficult	-13.2013
▁donnerstag	-13.2013
▁enttäusch	-13.2013
▁explod	-13.2013
▁faith	-13.2013
▁firefox	-13.2013
▁folklore	-13.2013
▁forschungs	-13.2013
▁gladiator	-13.2013
▁glüh	-13.2013
▁größten	-13.2013
▁häkelt	-13.2013
▁illustrati	-13.2013
▁indigo	-13.2013
▁intraven	-13.2013
▁kartengeber	-13.2013
▁kebabs	-13.2013
▁kerchief	-13.2013
▁liverpool	-13.2013
▁mischievous	-13.2013
▁mortar	-13.2013
▁neutral	-13.2013
▁nfl	-13.2013
▁orangutan	-13.2013
▁psyduck	-13.2013
▁quattro	-13.2013
▁regenguss	-13.2013
▁remodel	-13.2013
▁revolution	-13.2013
▁rockabilly	-13.2013
▁roosevelt	-13.2013
▁sauerstoff	-13.2013
▁schmelz	-13.2013
▁sperrholz	-13.2013
▁symmetr	-13.2013
▁tanzschritt	-13.2013
▁ukraini	-13.2013
▁verkünde	-13.2013
▁völker	-13.2013
▁äußer	-13.2013
abschnitt	-13.2013
aliforni	-13.2013
altitude	-13.2013
aufensterauslage	-13.2013
aufensterbummel	-13.2013
barney	-13.2013
beauftragte	-13.2013
diatri	-13.2013
dimensionierte	-13.2013
elsteine	-13.2013
escription	-13.2013
fahrgelegenheit	-13.2013
fälscht	-13.2013
gefäß	-13.2013
gekrönt	-13.2013
gekämpft	-13.2013
gewächs	-13.2013
gießkanne	-13.2013
gleichmäßig	-13.2013
katessen	-13.2013
kolonne	-13.2013
kübel	-13.2013
kühlt	-13.2013
künste	-13.2013
leuchtungskörper	-13.2013
mehrfamilienhaus	-13.2013
milienmitglieder	-13.2013
nkränze	-13.2013
offizieller	-13.2013
olympioniken	-13.2013
pfiff	-13.2013
phan	-13.2013
plica	-13.2013
plüschtierpreise	-13.2013
relief	-13.2013
räumfahrzeug	-13.2013
röckchen	-13.2013
schbombe	-13.2013
sehenswürdigkeit	-13.2013
spiration	-13.2013
sprungschanze	-13.2013
thriller	-13.2013
trommlern	-13.2013
trümmer	-13.2013
unglaublich	-13.2013
ungsbetrieb	-13.2013
uperheldenkostüm	-13.2013
verletzung	-13.2013
wiki	-13.2013
wägen	-13.2013
wältig	-13.2013
zäunen	-13.2013
▁abdeckplane	-13.2013
▁abgeschirmte	-13.2013
▁abgestorbene	-13.2013
▁abhebt	-13.2013
▁abwehrspieler	-13.2013
▁abwischt	-13.2013
▁akrobaten	-13.2013
▁alligator	-13.2013
▁alltägliche	-13.2013
▁altertümliche	-13.2013
▁amplifier	-13.2013
▁amputee	-13.2013
▁amputierte	-13.2013
▁anaheim	-13.2013
▁angeseilt	-13.2013
▁anspruchsvolle	-13.2013
▁anticipati	-13.2013
▁antiquitäten	-13.2013
▁aquamarin	-13.2013
▁arbeitnehmer	-13.2013
▁argentin	-13.2013
▁armbanduhr	-13.2013
▁arrangiert	-13.2013
▁asphaltbelag	-13.2013
▁assignment	-13.2013
▁astroturf	-13.2013
▁atemberaubend	-13.2013
▁aufgespießte	-13.2013
▁aufreizende	-13.2013
▁aufzufallen	-13.2013
▁augenblick	-13.2013
▁aurora	-13.2013
▁ausdruckslos	-13.2013
▁ausgetrocknete	-13.2013
▁auswirkung	-13.2013
▁author	-13.2013
▁backgammon	-13.2013
▁barhocker	-13.2013
▁baumgrenze	-13.2013
▁bazaar	-13.2013
▁beinhaltet	-13.2013
▁beliebt	-13.2013
▁benatar	-13.2013
▁benötigt	-13.2013
▁bermuda	-13.2013
▁beruhigen	-13.2013
▁beseitigen	-13.2013
▁bestaunen	-13.2013
▁betonsperren	-13.2013
▁bezaubernde	-13.2013
▁birmingham	-13.2013
▁bohnen	-13.2013
▁bombard	-13.2013
▁bonfire	-13.2013
▁boulevard	-13.2013
▁brasilianische	-13.2013
▁brezeln	-13.2013
▁broccoli	-13.2013
▁brokkoli	-13.2013
▁brüsten	-13.2013
▁budget	-13.2013
▁bulb	-13.2013
▁burberry	-13.2013
▁böschung	-13.2013
▁calzone	-13.2013
▁cappuccino	-13.2013
▁carhartt	-13.2013
▁casterol	-13.2013
▁certificate	-13.2013
▁chemikalie	-13.2013
▁chicago	-13.2013
▁chinesiche	-13.2013
▁columbia	-13.2013
▁conceal	-13.2013
▁condiment	-13.2013
▁congregation	-13.2013
▁conveyor	-13.2013
▁copilot	-13.2013
▁correct	-13.2013
▁craftzine	-13.2013
▁cucumber	-13.2013
▁cyfd	-13.2013
▁dagger	-13.2013
▁daniels	-13.2013
▁davidstern	-13.2013
▁declare	-13.2013
▁dehnen	-13.2013
▁delphin	-13.2013
▁dhl	-13.2013
▁diabol	-13.2013
▁diagnos	-13.2013
▁diamond	-13.2013
▁discount	-13.2013
▁distracted	-13.2013
▁district	-13.2013
▁dominiert	-13.2013
▁dudelsäcke	-13.2013
▁duneklhaarige	-13.2013
▁düsenfl	-13.2013
▁düster	-13.2013
▁ebay	-13.2013
▁edelstahl	-13.2013
▁ehepaar	-13.2013
▁ehrfurcht	-13.2013
▁eiffelturm	-13.2013
▁eingeborene	-13.2013
▁eingebuddelt	-13.2013
▁eingefroren	-13.2013
▁einkaufsbummel	-13.2013
▁eiskunstläufer	-13.2013
▁entrepreneur	-13.2013
▁entscheidung	-13.2013
▁entsorgt	-13.2013
▁entsprechende	-13.2013
▁entwirren	-13.2013
▁erfolgreich	-13.2013
▁erhellt	-13.2013
▁erkennbar	-13.2013
▁erkennen	-13.2013
▁erklären	-13.2013
▁ermöglich	-13.2013
▁erzielt	-13.2013
▁eröffnung	-13.2013
▁exotisch	-13.2013
▁expectant	-13.2013
▁experienc	-13.2013
▁extinguish	-13.2013
▁exuma	-13.2013
▁exzentrisch	-13.2013
▁eyebrow	-13.2013
▁farbwalze	-13.2013
▁festzuhalten	-13.2013
▁feuchtgebiet	-13.2013
▁feuerhydranten	-13.2013
▁finley	-13.2013
▁fliegenfischen	-13.2013
▁florida	-13.2013
▁flussabwärts	-13.2013
▁folk	-13.2013
▁folkloristische	-13.2013
▁formalitäten	-13.2013
▁fotovorlage	-13.2013
▁frequentierten	-13.2013
▁friedensschild	-13.2013
▁fuchsia	-13.2013
▁function	-13.2013
▁fundraiser	-13.2013
▁fussel	-13.2013
▁fähigkeiten	-13.2013
▁gamecube	-13.2013
▁ganzkörper	-13.2013
▁gebetsteppich	-13.2013
▁gebüsch	-13.2013
▁gedämpfte	-13.2013
▁geerntete	-13.2013
▁gehäutete	-13.2013
▁geistliche	-13.2013
▁gekräuselte	-13.2013
▁gelangweilt	-13.2013
▁gelaunt	-13.2013
▁gelockte	-13.2013
▁gemächlich	-13.2013
▁gemüseauslage	-13.2013
▁genpac	-13.2013
▁geschlungen	-13.2013
▁geschwungene	-13.2013
▁gesponsert	-13.2013
▁gestylt	-13.2013
▁geworden	-13.2013
▁gleitschirm	-13.2013
▁glühbirne	-13.2013
▁gorilla	-13.2013
▁grafik	-13.2013
▁grafitti	-13.2013
▁grandfather	-13.2013
▁grandparents	-13.2013
▁greenpeace	-13.2013
▁grimace	-13.2013
▁grimmig	-13.2013
▁großeltern	-13.2013
▁großvater	-13.2013
▁gurke	-13.2013
▁gönn	-13.2013
▁güter	-13.2013
▁haiti	-13.2013
▁handmixer	-13.2013
▁hartholzboden	-13.2013
▁heckklappe	-13.2013
▁herbstlaub	-13.2013
▁hingefallen	-13.2013
[...]
