<pad>	0
<unk>	0
<s>	0
</s>	0
.	-2.67988
▁a	-2.76939
▁in	-3.3931
▁eine	-3.82727
m	-3.87179
▁Ein	-4.07222
,	-4.15674
▁the	-4.22296
s	-4.43124
▁und	-4.52388
▁mit	-4.53206
▁auf	-4.54251
▁on	-4.61117
▁man	-4.6526
▁Mann	-4.65769
▁is	-4.69423
▁and	-4.71641
▁of	-4.78657
▁einer	-4.8121
▁	-4.8548
▁with	-4.88631
ing	-4.90406
▁ein	-4.92238
▁Eine	-4.93428
n	-4.95236
▁an	-4.97553
▁der	-5.20748
▁Frau	-5.28013
▁woman	-5.33493
▁two	-5.35681
-	-5.36197
▁are	-5.40141
▁die	-5.42617
▁einen	-5.50613
▁to	-5.55695
▁Zwei	-5.55714
▁people	-5.57537
▁im	-5.58667
▁at	-5.65473
▁wearing	-5.75193
▁von	-5.85579
▁young	-5.8886
▁sich	-5.89036
▁white	-5.90942
▁shirt	-5.94724
▁Mädchen	-5.94862
▁dem	-5.95467
▁black	-6.00894
▁zu	-6.01986
r	-6.0293
▁vor	-6.0341
▁his	-6.03708
▁while	-6.0483
▁blue	-6.08226
en	-6.09766
▁steht	-6.13856
▁red	-6.14714
▁men	-6.1478
▁sitting	-6.15901
▁girl	-6.15964
▁boy	-6.179
▁dog	-6.18732
▁Männer	-6.19471
▁den	-6.19947
▁sitzt	-6.22974
▁Hund	-6.23249
▁standing	-6.23792
▁Junge	-6.24647
▁playing	-6.25641
▁group	-6.25975
▁street	-6.3321
▁Straße	-6.36068
▁down	-6.38261
▁während	-6.38754
e	-6.3888
▁walking	-6.39572
▁her	-6.41941
▁Gruppe	-6.42173
ed	-6.43592
▁hält	-6.44393
▁spielt	-6.44467
▁front	-6.47417
▁seine	-6.49378
▁bei	-6.50239
▁holding	-6.50343
▁Hemd	-6.52349
▁hat	-6.52755
▁über	-6.54081
▁look	-6.56458
▁Personen	-6.57127
em	-6.57273
▁das	-6.60054
▁water	-6.63426
▁one	-6.64336
▁three	-6.65842
▁by	-6.67091
er	-6.71162
▁Frauen	-6.72246
▁blauen	-6.72557
▁women	-6.72792
▁for	-6.73428
▁neben	-6.7567
▁Kind	-6.75775
▁ist	-6.7601
▁roten	-6.76775
▁weißen	-6.76915
▁up	-6.77179
▁Menschen	-6.77365
▁ihre	-6.77472
▁aus	-6.77787
▁stehen	-6.78106
▁durch	-6.79072
▁green	-6.79401
▁sitzen	-6.80196
▁little	-6.8026
▁spielen	-6.8233
▁child	-6.82582
▁Drei	-6.83138
t	-6.84104
▁outside	-6.85303
▁Wasser	-6.85323
to	-6.85487
▁geht	-6.8694
▁trägt	-6.87863
▁large	-6.88212
▁fährt	-6.89537
▁um	-6.90582
▁Kinder	-6.91896
▁through	-6.92186
ir	-6.93703
▁brown	-6.94062
▁yellow	-6.95832
d	-6.96762
▁children	-6.97764
▁person	-6.98308
▁Person	-6.98446
▁kleines	-7.00329
▁macht	-7.00535
▁ball	-7.01992
y	-7.02368
▁springt	-7.02843
▁from	-7.03254
▁entlang	-7.05606
▁zwei	-7.05626
▁schwarzen	-7.07504
▁kleiner	-7.07873
▁small	-7.09193
▁over	-7.09601
▁other	-7.11756
▁next	-7.12455
▁Leute	-7.1297
▁dressed	-7.16713
▁some	-7.17243
▁out	-7.17788
▁be	-7.17996
▁gehen	-7.20677
▁building	-7.21125
▁orange	-7.22926
▁riding	-7.25311
▁etwas	-7.25314
▁running	-7.2582
▁near	-7.26163
▁jacket	-7.27466
▁großen	-7.28911
▁another	-7.29325
▁around	-7.29394
▁Oberteil	-7.30008
▁Hand	-7.3265
▁field	-7.3315
▁sidewalk	-7.33888
▁crowd	-7.3448
▁beach	-7.36738
'	-7.36866
▁Fahrrad	-7.37738
▁pink	-7.38474
▁junge	-7.39157
▁Mehrer	-7.40248
▁grünen	-7.40362
ly	-7.40905
▁snow	-7.41345
▁läuft	-7.42274
▁stands	-7.42513
▁sind	-7.42869
▁jumping	-7.42907
▁Strand	-7.42997
▁behind	-7.43072
▁Der	-7.43085
▁sits	-7.43194
▁table	-7.43578
▁Jacke	-7.4446
▁Ball	-7.446
▁für	-7.44725
▁Hintergrund	-7.44727
▁grass	-7.46746
▁Luft	-7.4704
▁Freien	-7.479
▁Jungen	-7.48058
es	-7.48845
▁background	-7.49194
▁schaut	-7.4943
▁anderen	-7.49625
▁stand	-7.49793
▁bike	-7.50688
▁Kleidung	-7.50757
▁hinter	-7.52302
▁city	-7.52513
▁T	-7.52667
▁junger	-7.53227
▁se	-7.55016
▁nach	-7.55063
▁player	-7.55139
▁andere	-7.56703
▁asian	-7.56754
▁wall	-7.57637
▁blond	-7.57648
▁girls	-7.58285
▁top	-7.5888
▁four	-7.59984
▁Gebäude	-7.6083
looking	-7.61166
▁Tisch	-7.61216
▁gelben	-7.61242
▁off	-7.615
▁that	-7.61696
veral	-7.61977
▁older	-7.63038
▁park	-7.63445
▁air	-7.64076
▁camera	-7.64087
▁Hut	-7.64216
▁sie	-7.64485
▁dress	-7.64498
▁weiße	-7.64686
▁Schnee	-7.64906
▁sein	-7.65351
▁kleine	-7.66228
▁Nähe	-7.66494
▁wird	-7.66496
Shirt	-7.66606
▁dogs	-7.66852
▁play	-7.66931
▁hold	-7.6735
▁Hunde	-7.6774
▁talking	-7.67887
▁lady	-7.68323
▁something	-7.68323
▁Kamera	-7.6878
▁hand	-7.69097
▁soccer	-7.69648
▁as	-7.70061
▁kleinen	-7.70104
▁Menschenmenge	-7.70453
▁vorbei	-7.70771
▁guitar	-7.70937
▁along	-7.71091
▁hair	-7.71157
▁hoch	-7.71514
▁Gras	-7.71537
▁ihr	-7.71777
▁schwarzer	-7.71849
▁walks	-7.72279
▁food	-7.72361
▁together	-7.73458
▁Boden	-7.74015
▁working	-7.74123
▁gray	-7.74295
▁smiling	-7.75702
▁unter	-7.76554
▁Die	-7.77539
▁car	-7.77732
▁schwarz	-7.77823
▁boys	-7.7786
▁picture	-7.78191
▁game	-7.78622
▁rennt	-7.79755
▁has	-7.79814
▁Vier	-7.82752
▁plays	-7.83495
▁it	-7.84083
▁walk	-7.84582
▁Kleid	-7.87274
▁road	-7.87423
▁carry	-7.87568
▁him	-7.88122
▁sit	-7.88189
▁old	-7.88589
▁bench	-7.88645
▁zusammen	-7.88679
st	-7.88875
▁Gitarre	-7.89976
▁glasses	-7.90032
▁pants	-7.90037
▁dirt	-7.90351
▁stage	-7.91008
▁shorts	-7.91117
▁head	-7.91183
▁couple	-7.91185
▁Feld	-7.91284
▁baby	-7.91672
▁tree	-7.93897
▁Bühne	-7.94024
▁älterer	-7.94208
▁bicycle	-7.9425
▁face	-7.94597
▁herum	-7.95863
▁rock	-7.95899
▁side	-7.96028
▁fahren	-7.96131
▁male	-7.96955
▁Kopf	-7.97107
▁draußen	-7.97134
▁Foto	-7.97392
▁blaue	-7.97637
▁er	-7.97841
▁Brille	-7.98143
▁Stadt	-7.98549
▁Gehweg	-7.9855
▁race	-7.9896
▁rote	-7.99224
▁long	-7.99277
▁gekleidete	-7.99447
▁tak	-7.99914
▁pool	-7.99997
each	-8.01044
▁Jeans	-8.01074
▁Park	-8.01089
▁t	-8.0111
▁sehen	-8.01758
▁back	-8.01798
▁middle	-8.01811
▁des	-8.02032
▁dabei	-8.03298
▁dark	-8.03599
cross	-8.03611
▁doing	-8.0384
▁blickt	-8.04055
▁hinunter	-8.04803
▁guy	-8.05174
▁area	-8.05831
▁als	-8.06059
▁watching	-8.06565
▁jeans	-8.06842
▁there	-8.06919
▁boat	-8.07514
▁braunen	-8.0794
▁weißer	-8.0829
▁liegt	-8.08676
▁who	-8.08749
▁versucht	-8.09066
▁sand	-8.09189
▁Baby	-8.0991
▁arbeitet	-8.10263
▁wie	-8.10851
▁jumps	-8.11035
▁female	-8.11126
▁Bank	-8.11473
▁day	-8.11923
▁ground	-8.12295
▁hands	-8.12381
▁room	-8.13112
▁laufen	-8.13524
▁tragen	-8.14255
▁performing	-8.14347
▁große	-8.14375
▁Dame	-8.14489
▁Paar	-8.14597
▁Essen	-8.14883
▁ältere	-8.15115
▁baseball	-8.15191
▁eating	-8.16143
▁Skateboard	-8.16317
▁ge	-8.16379
▁machen	-8.1647
▁schauen	-8.16474
▁lächelt	-8.16889
▁suit	-8.17027
▁coat	-8.17483
▁blau	-8.17539
▁football	-8.1775
▁he	-8.17806
▁sign	-8.18883
▁brauner	-8.18885
▁band	-8.19131
▁horse	-8.19666
▁using	-8.19987
▁watch	-8.2033
▁mouth	-8.20549
▁kids	-8.21426
▁striped	-8.21754
▁orangefarbenen	-8.22067
▁ihm	-8.22165
▁rot	-8.2221
▁purple	-8.22618
▁Bürgersteig	-8.22618
▁store	-8.2283
al	-8.23555
▁thi	-8.23721
▁go	-8.24139
▁Hose	-8.24681
▁many	-8.25339
haired	-8.25568
▁under	-8.2573
▁toward	-8.25767
▁zeigt	-8.25853
▁uniform	-8.26114
▁enjoy	-8.26313
▁arbeiten	-8.26605
▁tennis	-8.26785
▁sieht	-8.26792
▁Wand	-8.26849
▁junges	-8.27181
▁unterhalten	-8.2726
▁spricht	-8.27269
▁runs	-8.27477
▁mountain	-8.27525
▁liest	-8.27749
▁line	-8.2831
▁sunglasses	-8.28694
▁construction	-8.28694
▁Fußball	-8.29092
▁halten	-8.29602
▁drei	-8.29637
▁reading	-8.29728
▁microphone	-8.30461
▁players	-8.30646
shirt	-8.30967
▁Haaren	-8.31002
▁clothing	-8.3125
in	-8.31428
▁basketball	-8.31635
▁toy	-8.32274
▁Boot	-8.33489
▁ocean	-8.3363
▁elder	-8.33634
▁dur	-8.34146
▁Pferd	-8.34183
▁Sonnenbrille	-8.34452
▁work	-8.34715
▁workers	-8.34884
▁helmet	-8.35557
▁past	-8.35629
▁watches	-8.35756
▁rosa	-8.36522
▁its	-8.36614
▁restaurant	-8.36729
▁again	-8.37316
▁Auto	-8.37338
▁climbing	-8.37396
▁schwarze	-8.37462
▁Tag	-8.3775
▁train	-8.37871
▁Hosen	-8.38572
▁team	-8.39484
▁window	-8.3982
▁Helm	-8.40034
▁sun	-8.40559
▁try	-8.40571
▁Bild	-8.40774
▁S	-8.41386
▁dancing	-8.41532
▁Gesicht	-8.41866
▁grauen	-8.41951
▁singt	-8.42095
▁show	-8.4229
▁weiß	-8.42512
▁chair	-8.42595
▁throw	-8.43041
▁ihnen	-8.43316
▁rides	-8.43583
▁Felsen	-8.43703
▁all	-8.4443
▁Mantel	-8.44878
▁about	-8.44882
▁outdoor	-8.46008
▁wooden	-8.46129
▁get	-8.46421
▁posiert	-8.4659
▁posing	-8.46593
▁ab	-8.46606
▁Sand	-8.46927
▁darauf	-8.47168
▁Baum	-8.47288
▁hav	-8.47614
▁five	-8.47778
▁klettert	-8.48347
▁covered	-8.48485
▁trees	-8.4856
▁waiting	-8.48592
▁floor	-8.48916
▁führt	-8.48922
▁Shorts	-8.48956
▁or	-8.49033
▁swimming	-8.49517
▁befindet	-8.49521
▁jump	-8.50523
▁ice	-8.50734
▁skateboard	-8.51105
▁blonde	-8.51632
▁bag	-8.52014
▁Mikrofon	-8.52092
▁Wald	-8.52446
▁Band	-8.52565
▁very	-8.52577
▁Restaurant	-8.52603
"	-8.5294
▁colorful	-8.53076
▁fence	-8.53656
▁"	-8.53958
▁grüne	-8.54044
▁wirft	-8.54416
▁Arbeiter	-8.54432
▁Fenster	-8.54893
▁Meer	-8.54935
▁blauer	-8.54961
▁high	-8.55029
▁busy	-8.55086
▁Weg	-8.55635
▁singing	-8.55729
▁Das	-8.55799
▁gekleideter	-8.56116
▁sehr	-8.56267
▁lean	-8.5629
▁zum	-8.56581
▁pull	-8.56897
▁rennen	-8.56983
▁hill	-8.57023
▁schwarzem	-8.57338
▁Pullover	-8.57551
▁catch	-8.57683
▁Raum	-8.58206
▁beard	-8.5821
oder	-8.58583
▁tan	-8.59463
▁cap	-8.59477
▁cart	-8.60567
ischen	-8.60957
▁bus	-8.61448
▁book	-8.61681
▁laying	-8.61728
▁Haar	-8.61749
▁Wiese	-8.62149
▁kitchen	-8.62149
▁market	-8.62149
▁truck	-8.62349
▁Motorrad	-8.62471
▁bright	-8.62765
▁isst	-8.62773
▁open	-8.62782
▁Anzug	-8.62798
▁ride	-8.62804
▁anderer	-8.62819
▁mehrere	-8.62825
▁Spielzeug	-8.62841
▁wartet	-8.63505
▁someone	-8.63513
▁einige	-8.63685
▁langen	-8.63796
▁essen	-8.63959
▁roter	-8.64154
▁cellphone	-8.6438
▁Berg	-8.64402
▁inside	-8.64666
▁path	-8.64877
▁Bluse	-8.64879
▁light	-8.64964
▁viele	-8.64972
▁brick	-8.65796
▁Trikot	-8.65852
▁big	-8.65884
▁Kindern	-8.66056
▁Spieler	-8.66244
▁posieren	-8.66273
▁making	-8.66276
▁springen	-8.66377
▁grassy	-8.66569
▁bar	-8.66927
▁werden	-8.67022
▁motorcycle	-8.67231
▁track	-8.67233
▁gestreiften	-8.67419
▁stick	-8.67651
▁clothes	-8.67699
▁umbrella	-8.67955
▁outfit	-8.67977
▁she	-8.68333
▁Oberkörper	-8.68401
▁takes	-8.68656
▁perform	-8.68989
▁body	-8.69176
▁Männern	-8.69604
▁full	-8.69668
▁metal	-8.69815
▁belebte	-8.69845
▁bunte	-8.69996
▁zw	-8.70025
▁asiatische	-8.70121
▁swing	-8.70203
▁others	-8.70323
▁night	-8.70575
▁Hügel	-8.70575
▁Stuhl	-8.70577
▁voller	-8.70671
ch	-8.71038
▁Fünf	-8.7131
▁Viele	-8.71321
▁ready	-8.71327
bereitet	-8.71544
▁paper	-8.7162
▁Schild	-8.72026
▁river	-8.7205
ung	-8.72356
kleidung	-8.72416
tting	-8.72638
▁tank	-8.72835
▁shirts	-8.7307
▁Spiel	-8.73983
▁hats	-8.74086
▁betrachtet	-8.74307
colored	-8.74676
a	-8.74829
▁hard	-8.75076
▁sweater	-8.7508
▁Handy	-8.75781
▁U	-8.76429
▁shop	-8.77012
▁warten	-8.7708
▁Buch	-8.77275
▁tanzen	-8.77377
▁Blumen	-8.77543
▁piece	-8.77834
▁schläft	-8.78183
▁run	-8.78426
▁trick	-8.78705
▁Stock	-8.78977
▁lake	-8.78985
▁zieht	-8.79039
▁painting	-8.79339
▁worker	-8.79645
▁african	-8.79797
▁oben	-8.79846
▁surround	-8.7985
▁Mütze	-8.79863
▁vo	-8.79904
▁Bauarbeiter	-8.80541
▁above	-8.80583
▁Arm	-8.81045
▁stone	-8.81178
▁lehnt	-8.814
▁reitet	-8.81417
▁Holz	-8.81645
▁arm	-8.81699
▁Leuten	-8.8188
▁alter	-8.82279
▁dance	-8.82471
▁Händen	-8.82728
▁Rennen	-8.82734
▁Kleinkind	-8.8288
▁braun	-8.82903
▁board	-8.82933
▁music	-8.82971
▁Fluss	-8.82972
▁beobachtet	-8.83042
▁adults	-8.83177
▁vest	-8.83554
▁wave	-8.83554
▁Maul	-8.8385
▁miteinander	-8.84033
▁snowy	-8.84244
▁photo	-8.84367
▁backpack	-8.84391
▁Rucksack	-8.84716
▁toddler	-8.84716
▁shopping	-8.8472
▁beside	-8.84733
▁Bäumen	-8.84926
▁tanzt	-8.85563
▁paar	-8.85602
▁Radfahrer	-8.85702
▁kid	-8.86267
▁push	-8.8629
▁them	-8.87427
▁uniforms	-8.87675
▁outdoors	-8.88161
▁american	-8.88284
▁house	-8.888
▁smiles	-8.88821
▁crowded	-8.88893
▁See	-8.88919
▁Küche	-8.88976
▁event	-8.89036
▁es	-8.89646
▁pole	-8.89659
▁schneebedeckte	-8.89912
▁befinden	-8.89916
▁gear	-8.89917
▁schiebt	-8.89924
▁männliche	-8.90325
weißer	-8.90751
▁subway	-8.90805
▁haben	-8.90832
▁phone	-8.90837
▁drinking	-8.91376
▁Football	-8.91432
▁braune	-8.91585
▁family	-8.91706
▁hockey	-8.91717
▁Schwimmbecken	-8.91724
▁b	-8.91809
▁kick	-8.92006
▁gegen	-8.9262
▁short	-8.93299
den	-8.93486
▁Seite	-8.93754
▁Zaun	-8.94193
▁gathered	-8.94548
▁fire	-8.94561
▁Welle	-8.94692
▁costume	-8.95172
▁police	-8.95386
▁bridge	-8.95393
▁umgeben	-8.954
▁wo	-8.95497
▁Treppe	-8.95621
▁set	-8.95643
▁hanging	-8.9568
▁kurzen	-8.95792
▁Rücken	-8.9636
▁s	-8.96386
▁lot	-8.9669
▁orangefarbene	-8.96773
▁lächeln	-8.97035
der	-8.97145
▁beautiful	-8.97217
▁flowers	-8.97299
▁guys	-8.97311
▁preparing	-8.97315
hair	-8.97641
▁arms	-8.97712
▁object	-8.98038
▁Fuß	-8.98423
▁rope	-8.99104
▁Zug	-8.99147
▁verkauft	-8.99221
▁versammelt	-8.99223
▁sleeping	-8.99281
▁after	-8.99318
▁away	-8.99508
▁take	-8.99783
▁bereit	-8.99812
▁machine	-9.00003
▁attempt	-9.00201
▁graffiti	-9.00202
▁forest	-9.0021
▁karierte	-9.00245
▁Familie	-9.00307
▁like	-9.00399
▁steps	-9.00475
▁Geschäft	-9.00859
▁fountain	-9.0098
▁adult	-9.0103
▁Diese	-9.01108
▁trinkt	-9.01191
▁does	-9.01233
w	-9.01344
▁plai	-9.01552
▁gelbe	-9.01716
▁pass	-9.01728
▁fishing	-9.01798
▁clean	-9.02024
▁Markt	-9.02183
▁Bus	-9.02887
▁mitten	-9.03085
▁prepare	-9.0324
▁shirtless	-9.03283
ny	-9.03434
o	-9.03513
▁rosafarbenen	-9.03549
▁zur	-9.03786
▁ihn	-9.03989
▁pose	-9.04117
▁hängt	-9.04237
▁schneidet	-9.04268
▁gerade	-9.05253
Bahn	-9.05463
▁appear	-9.05487
▁Reihe	-9.05554
▁gekleidet	-9.06026
▁telefoniert	-9.06294
▁stairs	-9.06367
▁ver	-9.06815
▁Seil	-9.06914
▁Haus	-9.07139
▁bet	-9.07155
▁Musik	-9.07211
l	-9.07307
▁spazieren	-9.07396
▁Wagen	-9.07404
▁shoes	-9.07788
▁Zeitung	-9.07874
▁Gewässer	-9.08306
▁fangen	-9.08425
▁malt	-9.08435
weißen	-9.08547
▁f	-9.08569
▁selling	-9.08754
▁putt	-9.09294
▁glass	-9.09422
▁racing	-9.09486
▁parade	-9.09518
▁nimmt	-9.09536
▁setting	-9.09579
▁rocks	-9.09827
ige	-9.1004
▁Schwarz	-9.10061
▁Sprung	-9.10575
▁sonnige	-9.10577
▁schwimmt	-9.10581
▁freie	-9.10774
▁view	-9.10812
▁grün	-9.10981
▁großer	-9.11184
▁gelb	-9.11193
▁herunter	-9.11256
▁tall	-9.11527
▁frisbee	-9.11672
▁Autos	-9.11887
▁Basketball	-9.11899
▁Fußballspieler	-9.12071
▁Brücke	-9.12783
▁Kopfbedeckung	-9.12788
▁volleyball	-9.12789
▁blicken	-9.12799
▁corner	-9.12806
▁schlägt	-9.12815
▁slide	-9.1283
▁drink	-9.13156
▁Hände	-9.13208
▁B	-9.13281
▁whi	-9.1356
▁flag	-9.13884
▁ramp	-9.13909
▁Mutter	-9.13912
▁both	-9.13912
▁chairs	-9.14001
▁party	-9.14018
▁Bart	-9.14036
▁Zuschauer	-9.1434
▁v	-9.14651
▁computer	-9.15008
▁Himmel	-9.15043
▁public	-9.15043
▁Publikum	-9.15043
▁ladies	-9.15043
▁flower	-9.15046
▁fliegt	-9.15062
ween	-9.15081
▁have	-9.15371
▁Geländer	-9.15429
▁da	-9.15452
▁Weste	-9.15492
▁Tasche	-9.15512
▁teil	-9.15783
▁Richtung	-9.15948
▁hinauf	-9.15976
▁match	-9.16117
▁kämpfen	-9.16193
▁Platz	-9.16193
▁equipment	-9.16193
▁couch	-9.16194
▁hebt	-9.16208
▁bath	-9.16215
▁Papier	-9.16379
▁laughing	-9.16415
aged	-9.16464
▁aussehende	-9.1657
▁wood	-9.17065
▁trail	-9.17183
▁statue	-9.1749
▁fish	-9.17748
▁graue	-9.1809
▁instruments	-9.18325
▁cowboy	-9.18527
▁Graffiti	-9.18543
▁dunklen	-9.18678
▁Gebäudes	-9.19359
▁sweatshirt	-9.19671
▁plastic	-9.19722
▁winter	-9.19723
▁school	-9.19737
▁hohen	-9.20071
▁c	-9.2028
▁Hemden	-9.20709
▁woods	-9.20918
▁concrete	-9.20927
▁playground	-9.20929
▁reach	-9.2095
▁Hof	-9.20973
▁Erwachsene	-9.21209
▁un	-9.21373
▁rain	-9.21386
▁gestreifte	-9.21495
▁K	-9.2161
▁pictures	-9.22091
▁dock	-9.22162
▁poses	-9.22304
▁verschiedene	-9.22366
▁number	-9.23239
▁midair	-9.23381
▁mittlere	-9.23397
▁yard	-9.23408
▁zuschauen	-9.23408
▁hit	-9.23514
▁Auf	-9.23618
▁asiatischer	-9.23835
▁vier	-9.2395
▁Schirm	-9.24392
▁attire	-9.24632
▁new	-9.24637
▁skirt	-9.24722
▁alte	-9.25042
▁Teenager	-9.25121
▁davon	-9.25897
▁seated	-9.25953
te	-9.27076
▁dunkelhäutige	-9.27179
▁genießt	-9.27179
▁überqueren	-9.27179
▁Mauer	-9.27185
▁just	-9.27188
▁what	-9.27196
▁blondes	-9.27333
▁Mitte	-9.27572
k	-9.27593
▁Decke	-9.27773
▁Stück	-9.28297
▁Spielplatz	-9.28463
▁sky	-9.28477
▁Jemand	-9.28478
▁cream	-9.28478
▁Frisbee	-9.28483
▁reads	-9.28764
▁grill	-9.28773
▁cutt	-9.29412
▁bed	-9.29434
▁home	-9.29791
▁benutzt	-9.29794
▁left	-9.29794
▁six	-9.29796
▁lacht	-9.29797
▁distance	-9.2981
▁tritt	-9.29904
▁cooking	-9.30057
▁Mannes	-9.30071
▁star	-9.30165
▁Metall	-9.30257
▁rider	-9.30415
▁Zuschauern	-9.30612
▁Kunststück	-9.30986
▁beer	-9.31012
▁kurz	-9.31128
▁mother	-9.31128
▁Dach	-9.31133
▁Rock	-9.31142
▁Pool	-9.31144
▁kneel	-9.3121
▁In	-9.31281
▁Alters	-9.31293
▁tent	-9.31295
▁A	-9.31438
halb	-9.31627
▁Schaukel	-9.31699
▁wear	-9.31793
▁Schal	-9.3205
▁Baseball	-9.32289
▁Blick	-9.32475
▁Menge	-9.32478
▁Sofa	-9.32478
▁cliff	-9.32478
▁where	-9.32517
▁Augen	-9.32578
▁nahe	-9.32603
▁bikes	-9.32749
▁works	-9.32823
▁Shirt	-9.32859
▁Computer	-9.33165
▁Straßen	-9.33481
▁M	-9.33673
▁Rasen	-9.33846
▁Zigarette	-9.33848
▁unterhält	-9.3385
▁städtische	-9.33877
▁fest	-9.33897
▁station	-9.33931
▁nackte	-9.33998
▁öffentliche	-9.34186
▁skateboarder	-9.34296
▁vests	-9.34388
▁Sport	-9.3482
▁so	-9.34867
▁Mensch	-9.3501
▁E	-9.35034
▁bags	-9.35094
▁Bier	-9.35225
▁edge	-9.3524
▁zusieht	-9.35242
▁court	-9.35254
▁Baseballspieler	-9.35328
▁alten	-9.35488
▁instrument	-9.35541
on	-9.35745
▁cross	-9.35871
▁lila	-9.36536
▁Regen	-9.3663
▁spectators	-9.36655
▁nebeneinander	-9.36674
▁zuschaut	-9.36682
▁right	-9.36721
▁Mannschaft	-9.36788
▁jersey	-9.36897
▁cup	-9.36998
▁friends	-9.37271
▁crossing	-9.37398
▁Stein	-9.37733
▁scarf	-9.38074
▁lässt	-9.38116
▁Tor	-9.38138
▁zusehen	-9.38182
le	-9.38342
▁make	-9.38356
▁no	-9.38536
ve	-9.38614
▁Eis	-9.38752
▁pick	-9.39225
▁Basketballspiel	-9.39284
▁Typ	-9.39287
▁offene	-9.39352
▁concert	-9.39523
▁Gegenstand	-9.39523
▁fix	-9.39524
▁Surfer	-9.39525
▁nearby	-9.39527
▁nachts	-9.39531
▁filled	-9.39646
▁art	-9.39763
▁apron	-9.39782
▁snowboarder	-9.39785
▁mountains	-9.40141
▁horses	-9.40435
▁großes	-9.40641
▁carrie	-9.4092
▁driving	-9.40994
▁versuchen	-9.40995
▁Mund	-9.40995
▁pile	-9.40998
▁hinten	-9.41
▁Bett	-9.41026
▁fruit	-9.41305
▁place	-9.41445
▁bowling	-9.4167
▁Sonne	-9.41727
▁Ski	-9.41981
▁P	-9.421
▁stop	-9.42264
anzug	-9.42364
▁buildings	-9.42404
▁shore	-9.42483
▁beobachten	-9.42486
▁scheint	-9.42493
▁bull	-9.42524
▁leaves	-9.42531
▁gibt	-9.42555
▁display	-9.42628
▁structure	-9.42702
▁treten	-9.42702
f	-9.42746
▁cigarette	-9.42771
arious	-9.42808
▁bottle	-9.42817
▁vendor	-9.42819
▁door	-9.42822
▁smile	-9.42839
▁weg	-9.43005
ng	-9.43107
de	-9.43246
an	-9.43446
▁Gemüse	-9.43995
▁coffee	-9.44001
▁boots	-9.44003
▁Wanderer	-9.44016
▁cars	-9.44026
▁trinken	-9.44033
▁Ufer	-9.4434
▁shovel	-9.4435
▁vehicle	-9.44361
▁Fotos	-9.4441
▁students	-9.44441
▁Outfit	-9.44489
▁net	-9.44517
h	-9.44765
▁Nummer	-9.44809
▁Flagge	-9.44833
▁indian	-9.44844
▁parked	-9.44963
▁Uniform	-9.45336
▁raucht	-9.4554
▁gentleman	-9.4554
▁kniet	-9.45544
▁fängt	-9.45547
▁goggles	-9.45551
▁nicht	-9.45836
▁orangen	-9.45927
▁time	-9.45947
▁do	-9.46018
igen	-9.46249
▁Schürze	-9.46366
▁Stange	-9.46383
▁talks	-9.46413
▁Armen	-9.46485
▁bowl	-9.46848
▁liegen	-9.46978
▁betrachten	-9.47103
▁Ferne	-9.47103
▁Läufer	-9.4711
▁shot	-9.47122
▁verschneiten	-9.47252
▁Stufen	-9.47264
▁painted	-9.47275
▁can	-9.47342
▁Nacht	-9.47362
▁führen	-9.47384
weiße	-9.47421
▁beide	-9.47429
▁surfer	-9.47511
▁box	-9.47553
▁drums	-9.47834
▁gold	-9.48229
▁Kleine	-9.48505
▁Feuer	-9.48684
▁Gehsteig	-9.4869
▁bunch	-9.4869
▁Glas	-9.48695
▁smoking	-9.48704
▁Rampe	-9.4871
▁break	-9.48776
▁use	-9.48835
ten	-9.48914
▁flying	-9.4896
▁rocky	-9.49099
▁newspaper	-9.49104
▁dresses	-9.49107
▁eyes	-9.49245
▁paint	-9.49594
▁Trikots	-9.49743
▁gather	-9.49855
lying	-9.50271
▁roof	-9.50297
▁conversation	-9.50303
▁safety	-9.50303
▁rodeo	-9.50303
▁außer	-9.50308
▁younger	-9.50335
▁flags	-9.50344
▁Veranstaltung	-9.5035
▁com	-9.50679
▁bucket	-9.50758
se	-9.50772
▁An	-9.51063
▁wait	-9.51511
▁arts	-9.51609
▁check	-9.51794
▁swinging	-9.51906
▁practicing	-9.51942
▁opposi	-9.51943
▁different	-9.51943
▁Tennisball	-9.51944
▁meal	-9.5195
▁unten	-9.51953
▁Art	-9.51975
▁Snowboarder	-9.52042
▁gleich	-9.52088
▁einander	-9.52178
▁giv	-9.52236
▁ladder	-9.52307
▁gloves	-9.52321
▁waves	-9.52586
▁Zelt	-9.52588
▁Bar	-9.52596
▁ski	-9.52597
▁turn	-9.52687
▁jungen	-9.52859
▁Lebensmittel	-9.53167
▁Sonnenuntergang	-9.53609
▁competition	-9.53609
▁empty	-9.53609
▁Leiter	-9.5361
▁wet	-9.53678
▁listening	-9.5375
▁st	-9.53839
▁costumes	-9.54005
▁sitzende	-9.54028
▁blanket	-9.54104
out	-9.54285
▁diese	-9.54593
▁Musiker	-9.54791
▁parking	-9.55029
▁Obst	-9.55299
▁greift	-9.55304
▁Aufschrift	-9.55304
▁Skifahrer	-9.55321
▁cake	-9.55328
▁scene	-9.55335
▁rutscht	-9.55345
▁onlookers	-9.55354
▁blonden	-9.55491
▁items	-9.55626
▁sort	-9.55683
▁mask	-9.55755
▁bikini	-9.55789
▁desk	-9.55837
▁balloon	-9.55859
▁chas	-9.55867
▁bedeckt	-9.55911
▁sports	-9.5618
Spieler	-9.56299
▁lachen	-9.56415
▁Herr	-9.56556
▁lächelnde	-9.56839
▁Braut	-9.57026
▁Brunnen	-9.57028
▁audience	-9.57028
▁fotografiert	-9.57028
▁hilft	-9.57028
▁Bikini	-9.57034
▁Rodeo	-9.57036
▁surfboard	-9.5704
▁lawn	-9.57071
▁Kleidern	-9.57216
▁Grill	-9.57246
▁skateboarding	-9.57347
fahrer	-9.57435
▁Weiß	-9.57507
▁put	-9.57666
▁Fisch	-9.58241
▁railing	-9.58247
▁Polizist	-9.58548
▁Tür	-9.58548
▁H	-9.58722
▁military	-9.58782
▁among	-9.58791
▁hot	-9.58809
echs	-9.58831
▁bärtiger	-9.58832
▁surft	-9.58843
▁Hüten	-9.58939
bei	-9.58949
▁lächelnd	-9.59009
▁bird	-9.59393
▁tattoo	-9.59403
▁lange	-9.598
▁leaps	-9.59815
▁beiden	-9.59882
▁Haare	-9.60316
▁slid	-9.60337
▁rail	-9.60411
▁Beton	-9.60542
▁platform	-9.60568
▁unbefestigte	-9.60568
▁überquert	-9.60572
▁Motorradfahrer	-9.60591
▁drinks	-9.60626
▁werfen	-9.60694
▁Polizisten	-9.60807
▁pointing	-9.60824
weiß	-9.60873
▁vegetables	-9.60918
▁Kostümen	-9.60949
i	-9.60987
▁Volleyball	-9.61
fore	-9.61077
▁basket	-9.612
▁class	-9.61318
▁gathering	-9.61367
▁grüner	-9.61466
▁jackets	-9.61498
▁Statue	-9.61637
▁row	-9.61663
bereiten	-9.6168
ie	-9.61966
▁business	-9.62386
▁competing	-9.62386
▁versammeln	-9.62386
▁collar	-9.6239
▁feet	-9.62391
▁zurück	-9.62392
▁wedding	-9.62394
▁Sweatshirt	-9.6241
▁facing	-9.62422
▁cement	-9.62469
▁legt	-9.62474
▁flip	-9.62526
▁bicycles	-9.63078
▁help	-9.63135
▁biker	-9.63155
▁Maschine	-9.63507
ment	-9.63568
▁Damen	-9.63674
▁silver	-9.64238
▁Korb	-9.64238
▁Leine	-9.6424
▁Rutsche	-9.64246
▁lap	-9.64253
▁huge	-9.64281
▁nehmen	-9.64326
▁F	-9.64384
▁gelbem	-9.64505
▁base	-9.64547
ting	-9.64647
▁speaking	-9.64787
▁tie	-9.64802
▁cut	-9.64817
▁Vater	-9.64855
▁purse	-9.64936
▁R	-9.6537
ers	-9.65886
▁reden	-9.65949
▁tradition	-9.66088
▁classroom	-9.66125
▁rothaarige	-9.66127
▁counter	-9.66132
▁kommt	-9.6618
▁amerikanische	-9.66228
▁skier	-9.67009
▁Eimer	-9.6734
▁suits	-9.67444
tries	-9.67825
▁lift	-9.67941
▁lay	-9.68005
▁Pfad	-9.68048
▁genießen	-9.68048
▁father	-9.68049
▁bride	-9.68062
▁schreibt	-9.68088
▁marathon	-9.68088
▁Ende	-9.68097
▁screen	-9.68112
▁alley	-9.68124
▁guckt	-9.68138
▁stellt	-9.68286
▁fe	-9.68446
▁surfing	-9.68493
▁helmets	-9.6851
▁Bei	-9.68515
▁sings	-9.68534
▁artist	-9.68793
▁animal	-9.68829
▁jüngere	-9.68878
▁climbs	-9.68938
▁Westen	-9.6924
▁was	-9.69463
▁Getränk	-9.69559
▁Schutzhelm	-9.69774
▁Schlagzeug	-9.69846
▁Garten	-9.69911
▁G	-9.69912
▁son	-9.69964
▁mirror	-9.70009
▁violin	-9.70013
▁Soldaten	-9.70118
▁leeren	-9.7015
▁Stühlen	-9.70183
▁teams	-9.70364
▁Fahrzeug	-9.70372
▁kissing	-9.70466
▁musicians	-9.70581
▁gemeinsam	-9.70708
▁stroller	-9.70847
c	-9.70873
▁leap	-9.70887
mitten	-9.71225
▁Wellen	-9.71515
▁viel	-9.71748
▁Kostüm	-9.71793
▁end	-9.71946
▁Vogel	-9.71999
▁country	-9.72006
▁electric	-9.72009
▁ohne	-9.72009
▁streckt	-9.72009
▁Baustelle	-9.72018
▁Umgebung	-9.72018
▁walkway	-9.72025
▁writing	-9.72047
▁asiatischen	-9.72082
▁same	-9.72094
▁lilafarbene	-9.72229
▁rosafarbene	-9.72425
▁fighting	-9.72482
up	-9.72511
▁shoulder	-9.72881
▁Trick	-9.72885
▁runner	-9.72941
▁voll	-9.72959
top	-9.73204
ion	-9.7336
▁grau	-9.73582
▁Rad	-9.73674
▁Arbeit	-9.73789
▁Krawatte	-9.74049
▁barefoot	-9.74049
▁urban	-9.74049
▁schwingt	-9.74049
▁sprechen	-9.7405
▁kaufen	-9.7405
▁gegenüber	-9.74053
▁sunset	-9.74054
▁happy	-9.7406
▁Badeanzug	-9.74077
▁Kampfsport	-9.74131
▁Konzert	-9.74143
▁talk	-9.74249
▁weibliche	-9.74351
▁riesigen	-9.74392
▁Erwachsener	-9.74443
▁ganz	-9.74578
et	-9.74603
▁afrikanische	-9.74675
▁beige	-9.74699
▁wheel	-9.74706
▁Schuhen	-9.74781
▁Kajak	-9.74897
▁gut	-9.74914
▁Rot	-9.75107
▁Erwachsenen	-9.75247
▁leuchtend	-9.75275
▁bald	-9.75404
▁waits	-9.75538
▁chase	-9.7554
man	-9.75608
▁Regenschirm	-9.75716
▁Instrument	-9.75729
▁Mikrophon	-9.75854
▁allein	-9.75926
▁spray	-9.7597
▁Sohn	-9.76133
▁christmas	-9.76133
▁Parade	-9.76133
▁p	-9.76137
▁Gegend	-9.76142
▁Parkplatz	-9.76147
▁waving	-9.76157
▁Handschuhen	-9.76344
hört	-9.7635
▁Geschäfts	-9.76376
▁Uniformen	-9.76452
▁give	-9.76804
▁lesen	-9.76936
▁skate	-9.77207
▁Laden	-9.77229
▁lit	-9.7775
▁close	-9.77839
▁females	-9.77942
▁Tennis	-9.77996
▁life	-9.78246
▁Straßenecke	-9.78261
▁Straßenrand	-9.78263
▁Bereich	-9.78277
▁starrt	-9.7829
▁Waren	-9.78297
▁Kinderwagen	-9.78339
▁w	-9.785
▁Land	-9.78731
▁seen	-9.78734
▁blowing	-9.78829
▁scooter	-9.7926
▁officer	-9.79474
▁Bergen	-9.79478
▁Snowboard	-9.79709
▁älteren	-9.79722
▁pinkfarbene	-9.79771
▁Arme	-9.80004
▁makes	-9.80008
▁alle	-9.80413
▁foot	-9.80432
▁Schoß	-9.80434
▁umarmt	-9.80434
▁Pause	-9.80434
▁giant	-9.80434
▁chinese	-9.80435
▁Kanu	-9.80438
▁Geländemotorrad	-9.80439
▁course	-9.80444
▁Rand	-9.80449
▁Party	-9.80457
x	-9.80479
▁schlagen	-9.80481
▁jagt	-9.80517
▁well	-9.80537
▁says	-9.80656
▁hole	-9.80757
▁gelbes	-9.80876
▁bubbles	-9.81045
▁pinkfarbenen	-9.81154
▁outfits	-9.81839
▁hin	-9.82195
▁sell	-9.8225
▁fast	-9.8244
▁fun	-9.82487
▁Kuchen	-9.82656
▁repariert	-9.82656
▁dunkelhaarige	-9.82657
▁leather	-9.82657
▁meat	-9.8266
▁klettern	-9.82713
▁skating	-9.82741
▁brightly	-9.82857
▁C	-9.82867
▁Sie	-9.82932
▁Netz	-9.82982
▁leg	-9.83251
ic	-9.83408
▁washing	-9.83522
▁singen	-9.83648
▁swim	-9.8373
▁sport	-9.83734
▁Team	-9.83844
▁tire	-9.83955
▁signs	-9.84097
artial	-9.84142
▁golden	-9.84173
▁balloons	-9.84187
▁Gebäuden	-9.84602
▁Schreibtisch	-9.84651
▁teenage	-9.84696
▁drive	-9.84707
▁Schatten	-9.84929
▁Vordergrund	-9.84929
▁foreground	-9.84929
▁brunette	-9.84929
▁gegnerische	-9.84929
▁alone	-9.8493
▁Base	-9.8494
▁Fahrradfahrer	-9.85022
laden	-9.85079
▁Jugendlicher	-9.85093
▁site	-9.8517
▁warm	-9.85526
▁weitere	-9.85614
▁helping	-9.85827
▁Tanz	-9.85937
▁mud	-9.85957
▁dass	-9.86015
▁canoe	-9.86029
▁clown	-9.86066
▁float	-9.86069
▁plate	-9.86073
▁D	-9.86371
▁Schüler	-9.86462
▁lights	-9.86483
▁Schulter	-9.8655
▁hang	-9.8665
▁anderes	-9.86974
ous	-9.8706
▁roller	-9.87242
▁asleep	-9.87255
▁headphones	-9.87255
▁putzt	-9.87255
▁Fell	-9.87256
▁braunhaarige	-9.87256
▁gegeneinander	-9.8726
▁desert	-9.87264
▁Blau	-9.87267
▁Stand	-9.87284
▁cafe	-9.87284
▁Kunden	-9.87356
▁gym	-9.87369
▁goal	-9.8739
▁made	-9.87507
▁fallen	-9.88201
▁cat	-9.88448
▁legs	-9.88474
▁photographer	-9.88537
▁verkaufen	-9.8856
▁umbrellas	-9.88732
▁start	-9.89062
▁office	-9.89408
▁leash	-9.89564
▁brush	-9.89567
▁video	-9.89636
▁diving	-9.89636
▁stadium	-9.89636
▁balanciert	-9.89638
▁stuff	-9.89639
▁doorway	-9.8964
▁Sandalen	-9.8969
▁sandals	-9.89744
▁musical	-9.89833
▁Künstler	-9.89884
▁drawing	-9.89909
▁jemandem	-9.89942
uch	-9.89979
▁Fahrrädern	-9.90088
▁shav	-9.9025
▁deck	-9.90287
▁dancers	-9.9042
▁Jacken	-9.90569
▁grasbewachsene	-9.90765
▁square	-9.90766
ty	-9.90793
▁officers	-9.90935
▁way	-9.91175
▁speak	-9.91214
▁garden	-9.91325
▁Es	-9.91576
▁lead	-9.91585
▁Spiegel	-9.91639
▁golf	-9.9175
▁block	-9.91871
▁Klassenzimmer	-9.92075
▁Mobiltelefon	-9.92075
▁Schaufel	-9.92075
▁accordion	-9.92075
▁beugt	-9.92075
▁traffic	-9.92075
▁church	-9.92075
▁winkt	-9.92077
▁Telefon	-9.92085
▁Schiedsrichter	-9.92087
▁multicolored	-9.92095
▁Einkaufswagen	-9.92107
▁Erde	-9.92109
▁Footballspieler	-9.92146
▁setzt	-9.92153
▁Stiefeln	-9.9221
▁Geige	-9.92228
▁ziehen	-9.92273
▁photograph	-9.92332
▁Bein	-9.92579
▁falling	-9.92622
▁Arbeits	-9.92942
▁faces	-9.92967
▁singer	-9.93371
▁laptop	-9.93384
ew	-9.93385
▁drum	-9.93406
▁tables	-9.93464
▁swings	-9.93534
▁farbenfrohe	-9.93564
▁sticks	-9.93641
▁kayak	-9.93671
▁Schläger	-9.93733
id	-9.93768
▁Pferden	-9.93866
▁Roller	-9.93876
▁Surfbrett	-9.9418
dessen	-9.94356
▁Zimmer	-9.94575
▁includ	-9.94575
▁shallow	-9.94575
▁Felswand	-9.94575
▁Halsband	-9.94576
▁performance	-9.94578
▁fällt	-9.94587
▁sled	-9.94598
▁dreht	-9.94627
▁O	-9.9482
▁van	-9.94925
▁climb	-9.95002
▁plants	-9.95625
▁skiing	-9.95697
▁h	-9.9586
▁Cowboy	-9.95914
▁Taschen	-9.96135
▁Badehose	-9.96422
▁hohe	-9.96489
▁Schuhe	-9.96533
z	-9.97106
▁hellhäutige	-9.97108
▁project	-9.97127
▁Schlitten	-9.97138
▁Höhe	-9.97139
▁below	-9.97139
▁fünf	-9.97139
▁digging	-9.97139
▁küssen	-9.97139
▁lone	-9.97142
▁davor	-9.97142
▁pond	-9.97145
▁zeigen	-9.97149
▁streets	-9.97156
▁reiten	-9.97196
hiking	-9.97233
▁bis	-9.97299
▁hammer	-9.97307
▁hellbrauner	-9.97361
▁i	-9.97435
▁hose	-9.97439
▁relaxing	-9.97479
▁mat	-9.97497
▁members	-9.97615
▁Mikroskop	-9.97904
▁toys	-9.98015
▁microscope	-9.98517
▁bicyclist	-9.98597
▁kurze	-9.98642
▁friend	-9.9866
lich	-9.99185
▁Fleisch	-9.99203
▁Schnauze	-9.99524
▁Kai	-9.99774
▁aussieht	-9.99775
▁Kaffee	-9.99778
▁hoodie	-9.99782
▁Tanktop	-9.99784
▁Kreis	-9.99794
▁hugging	-9.99801
geschäft	-9.99804
▁Loch	-9.99806
▁erwachsene	-9.99811
▁tunnel	-9.99826
▁upside	-9.99834
▁küsst	-9.99848
▁Seifenblasen	-9.99916
▁passes	-9.99948
▁redet	-10.0004
▁indische	-10.0005
▁heraus	-10.0016
▁Cheerleader	-10.0018
▁bat	-10.0065
▁heads	-10.0102
▁schmutzige	-10.0109
▁stunt	-10.0122
board	-10.0123
▁cloud	-10.0127
▁Laptop	-10.013
▁Pferde	-10.0133
▁chinesische	-10.0138
▁Schlange	-10.0167
▁ob	-10.0212
▁Freunde	-10.0213
▁move	-10.0226
wagen	-10.0233
ausrüstung	-10.0247
▁Spaß	-10.0247
▁flies	-10.0248
▁Ecke	-10.0248
▁Spielfeld	-10.0248
▁pour	-10.0251
▁Pflanzen	-10.0267
▁sleeps	-10.0275
▁sweeping	-10.0278
blauen	-10.0294
▁males	-10.0324
▁Oberteilen	-10.0332
▁Müll	-10.0336
b	-10.0338
▁Skateboarder	-10.0344
▁cane	-10.0349
▁blow	-10.0353
▁bemalt	-10.0362
▁hellbraune	-10.0384
chen	-10.0391
▁de	-10.0396
▁daughter	-10.04
▁sculpture	-10.0401
▁shoe	-10.0409
▁chef	-10.0409
▁r	-10.0453
▁Bäume	-10.0455
▁Akkordeon	-10.0471
▁ei	-10.0483
▁Gerüst	-10.0497
▁inspect	-10.0522
▁Büro	-10.0525
▁Mountainbike	-10.0525
▁Stadion	-10.0525
▁Teller	-10.0525
▁Tochter	-10.0525
▁karate	-10.0525
▁telescope	-10.0525
▁Teich	-10.0525
▁conversing	-10.0525
▁infant	-10.0525
▁Rennstrecke	-10.0525
▁cold	-10.0525
▁teeth	-10.0525
froamerikanische	-10.0527
▁Handtasche	-10.0529
▁splashing	-10.0543
▁Tischen	-10.0544
▁how	-10.0555
▁trunks	-10.057
▁name	-10.0573
▁resting	-10.0584
▁schönen	-10.0595
▁individuals	-10.0597
▁Schultern	-10.061
g	-10.0613
▁eat	-10.0621
▁beleuchtete	-10.0654
▁plant	-10.0697
▁string	-10.0703
▁gun	-10.0704
weg	-10.0708
▁mid	-10.0708
▁fan	-10.0721
▁Kirche	-10.0727
ive	-10.0731
▁Tasse	-10.0731
▁lots	-10.0731
grünen	-10.0736
▁Fußballspiel	-10.0738
▁Flasche	-10.0739
▁linke	-10.0766
ft	-10.0771
▁Caf	-10.0794
▁Karate	-10.0803
▁heavy	-10.0811
▁kocht	-10.0811
▁wrestling	-10.0811
▁Hula	-10.0811
▁jogging	-10.0811
▁Haufen	-10.0811
▁racket	-10.0811
▁stack	-10.0812
▁mural	-10.0812
▁underneath	-10.0812
▁kind	-10.0814
▁Kappe	-10.0814
▁schöne	-10.0818
▁pier	-10.0818
▁formal	-10.0822
▁held	-10.0825
▁town	-10.0828
▁gepflasterten	-10.0828
▁image	-10.0844
▁customers	-10.0854
▁Reifen	-10.0855
▁points	-10.0878
▁here	-10.0886
▁Tier	-10.0909
▁schwimmen	-10.093
▁mov	-10.0958
▁cyclist	-10.0987
▁hiker	-10.0997
▁balance	-10.1014
▁Küste	-10.1026
th	-10.1029
▁Koch	-10.1072
▁card	-10.1085
▁straw	-10.1087
▁stream	-10.1104
▁Balkon	-10.1105
▁Klippe	-10.1105
▁felsige	-10.1105
▁themselves	-10.1105
▁umarmen	-10.1105
▁entspannt	-10.1105
▁carnival	-10.1105
▁hula	-10.1105
▁unterwegs	-10.1105
▁nice	-10.1105
▁Landschaft	-10.1105
▁Couch	-10.1105
▁Parkbank	-10.1105
▁curly	-10.1106
▁schaukelt	-10.1108
▁stroll	-10.1112
▁deep	-10.1114
▁neck	-10.1117
▁finish	-10.1118
▁hellen	-10.1146
▁asiatisch	-10.1172
▁cloth	-10.1185
▁Freunden	-10.1197
gelben	-10.1222
▁wunderschöne	-10.1256
▁bend	-10.1259
▁shoulders	-10.1277
▁mix	-10.1279
▁Flugzeug	-10.1292
▁coats	-10.131
ish	-10.1319
▁Schwimmbrille	-10.1324
▁Tänzer	-10.1329
▁Katze	-10.1333
schwarzer	-10.1333
▁Steine	-10.1373
▁lab	-10.1406
▁gymnast	-10.1407
▁Schlamm	-10.1408
▁Blatt	-10.1408
▁Gasse	-10.1408
▁Trampolin	-10.1408
▁picnic	-10.1408
▁trampoline	-10.1408
▁produce	-10.1408
▁wetsuit	-10.1408
▁damit	-10.1408
▁dinner	-10.1408
▁crosswalk	-10.1408
▁Hang	-10.1408
▁Sachen	-10.1408
▁button	-10.1408
▁bedient	-10.1408
▁makeup	-10.1409
▁Touristen	-10.1412
▁Feldweg	-10.1412
▁crying	-10.1414
▁circle	-10.1415
▁dunkler	-10.1421
▁gate	-10.1427
▁opening	-10.1427
▁not	-10.1439
▁driver	-10.1439
spieler	-10.1444
▁Schutzhelmen	-10.1445
▁wooded	-10.145
or	-10.1455
▁Farben	-10.1458
▁links	-10.1468
▁violetten	-10.1474
tisch	-10.1475
▁we	-10.151
ping	-10.1529
▁fall	-10.155
▁Flaggen	-10.1551
▁Bahn	-10.1556
▁nap	-10.1563
▁Helmen	-10.1567
Spiel	-10.1578
▁knee	-10.158
▁runners	-10.1586
▁print	-10.1593
▁nose	-10.1597
▁booth	-10.1598
▁surf	-10.16
▁athlete	-10.1601
▁Overall	-10.1606
▁round	-10.1607
▁Berge	-10.1608
▁seem	-10.1629
▁pack	-10.1629
▁Maske	-10.1644
▁Schüssel	-10.1648
▁Kopfhörer	-10.1649
▁performer	-10.1659
▁slope	-10.1659
▁wander	-10.1662
ork	-10.1675
▁Licht	-10.1705
▁live	-10.1719
▁trash	-10.172
veranstaltung	-10.172
▁jongliert	-10.172
▁lunch	-10.172
▁practice	-10.172
▁hüpft	-10.172
▁professional	-10.172
▁überfüllte	-10.172
▁Springbrunnen	-10.172
▁surface	-10.1721
▁hinab	-10.1721
▁New	-10.1721
▁verwendet	-10.1721
▁Skiern	-10.1721
▁sea	-10.1724
▁Strecke	-10.1724
▁center	-10.1724
▁load	-10.1724
▁gezogen	-10.1725
fuß	-10.1728
▁sewing	-10.1729
▁holt	-10.173
▁steigt	-10.1732
▁grind	-10.1733
▁closed	-10.1736
▁Skater	-10.1736
▁most	-10.1746
▁Be	-10.1747
Shirts	-10.1755
▁Fahnen	-10.1755
▁covering	-10.177
ge	-10.1818
▁taken	-10.1831
▁rechte	-10.1852
▁seve	-10.1861
▁bicyclists	-10.1862
el	-10.1867
▁tricks	-10.1869
▁kiss	-10.189
▁cow	-10.1898
▁hell	-10.1907
▁Lastwagen	-10.1919
▁pitcher	-10.1924
▁fight	-10.1948
age	-10.1961
▁Wüste	-10.1971
▁oriental	-10.1992
▁Objekt	-10.1999
less	-10.2013
▁Jugendliche	-10.202
▁Sch	-10.2025
▁ring	-10.2028
▁nur	-10.2039
▁speed	-10.2041
▁Marathon	-10.2043
▁balcony	-10.2043
▁himself	-10.2043
▁schießt	-10.2043
▁blouse	-10.2043
▁schüttelt	-10.2043
▁Mahlzeit	-10.2043
▁Veranda	-10.2043
▁softball	-10.2043
▁kauft	-10.2043
▁schnell	-10.2043
▁third	-10.2044
▁festival	-10.2047
▁rasiert	-10.2047
▁boxes	-10.2057
▁pedestrians	-10.2061
▁rechts	-10.2065
▁cheerleaders	-10.2068
cal	-10.21
▁teenagers	-10.215
▁hikers	-10.2174
▁dances	-10.2178
▁re	-10.2202
▁Zeit	-10.2212
bar	-10.2239
ter	-10.2239
▁log	-10.225
▁device	-10.2251
▁repair	-10.2257
▁indoor	-10.2258
▁Clown	-10.2261
hut	-10.2263
gruppe	-10.2264
▁eye	-10.2272
▁see	-10.2274
Hoop	-10.2278
▁robe	-10.2279
▁decorat	-10.2307
▁Asiate	-10.231
▁W	-10.2321
▁hängen	-10.2329
▁Nase	-10.2339
▁Getränke	-10.2341
▁d	-10.2347
▁fair	-10.2371
▁Wurf	-10.2376
▁fotografieren	-10.2376
▁komplett	-10.2376
▁saxophone	-10.2376
▁staircase	-10.2376
▁berührt	-10.2376
▁reparieren	-10.2376
taucht	-10.2376
▁ruht	-10.2376
▁native	-10.2376
▁steep	-10.2376
▁verfolgt	-10.2377
▁Cowboyhut	-10.2377
▁bekommt	-10.2377
▁Sportler	-10.2377
▁Kopftuch	-10.2378
▁tile	-10.2378
▁bläst	-10.2378
▁you	-10.2379
▁heben	-10.2379
eign	-10.238
▁Lkw	-10.2383
▁k	-10.2385
▁Anzügen	-10.2386
▁hellblauen	-10.2394
▁Personengruppe	-10.2398
▁grillt	-10.2405
stand	-10.2406
▁waterfall	-10.2418
ich	-10.2461
▁balanc	-10.2481
▁pal	-10.2482
▁Instrumenten	-10.2483
▁loca	-10.249
▁dritte	-10.251
▁Sieb	-10.2525
▁rest	-10.2536
T	-10.2551
▁pot	-10.2557
▁khaki	-10.259
cy	-10.259
▁Teppich	-10.2618
▁skis	-10.2622
▁clear	-10.2644
▁Reiter	-10.2648
ther	-10.2661
▁Stoff	-10.267
▁Instrumente	-10.2678
bent	-10.2688
iert	-10.2693
▁frame	-10.2711
▁garb	-10.2721
▁fresh	-10.2721
▁grocery	-10.2721
▁puddle	-10.2721
▁reinigt	-10.2721
▁gentlemen	-10.2721
▁hockt	-10.2721
bereich	-10.2721
▁Umzug	-10.2721
▁podium	-10.2722
▁crouche	-10.2724
▁pitch	-10.2726
▁Wettkampf	-10.2729
▁wind	-10.273
▁shak	-10.2732
▁Bilder	-10.2733
▁overalls	-10.2742
▁ru	-10.2742
▁paved	-10.2743
ian	-10.2744
▁evening	-10.2746
▁marching	-10.2746
▁climber	-10.2756
▁Beinen	-10.2791
▁brünette	-10.2794
▁Fußgänger	-10.2809
▁balls	-10.2819
▁ship	-10.2827
▁frisch	-10.2845
▁geschäftige	-10.2846
innen	-10.285
▁Tennisspieler	-10.287
▁Hunden	-10.2893
▁japan	-10.2897
▁swims	-10.2904
▁e	-10.2906
ine	-10.2912
u	-10.2942
▁chain	-10.2951
▁sheet	-10.2953
▁guard	-10.2955
▁ear	-10.2961
▁jean	-10.2962
▁cook	-10.2988
covered	-10.2997
▁teenager	-10.2997
▁Zähne	-10.3002
▁Finger	-10.3006
▁travel	-10.3021
▁Sänger	-10.3054
▁offen	-10.3058
▁dancer	-10.3063
▁Schlag	-10.3077
▁Gebiet	-10.3078
▁curb	-10.3078
▁laundry	-10.3078
▁porch	-10.3078
▁tongue	-10.3078
▁öffnet	-10.3078
▁Zunge	-10.3078
▁Salto	-10.3078
▁mound	-10.3078
▁figure	-10.3079
▁Asiatin	-10.3079
▁airplane	-10.3079
▁flight	-10.3079
▁Bach	-10.308
▁ledge	-10.308
▁stool	-10.308
▁pair	-10.3081
▁bauen	-10.3086
▁gucken	-10.3087
▁traditioneller	-10.3097
▁einsame	-10.3108
▁schreit	-10.3123
▁stark	-10.3131
▁Hauses	-10.3133
▁fingers	-10.315
▁durchs	-10.3156
kt	-10.3159
▁Asiaten	-10.3162
at	-10.318
▁violette	-10.3192
▁geschlossene	-10.3193
▁robes	-10.3206
▁Im	-10.3217
▁Plastik	-10.3218
▁ärmellose	-10.3242
▁raft	-10.3249
▁laugh	-10.3261
▁hoop	-10.3261
▁Kerl	-10.3264
▁Sitzen	-10.3272
▁land	-10.3314
▁sale	-10.3318
▁birds	-10.332
▁present	-10.3323
▁books	-10.3348
teil	-10.3353
▁snowboard	-10.337
▁Fahrräder	-10.3378
schwarzen	-10.3387
▁Hockey	-10.3398
▁fl	-10.3409
▁Schlauch	-10.3449
▁Hals	-10.3449
▁Geld	-10.3449
▁aufblasbare	-10.3449
▁befestigt	-10.3449
▁luggage	-10.3449
▁paddling	-10.3449
▁piano	-10.3449
▁untersucht	-10.3449
▁wäscht	-10.3449
▁Abend	-10.3449
▁einzelne	-10.3449
▁Kurve	-10.3449
▁kann	-10.3449
▁Straßenkünstler	-10.3449
▁backyard	-10.3449
▁polo	-10.3449
▁Winterkleidung	-10.345
▁Lederjacke	-10.3451
▁attached	-10.3451
▁wild	-10.3455
▁lies	-10.3458
▁wine	-10.3461
▁Tunnel	-10.3463
▁schneiden	-10.3466
▁Wein	-10.3474
▁steigen	-10.3474
▁l	-10.3475
▁arena	-10.3482
▁geparkt	-10.3489
▁Hockeyspieler	-10.3497
▁shooting	-10.3511
▁colors	-10.3539
▁shin	-10.3543
▁kicks	-10.3556
▁soldiers	-10.3563
▁pro	-10.3566
che	-10.3572
▁Steinen	-10.3603
▁blocks	-10.3628
▁part	-10.3663
▁catche	-10.3665
▁Winter	-10.3687
▁Teil	-10.3692
▁tracks	-10.3693
▁keyboard	-10.3695
▁wheelchair	-10.3708
▁L	-10.3713
▁soldier	-10.3716
▁poster	-10.3724
line	-10.3748
Fahrer	-10.375
▁post	-10.3754
▁wurde	-10.3757
▁verkleidet	-10.3787
schen	-10.3789
▁jemand	-10.38
▁Geschenk	-10.3803
▁umher	-10.3817
▁Bullen	-10.3826
▁Schwimmer	-10.3826
▁Baumstamm	-10.3833
▁Kuh	-10.3833
▁Terrasse	-10.3833
▁bandanna	-10.3833
▁camouflage	-10.3833
▁entfernt	-10.3833
▁fabric	-10.3833
▁pavement	-10.3833
▁übt	-10.3833
▁inflatable	-10.3833
▁rugby	-10.3833
▁railroad	-10.3833
▁york	-10.3833
▁will	-10.3834
▁goalie	-10.3834
▁Passanten	-10.3836
▁gießt	-10.3838
▁Tuch	-10.3842
▁position	-10.3843
▁beieinander	-10.3844
▁Ausrüstung	-10.3848
▁gelegt	-10.3848
▁denim	-10.3854
▁feed	-10.3873
▁mom	-10.3878
▁kickt	-10.3881
▁plane	-10.3887
▁windows	-10.3893
▁fenced	-10.3896
brauner	-10.3911
ab	-10.3914
ese	-10.3917
▁g	-10.394
▁cones	-10.3945
▁glücklich	-10.3957
▁poles	-10.3958
▁N	-10.3972
▁nachde	-10.4017
▁schlafen	-10.4036
▁seat	-10.4041
us	-10.4045
▁grab	-10.4045
▁Teams	-10.4052
▁flor	-10.4069
▁hurdle	-10.4095
▁Wasserfall	-10.4097
▁bottom	-10.4108
▁swimsuit	-10.4112
▁musician	-10.4118
▁examin	-10.412
▁student	-10.4125
▁shade	-10.4134
▁bunt	-10.4173
▁Ort	-10.4202
▁low	-10.4202
like	-10.4209
▁fill	-10.4219
▁Becher	-10.4233
▁Bräutigam	-10.4233
▁escalator	-10.4233
▁happily	-10.4233
▁referee	-10.4233
▁tractor	-10.4233
▁unterschiedlich	-10.4233
▁vollführt	-10.4233
▁üben	-10.4233
▁juggling	-10.4233
▁compete	-10.4233
▁hölzerne	-10.4233
▁married	-10.4233
▁barfüßige	-10.4233
▁courtyard	-10.4233
▁helfen	-10.4233
▁hinaus	-10.4234
▁model	-10.4235
▁hinterher	-10.4235
▁Teleskop	-10.4235
▁jockey	-10.4235
▁Rollstuhl	-10.4235
▁discuss	-10.4236
▁chest	-10.4238
▁bread	-10.4239
▁dust	-10.4239
▁geworfen	-10.4239
▁club	-10.4242
▁bringt	-10.4248
▁landscape	-10.425
▁kommen	-10.4254
▁modern	-10.4269
king	-10.4274
▁nassen	-10.429
▁buying	-10.4292
▁map	-10.4295
▁darunter	-10.4298
▁Fahrer	-10.4323
▁tools	-10.4328
sch	-10.4347
▁gesäumte	-10.4361
▁laughs	-10.4363
bahn	-10.4382
▁cyclists	-10.4397
rolling	-10.4401
▁fans	-10.4403
▁eats	-10.4403
p	-10.4476
▁step	-10.4482
▁roll	-10.4492
▁come	-10.45
▁bikers	-10.4501
▁Spielen	-10.4516
▁pin	-10.4516
▁groom	-10.4519
▁towel	-10.4522
▁pipe	-10.4526
re	-10.4529
▁bubble	-10.4533
▁mustache	-10.4534
▁type	-10.4548
▁Seiten	-10.4551
▁Matte	-10.457
▁multip	-10.4571
▁cone	-10.4577
▁riesige	-10.458
▁weit	-10.4587
▁Hindernis	-10.4589
▁riders	-10.46
amp	-10.4611
▁skirts	-10.4622
▁tub	-10.4624
▁Fotograf	-10.4626
▁record	-10.4633
▁Gelände	-10.4634
ustic	-10.4643
▁Vor	-10.4646
maschine	-10.4648
▁suspende	-10.465
▁casual	-10.465
▁Kapuzenpulli	-10.465
▁santa	-10.465
▁Neoprenanzug	-10.465
▁carpet	-10.465
▁adjust	-10.465
▁german	-10.465
▁living	-10.465
▁carriage	-10.465
▁Rolltreppe	-10.465
▁Kissen	-10.465
▁marketplace	-10.465
▁Theke	-10.465
▁coach	-10.465
▁heiße	-10.465
▁feiern	-10.465
▁Turnhalle	-10.465
▁benutzen	-10.465
▁Waldgebiet	-10.465
▁gezeigt	-10.465
▁Besen	-10.465
▁garbage	-10.465
▁konzentriert	-10.4651
▁closeup	-10.4651
▁peace	-10.4652
▁Karren	-10.4652
▁Keyboard	-10.4652
▁Ziel	-10.4652
▁bewegt	-10.4655
▁gleitet	-10.4655
▁paddelt	-10.4655
▁angelt	-10.4657
▁pajamas	-10.4658
▁teacher	-10.4662
ies	-10.4662
▁socks	-10.4663
▁bucking	-10.4665
▁Jungs	-10.4668
▁backwards	-10.4673
▁geben	-10.468
▁scaffolding	-10.4686
▁ent	-10.4687
▁ringen	-10.4691
▁cheering	-10.4706
im	-10.4711
▁pushe	-10.4715
▁touching	-10.472
▁aco	-10.4736
▁goods	-10.4759
it	-10.4825
▁moves	-10.4844
Skateboardfahrer	-10.4846
▁shape	-10.4876
▁vorbeigehen	-10.4906
▁motorcycles	-10.4927
▁Da	-10.4928
roten	-10.4947
▁bare	-10.495
▁shoot	-10.4956
▁advertisement	-10.4961
▁Verkehr	-10.4962
▁magazine	-10.4964
▁direction	-10.4966
▁peer	-10.4972
skinn	-10.498
▁dry	-10.4996
▁jerseys	-10.5006
▁Trommel	-10.5012
▁mi	-10.5014
▁Hochzeit	-10.503
▁Schuh	-10.5044
▁Ballon	-10.5077
rad	-10.5081
▁Jahrmarkt	-10.5081
änner	-10.5084
▁touch	-10.5084
▁sheep	-10.5085
▁Gemälde	-10.5085
▁Jockey	-10.5085
▁Stapel	-10.5085
▁Tennisschläger	-10.5085
▁athletic	-10.5085
▁caucasian	-10.5085
▁caught	-10.5085
▁harness	-10.5085
▁obstacle	-10.5085
▁serving	-10.5085
▁wagon	-10.5085
▁Trägerhemd	-10.5085
▁stove	-10.5085
▁Hürde	-10.5085
▁Weihnachtsbaum	-10.5085
▁plaza	-10.5085
▁Nahaufnahme	-10.5085
▁lehnen	-10.5085
▁gelehnt	-10.5085
▁Gewand	-10.5085
▁Heu	-10.5085
▁dining	-10.5085
▁underwater	-10.5085
▁airport	-10.5085
▁Auftritt	-10.5085
▁Motocross	-10.5086
▁Wäsche	-10.5086
▁BM	-10.5086
▁Mänteln	-10.5087
▁Handtuch	-10.5088
▁redhead	-10.509
▁kehrt	-10.5091
sleeved	-10.5091
▁hay	-10.5092
▁welding	-10.5096
▁action	-10.5102
▁protecti	-10.5109
do	-10.511
▁raised	-10.511
▁fly	-10.5126
▁stehende	-10.5174
▁farm	-10.5195
▁barbecue	-10.5209
▁shown	-10.5211
▁Berges	-10.5297
▁Gegner	-10.53
ben	-10.5304
▁Feuerwehr	-10.5343
▁animals	-10.5355
▁bekleidete	-10.5358
ken	-10.5365
▁marti	-10.5383
halle	-10.54
▁waters	-10.5401
▁participat	-10.5407
▁paints	-10.5413
▁neon	-10.5413
▁individual	-10.5422
▁good	-10.5423
▁tube	-10.5432
▁amuse	-10.5432
▁duck	-10.5433
ne	-10.5434
ation	-10.5442
jacke	-10.5451
▁Freund	-10.5452
arrow	-10.5452
▁orientalische	-10.5453
down	-10.5458
▁Gegenstände	-10.5466
▁Blätter	-10.5467
▁neue	-10.5469
▁Farbe	-10.5472
ar	-10.5482
▁Schwimm	-10.5483
▁observe	-10.549
▁Gerät	-10.5494
▁pit	-10.5515
▁Soldat	-10.5516
▁Hocke	-10.5519
stellen	-10.5527
▁serve	-10.5529
▁irgendeine	-10.5531
ful	-10.5531
▁hood	-10.5535
▁Projekt	-10.5538
▁Koffer	-10.5539
mantel	-10.5539
▁Stirn	-10.5539
▁Fläche	-10.5539
▁Pfütze	-10.5539
▁haircut	-10.5539
▁orchestra	-10.5539
▁Wohnzimmer	-10.5539
▁polka	-10.5539
▁steinige	-10.5539
▁Brust	-10.5539
▁sink	-10.5539
▁Weihnachtsmann	-10.5539
▁gravel	-10.5539
bekleidung	-10.554
▁candy	-10.554
▁youth	-10.554
▁drummer	-10.554
▁Gang	-10.554
▁Laub	-10.554
▁summer	-10.554
weise	-10.5541
▁jagen	-10.5542
▁Kid	-10.5543
▁Wandbild	-10.5543
▁direct	-10.5544
▁operating	-10.5545
▁trainiert	-10.5545
▁Bildschirm	-10.5545
▁schießen	-10.5545
▁sechs	-10.5546
▁Lehrer	-10.5548
▁Handstand	-10.5549
▁gräbt	-10.5549
▁Ring	-10.5551
▁Herd	-10.5552
▁khakifarbene	-10.5553
▁Studenten	-10.5555
▁hooded	-10.5555
▁Werbung	-10.5557
▁Brot	-10.5568
▁lassen	-10.5568
▁kalten	-10.557
hemd	-10.5573
▁kite	-10.5575
▁jemanden	-10.5576
▁folgt	-10.5576
▁Fischer	-10.5584
▁spinn	-10.5588
uses	-10.5591
▁Schäferhund	-10.5608
▁color	-10.561
▁Militär	-10.5618
setzen	-10.5645
▁shar	-10.5645
▁ausgestreckte	-10.5647
▁flipp	-10.5687
cuba	-10.5699
▁fertig	-10.5711
▁backpacks	-10.5721
▁traditionelle	-10.5742
▁lin	-10.5745
alter	-10.575
▁war	-10.5751
▁grilling	-10.58
▁mudd	-10.5802
fully	-10.5804
ral	-10.5813
mannschaft	-10.5814
kostüm	-10.5816
▁raise	-10.5842
▁lächelndes	-10.5865
▁opponent	-10.5888
▁wire	-10.5901
▁vehicles	-10.5902
ball	-10.5907
▁cover	-10.5907
▁smoke	-10.5919
▁Baseballkappe	-10.5936
▁Spitze	-10.594
▁Orange	-10.5943
▁sleeve	-10.5949
▁schaufel	-10.5964
▁angezogen	-10.5982
▁wide	-10.5985
▁bin	-10.5986
▁Ohr	-10.5988
▁boats	-10.5993
feld	-10.5994
▁na	-10.6
▁Kampf	-10.6002
▁sing	-10.6002
▁bear	-10.6003
anzügen	-10.6007
▁approach	-10.6009
▁Feier	-10.601
stühlen	-10.6015
▁Gepäck	-10.6015
▁Labor	-10.6015
▁Geschirr	-10.6016
▁Behälter	-10.6016
▁Bushaltestelle	-10.6016
▁Daumen	-10.6016
▁Eltern	-10.6016
▁Gassi	-10.6016
▁Klavier	-10.6016
▁Pfosten	-10.6016
▁Pärchen	-10.6016
▁Zuschauermenge	-10.6016
▁headscarf	-10.6016
▁jungle	-10.6016
▁kochen	-10.6016
▁interact	-10.6016
▁weint	-10.6016
▁bathroom	-10.6016
▁baut	-10.6016
▁streichelt	-10.6016
▁nav	-10.6016
▁leaf	-10.6016
▁hallway	-10.6016
▁hinein	-10.6016
▁presentation	-10.6016
▁money	-10.6016
▁mobile	-10.6016
▁eight	-10.6016
▁Kletterer	-10.6016
hilfe	-10.6016
▁things	-10.6017
▁routine	-10.6017
▁geblümte	-10.6018
▁spread	-10.6018
▁Orchester	-10.6018
▁nähert	-10.6018
▁checkered	-10.6018
▁Stadtstraße	-10.6018
▁kahlköpfiger	-10.6018
▁sack	-10.6019
▁Drachen	-10.6021
▁garage	-10.6022
▁hören	-10.6022
▁heels	-10.6025
▁dicht	-10.6026
▁studio	-10.6026
Backsteingebäude	-10.6028
▁runden	-10.603
▁bringen	-10.6034
▁saw	-10.6038
▁atv	-10.6044
▁Menschengruppe	-10.6045
▁steilen	-10.6047
side	-10.6048
tasche	-10.607
▁firefighters	-10.6077
▁Kunststücke	-10.6077
▁Füßen	-10.608
▁Sees	-10.6081
sitz	-10.6087
M	-10.609
▁passengers	-10.6094
▁Rede	-10.6096
ying	-10.6107
▁tourists	-10.6112
▁benches	-10.6118
way	-10.6121
▁pen	-10.6128
▁Eingang	-10.6131
▁Ballons	-10.6146
▁thrown	-10.6149
▁Ma	-10.615
▁stra	-10.6151
mann	-10.6174
ur	-10.6174
▁frische	-10.6185
▁stehenden	-10.6199
▁Schutz	-10.62
ist	-10.6202
▁racer	-10.6214
platz	-10.6232
ollege	-10.6237
▁bestehende	-10.6248
▁photographs	-10.625
land	-10.626
▁keep	-10.6261
▁pet	-10.6334
▁point	-10.6341
be	-10.6359
▁gefüllt	-10.6368
▁design	-10.6383
zug	-10.6385
S	-10.6387
▁jumpsuit	-10.639
▁sword	-10.639
▁involv	-10.6391
▁gehende	-10.6394
▁motorcyclist	-10.6395
▁glove	-10.6399
▁Flughafen	-10.64
▁tool	-10.6406
▁walls	-10.6413
▁Bücher	-10.6438
▁buy	-10.6451
▁per	-10.6453
▁Sicherheits	-10.646
▁z	-10.646
▁Gold	-10.6492
▁dive	-10.6493
▁sandwich	-10.6507
▁film	-10.6512
▁but	-10.6513
▁Motor	-10.6513
▁Dreadlocks	-10.6516
▁Schnurrbart	-10.6516
▁ceiling	-10.6516
▁entrance	-10.6516
▁great	-10.6516
▁racetrack	-10.6516
▁speech	-10.6516
▁patio	-10.6516
▁greyhound	-10.6516
▁Einkaufszentrum	-10.6516
▁joggt	-10.6516
▁Hammer	-10.6516
▁Skatepark	-10.6516
▁hall	-10.6516
▁Picknicktisch	-10.6516
▁Steinmauer	-10.6516
▁machinery	-10.6516
▁half	-10.6518
▁Baseballmütze	-10.6518
▁pattern	-10.6518
▁puck	-10.6518
▁policeman	-10.6519
▁auszu	-10.652
▁Socken	-10.6521
otocross	-10.6521
▁medic	-10.6524
▁Bahnsteig	-10.6526
▁spritzt	-10.6532
▁container	-10.6532
▁zeichnet	-10.6533
▁scheinen	-10.6534
▁easter	-10.6538
▁mall	-10.6543
▁batter	-10.6547
▁I	-10.6548
▁Fans	-10.6549
▁heart	-10.6553
▁bit	-10.6554
▁Bau	-10.656
▁Kisten	-10.6565
▁Meeres	-10.6571
▁Motorrädern	-10.6571
▁verkleidete	-10.658
▁Fallschirm	-10.6601
▁bro	-10.6601
shirts	-10.6605
ked	-10.6615
▁snowboarding	-10.6616
▁ropes	-10.662
▁schwere	-10.6621
▁Kopfhörern	-10.6632
▁vorüber	-10.6633
▁hitt	-10.6635
▁sets	-10.6644
▁Schaufenster	-10.6656
▁examine	-10.666
▁Schule	-10.6682
▁ears	-10.669
▁rests	-10.6699
▁bm	-10.6704
▁St	-10.6708
ern	-10.6713
gen	-10.6715
▁Sonnenbrillen	-10.6718
▁rowing	-10.6735
zu	-10.6745
geht	-10.675
▁toss	-10.675
enden	-10.6752
▁dicke	-10.6756
▁co	-10.6769
▁Kunstwerk	-10.6842
▁read	-10.6843
▁dunkelblaue	-10.6854
▁volle	-10.6875
▁bow	-10.6884
▁trumpet	-10.6904
▁lane	-10.6916
▁beam	-10.6917
▁beverage	-10.6921
▁swimmer	-10.6923
▁apple	-10.6925
▁fruits	-10.6929
▁lachend	-10.6933
▁pett	-10.6934
ake	-10.6936
▁Gelb	-10.6943
▁beigefarbene	-10.6948
▁Schutzbrille	-10.6958
Reifen	-10.6959
Schild	-10.696
show	-10.696
Gitarre	-10.696
ped	-10.6962
▁Kegel	-10.6966
▁Füße	-10.6971
▁Blume	-10.6972
▁tag	-10.6975
auf	-10.6979
▁Bauch	-10.6984
▁Brett	-10.701
▁Trompete	-10.7014
▁Zahl	-10.7014
▁leav	-10.7018
▁Lauf	-10.7022
▁Baseballspiel	-10.7031
▁Kunst	-10.7033
▁Ver	-10.7035
▁Graffitis	-10.7037
▁dire	-10.7039
▁Anlegestelle	-10.7042
▁Körper	-10.7042
▁Nickerchen	-10.7042
▁Nähmaschine	-10.7042
▁Sanddüne	-10.7042
▁ballerina	-10.7042
▁cricket	-10.7042
▁intersection	-10.7042
▁ländliche	-10.7042
▁neighborhood	-10.7042
▁shepherd	-10.7042
▁donkey	-10.7042
▁ornate	-10.7042
▁village	-10.7042
▁Hinterhof	-10.7042
▁herself	-10.7042
▁hospital	-10.7042
▁rough	-10.7042
▁rudert	-10.7042
▁schwach	-10.7042
▁Straßenhändler	-10.7042
▁boardwalk	-10.7042
▁Bowlingbahn	-10.7042
▁beschäftigt	-10.7042
▁drill	-10.7042
▁possibly	-10.7043
▁discussion	-10.7043
▁Kreuzung	-10.7043
▁schwarzhaarige	-10.7043
▁horseback	-10.7043
▁stopped	-10.7043
▁attend	-10.7043
▁hillside	-10.7044
▁museum	-10.7044
▁Rennwagen	-10.7045
▁vorbeifährt	-10.7045
▁bushes	-10.7046
▁song	-10.7047
▁taxi	-10.7049
▁Stier	-10.7051
▁Bahnhof	-10.7053
▁Bekleidung	-10.7056
▁Wettbewerb	-10.7058
▁Wasserski	-10.7059
▁Ziegel	-10.706
▁langhaariger	-10.706
▁wrestler	-10.7063
▁lockige	-10.7064
▁crouching	-10.7065
▁Trainings	-10.7065
▁newly	-10.7068
▁enter	-10.7071
▁du	-10.7077
▁Schlagzeuger	-10.7087
rubber	-10.7096
▁Zeichen	-10.7099
▁silbernen	-10.7101
▁motor	-10.7107
▁Luftballons	-10.7126
▁hugs	-10.713
▁Typen	-10.7131
▁cleans	-10.7132
▁o	-10.7194
▁participate	-10.7198
▁Ge	-10.72
spiel	-10.7214
▁ahead	-10.7215
▁Getränken	-10.7225
▁indoors	-10.7234
▁tief	-10.7244
cht	-10.7269
▁cla	-10.7273
▁stones	-10.7281
▁Aus	-10.729
▁cheer	-10.7367
ight	-10.7391
▁baskets	-10.7399
▁Er	-10.7434
▁tops	-10.7451
▁muzzle	-10.7466
▁dune	-10.7466
▁Pier	-10.7468
▁Verkauf	-10.7468
▁guitarist	-10.7471
▁doll	-10.7472
▁vendors	-10.7472
▁camp	-10.7476
▁paddle	-10.7477
▁craft	-10.7486
▁protest	-10.749
▁Speisen	-10.7492
▁Softball	-10.7496
▁dunkle	-10.7505
▁Hütte	-10.7514
▁Angelrute	-10.7518
▁Dinge	-10.7518
▁Man	-10.752
treten	-10.754
▁Restaurants	-10.7542
▁Gewehr	-10.7552
▁skateboards	-10.7557
▁free	-10.7557
reich	-10.7566
▁verschieden	-10.7567
▁Saxophon	-10.7576
▁daneben	-10.7577
fläche	-10.7578
sammelt	-10.7583
haus	-10.7591
köpfige	-10.7594
▁Mittag	-10.7597
Fußgängerüberweg	-10.7597
▁Balken	-10.7597
▁Flüssigkeit	-10.7597
▁Klettergerüst	-10.7597
▁celebrating	-10.7597
▁choir	-10.7597
▁fencing	-10.7597
▁flauschige	-10.7597
▁können	-10.7597
▁maroon	-10.7597
▁marschiert	-10.7597
▁patient	-10.7597
▁silhouette	-10.7597
▁verheiratete	-10.7597
▁wife	-10.7597
▁Teig	-10.7597
▁cobble	-10.7597
▁Bowlingkugel	-10.7597
▁Dreck	-10.7597
▁puppy	-10.7597
▁Chor	-10.7597
▁odd	-10.7597
▁dead	-10.7597
▁Schwimmweste	-10.7597
▁Lied	-10.7597
▁Strohhut	-10.7598
▁berühren	-10.7598
▁still	-10.7598
▁lamp	-10.7598
▁Puck	-10.7598
▁moment	-10.7598
▁bearbeitet	-10.7598
born	-10.7598
▁blondhaarige	-10.7599
▁Topf	-10.7599
▁squatting	-10.7599
▁Moped	-10.7599
▁outstretched	-10.76
▁Bänken	-10.76
▁eingezäunte	-10.76
▁dishes	-10.7604
▁handstand	-10.7605
▁Bowling	-10.7606
▁Rädern	-10.7606
▁clay	-10.7607
▁Arena	-10.761
▁amüsieren	-10.761
▁splashe	-10.7611
▁gehalten	-10.7611
▁hart	-10.7615
▁Rucksäcken	-10.7616
▁wrapp	-10.762
▁Wänden	-10.762
▁anhat	-10.762
▁herab	-10.7621
markt	-10.7624
▁space	-10.7629
▁Fotografen	-10.7629
▁cast	-10.7631
▁slides	-10.7647
einander	-10.7661
▁leicht	-10.7673
▁teen	-10.7673
▁Regenschirmen	-10.7677
▁anzu	-10.7698
▁overlook	-10.7705
▁po	-10.7712
▁crafts	-10.7718
ma	-10.7727
anlage	-10.7741
▁passende	-10.7747
▁seats	-10.7768
▁relax	-10.7774
able	-10.7779
▁Traktor	-10.7781
▁cool	-10.7794
▁Feuerwehrm	-10.7843
schild	-10.7885
▁runter	-10.7891
▁ha	-10.7903
▁skates	-10.7918
ller	-10.7961
▁glückliche	-10.7997
▁mop	-10.7999
▁plac	-10.8006
▁buckets	-10.8018
is	-10.803
▁Treppen	-10.8039
▁Outfits	-10.8046
▁Rennauto	-10.8048
▁bottles	-10.8053
uff	-10.8054
▁firetruck	-10.8054
▁Musikinstrument	-10.8058
▁storefront	-10.8059
▁ribbon	-10.806
▁broom	-10.806
▁doctor	-10.8061
▁tourist	-10.8067
▁finger	-10.8068
▁seltsame	-10.8069
▁vegetable	-10.8069
▁belt	-10.8073
▁spring	-10.8086
▁us	-10.8093
ure	-10.8102
mütze	-10.8114
▁tätowierte	-10.8118
▁order	-10.8125
▁geöffnete	-10.8132
▁Stift	-10.8155
▁Gitarrist	-10.8158
▁Skulptur	-10.816
▁Zeitschrift	-10.8161
▁wrestle	-10.8162
straße	-10.8167
▁excited	-10.8182
▁Leder	-10.8184
▁chalk	-10.8185
▁Grün	-10.8185
utdoor	-10.8185
flops	-10.8186
▁Becken	-10.8186
▁Bluejeans	-10.8186
▁Gespräch	-10.8186
▁Plattform	-10.8186
▁Sandstrand	-10.8186
▁Schubkarre	-10.8186
▁Silhouette	-10.8186
▁Tafel	-10.8186
▁begutachtet	-10.8186
▁furniture	-10.8186
▁gebeugt	-10.8186
▁gegenseitig	-10.8186
▁library	-10.8186
▁pizza	-10.8186
▁schwenkt	-10.8186
▁similar	-10.8186
▁sofa	-10.8186
▁spoon	-10.8186
▁füllt	-10.8186
▁nächste	-10.8186
▁glatzköpfige	-10.8186
▁carving	-10.8186
▁conference	-10.8186
▁mohawk	-10.8186
▁Surfboard	-10.8186
▁Abendessen	-10.8186
▁calf	-10.8186
▁rink	-10.8186
▁Zement	-10.8186
▁Schwimmbad	-10.8186
▁fisherman	-10.8186
▁scenery	-10.8186
▁iron	-10.8186
▁castle	-10.8187
▁Gewänder	-10.8187
▁sucht	-10.8188
▁Kies	-10.8188
▁birthday	-10.8188
▁Schlafanzug	-10.8189
▁Fußballfeld	-10.8189
▁dreadlocks	-10.819
▁richtet	-10.8191
▁kaut	-10.8192
▁tower	-10.8192
tt	-10.8193
▁steckt	-10.8193
▁brennende	-10.8194
▁first	-10.8194
Sicherheitsweste	-10.8198
▁dish	-10.8198
▁derby	-10.8201
▁Rollerblades	-10.8204
▁bass	-10.8205
▁Kerzen	-10.8205
▁crew	-10.8206
▁treffen	-10.8209
▁stretching	-10.8209
▁amid	-10.8216
▁flachen	-10.8232
▁stripes	-10.8243
▁Gewässers	-10.8246
▁zweite	-10.8247
v	-10.8252
▁pan	-10.8255
ecurity	-10.8258
pped	-10.8261
if	-10.8261
▁coloring	-10.8276
▁gas	-10.8284
▁lounge	-10.8288
bildschirm	-10.829
ker	-10.8297
▁stares	-10.83
eiter	-10.8311
▁tags	-10.8321
▁Plakat	-10.8328
▁smokes	-10.8335
▁aber	-10.8343
band	-10.8358
▁sch	-10.8364
▁Afroamerikaner	-10.8374
▁wi	-10.8397
▁bite	-10.8399
▁ethnic	-10.8425
isch	-10.845
▁boxing	-10.8469
▁Turnerin	-10.8485
▁receiv	-10.8487
ling	-10.8493
▁Turner	-10.851
▁vi	-10.8516
hosen	-10.8533
▁wheels	-10.8537
▁style	-10.8541
▁halb	-10.8572
one	-10.8575
farbigen	-10.859
▁tattoos	-10.8595
▁wrap	-10.8626
▁draw	-10.8645
▁bowls	-10.8651
sten	-10.8672
verkäufer	-10.8681
▁motorbike	-10.8683
▁snack	-10.8686
▁barrel	-10.8687
▁banner	-10.8687
▁member	-10.8696
▁apartment	-10.87
▁knit	-10.8701
leicht	-10.8708
▁u	-10.8714
tered	-10.8727
▁Geldbörse	-10.8727
▁ho	-10.8728
▁Esel	-10.8729
Oberteil	-10.8729
Hemd	-10.8729
▁Motorroller	-10.8731
▁Robe	-10.8732
▁item	-10.8737
▁sweep	-10.8738
▁Grimasse	-10.8738
▁Fahne	-10.874
stone	-10.8743
E	-10.8752
▁entgegen	-10.8763
▁Werkzeug	-10.8767
rennen	-10.8767
▁rast	-10.8782
▁Sängerin	-10.8791
▁hid	-10.8796
▁Bike	-10.8799
▁branch	-10.8804
▁Tarn	-10.8805
ical	-10.8807
▁Verkäufer	-10.8807
seite	-10.8809
▁kahl	-10.8811
▁Kalb	-10.8811
▁LKW	-10.8811
▁London	-10.8811
▁Plastiktüte	-10.8811
▁altmodische	-10.8811
▁emergency	-10.8811
▁gymnasium	-10.8811
▁jewelry	-10.8811
▁kopfüber	-10.8811
▁liquid	-10.8811
▁london	-10.8811
▁numer	-10.8811
▁silberfarbene	-10.8811
▁television	-10.8811
▁unicycle	-10.8811
▁Lächeln	-10.8811
▁Löffel	-10.8811
▁entspannen	-10.8811
▁partially	-10.8811
▁Waschsalon	-10.8811
▁europe	-10.8811
▁intently	-10.8811
▁converse	-10.8811
▁stairway	-10.8811
▁dimly	-10.8811
▁Wettrennen	-10.8811
▁crane	-10.8811
▁engine	-10.8811
▁return	-10.8811
▁Brandung	-10.8811
▁nighttime	-10.8811
▁Frisbeescheibe	-10.8811
▁Hilfe	-10.8811
▁untersuchen	-10.8812
▁Blumenmuster	-10.8812
▁hotel	-10.8812
▁dazu	-10.8812
▁trainieren	-10.8812
▁Fahrt	-10.8813
▁Sportwagen	-10.8813
▁Taucher	-10.8813
▁planscht	-10.8813
▁overhead	-10.8813
▁schweißt	-10.8814
▁marschieren	-10.8814
▁Umhang	-10.8814
▁Feuerwehrmann	-10.8814
▁fegt	-10.8814
▁theater	-10.8814
▁Wasserflasche	-10.8814
▁tend	-10.8815
wirbelt	-10.8815
▁Jeansjacke	-10.8815
▁peek	-10.8816
▁barber	-10.8816
▁Grasfläche	-10.8816
▁noch	-10.8819
▁beißt	-10.8819
▁material	-10.8819
▁statt	-10.8819
▁pret	-10.882
▁Mitglieder	-10.882
▁Messer	-10.8821
▁füttert	-10.8824
▁rollt	-10.8825
▁Spielkleidung	-10.8825
▁cop	-10.8826
▁Röcken	-10.8826
▁moped	-10.8828
▁wad	-10.8828
▁bewölkten	-10.8832
findet	-10.8837
▁Palmen	-10.8841
▁link	-10.8842
▁calm	-10.8842
▁aufgestellt	-10.8846
▁tied	-10.8846
▁pigeons	-10.8861
▁vorne	-10.8864
▁following	-10.8876
▁teach	-10.8878
▁farbenfroher	-10.8878
▁tackle	-10.8878
gt	-10.8879
▁candles	-10.8885
ler	-10.8896
▁Herren	-10.89
▁listens	-10.8901
▁trailer	-10.8906
stellt	-10.8924
ber	-10.8934
go	-10.8938
▁guitars	-10.8946
▁wandern	-10.8958
▁Geschäften	-10.8968
▁bu	-10.8983
▁Schwert	-10.9004
▁rais	-10.9016
bends	-10.902
schieben	-10.9025
▁engage	-10.9025
▁cape	-10.9028
ary	-10.9033
▁balding	-10.9039
▁microphones	-10.9049
ce	-10.9065
▁fliegende	-10.9071
▁chefs	-10.9089
▁farbige	-10.9098
▁parkt	-10.9099
trick	-10.9102
raum	-10.9107
lt	-10.9116
▁pieces	-10.913
▁japanische	-10.9141
▁thin	-10.9164
▁Tricks	-10.9192
▁admir	-10.9201
▁tea	-10.9236
rying	-10.9236
▁bars	-10.9239
▁control	-10.9246
▁Dies	-10.9262
▁viewing	-10.9264
▁angel	-10.9269
▁surrounding	-10.9274
▁Schafe	-10.9275
▁fliegen	-10.9275
▁Sitz	-10.9277
▁verlassen	-10.928
led	-10.9322
▁doors	-10.9328
▁Start	-10.9328
▁Ton	-10.9341
▁share	-10.9343
▁breite	-10.9343
▁electronic	-10.9346
▁Taxi	-10.9349
▁headband	-10.935
▁elephant	-10.9352
▁necklace	-10.9353
▁teammate	-10.9354
▁camel	-10.9354
ggy	-10.9364
▁loung	-10.9364
▁got	-10.9369
sleeve	-10.9384
▁horn	-10.9386
▁Kapuze	-10.9394
▁Vögel	-10.9403
▁Motorräder	-10.9406
▁tee	-10.9406
▁Stufe	-10.9407
▁jet	-10.9414
anz	-10.9433
▁protect	-10.944
▁ähnlich	-10.9448
▁Renn	-10.9453
▁langhaarige	-10.9454
▁überprüf	-10.9454
▁Beine	-10.9457
▁selbst	-10.9458
▁contain	-10.9459
falls	-10.9465
kleid	-10.9469
▁corn	-10.9472
▁visit	-10.9474
neath	-10.9475
wendet	-10.9476
linie	-10.9477
▁Dorf	-10.9477
▁Bandana	-10.9477
▁Floß	-10.9477
▁Händler	-10.9477
▁Klassenraum	-10.9477
▁Kreide	-10.9477
▁Mülltonne	-10.9477
▁advertising	-10.9477
▁bückt	-10.9477
▁diskutieren	-10.9477
▁scheinbar	-10.9477
▁stomach	-10.9477
▁target	-10.9477
▁terrain	-10.9477
▁übergewichtige	-10.9477
▁Piste	-10.9477
▁downtown	-10.9477
▁learn	-10.9477
▁joggen	-10.9477
▁bundle	-10.9477
▁näht	-10.9477
▁rainbow	-10.9477
▁Mittagessen	-10.9477
▁Ziegelmauer	-10.9477
▁billboard	-10.9477
▁chew	-10.9477
▁Bogen	-10.9477
▁Reifenschaukel	-10.9477
▁reinigen	-10.9477
▁festhält	-10.9478
kurs	-10.9478
▁verdeckt	-10.9478
▁verlässt	-10.9478
▁lick	-10.9478
▁Moment	-10.9478
▁starren	-10.9478
▁Tribüne	-10.9478
▁Violine	-10.9478
▁pottery	-10.9478
▁Maulkorb	-10.9478
▁forward	-10.9479
▁Feder	-10.9479
▁Flur	-10.9479
▁bespritzt	-10.948
▁Elefanten	-10.948
▁Kran	-10.948
▁factory	-10.9481
▁Badewanne	-10.9481
▁exit	-10.9481
▁world	-10.9481
▁wischt	-10.9481
▁Feuerwehrleute	-10.9481
▁Fahrgeschäft	-10.9481
▁observing	-10.9481
▁jubeln	-10.9481
▁bewundert	-10.9482
▁fireman	-10.9482
▁befahrene	-10.9482
▁Waldweg	-10.9482
▁bekommen	-10.9483
▁treibt	-10.9484
▁dekoriert	-10.9485
▁nasse	-10.9485
▁Sportkleidung	-10.9486
▁called	-10.9486
▁Torhüter	-10.9487
▁Köche	-10.9487
▁Poster	-10.9489
▁Flöte	-10.9496
▁Ast	-10.9498
▁official	-10.9498
▁computers	-10.9499
▁Büschen	-10.95
more	-10.95
▁pine	-10.9507
▁Laufen	-10.9508
▁flute	-10.951
▁shakes	-10.9511
we	-10.9511
▁ober	-10.9512
▁crosses	-10.9512
▁engen	-10.9513
▁Ohren	-10.9515
▁fur	-10.9519
▁far	-10.9527
▁Welpen	-10.9535
▁Karten	-10.9537
Eishockeyspieler	-10.9537
▁Schildern	-10.9542
▁la	-10.9553
▁Baumes	-10.9558
▁beat	-10.9566
▁protesting	-10.9567
fahren	-10.9579
▁follows	-10.9591
glas	-10.9603
▁th	-10.9607
▁Schirmen	-10.961
▁objects	-10.963
▁swimmers	-10.9632
▁reflecti	-10.9649
▁Schleife	-10.9651
▁Flaschen	-10.9651
anie	-10.9659
▁dad	-10.9663
▁catcher	-10.9663
fahrt	-10.9664
▁Snowboardfahre	-10.9665
▁directions	-10.9666
helm	-10.9684
▁shades	-10.9688
▁Kleider	-10.97
▁acht	-10.9703
braunen	-10.971
▁kn	-10.9713
▁schlafende	-10.9715
▁focus	-10.9715
▁hoops	-10.9716
▁hübsche	-10.9746
▁bekleidet	-10.9754
▁Einrad	-10.9755
odium	-10.9764
▁lines	-10.9794
▁Stangen	-10.9799
▁weiter	-10.9799
▁geschminkte	-10.9803
▁Cowboys	-10.9813
▁sta	-10.9818
▁goldene	-10.9833
▁plates	-10.9835
drückt	-10.9854
▁Videospiel	-10.9862
▁su	-10.9875
▁Tanzen	-10.9882
▁Decken	-10.989
O	-10.9898
ähnliche	-10.9919
▁rod	-10.9943
▁operate	-10.9967
▁Tennisspielerin	-10.9979
▁turns	-10.9981
▁follow	-10.9998
ite	-11.0002
▁Rück	-11.0017
▁nets	-11.0023
▁ausgestreckt	-11.0024
▁shovels	-11.0024
▁abzu	-11.0025
▁Pe	-11.0025
▁act	-11.003
▁Volleyballspiel	-11.0035
▁gift	-11.0054
▁hug	-11.0055
▁Schiff	-11.0062
▁feather	-11.0064
▁pillow	-11.0071
▁passenger	-11.0073
▁trunk	-11.0074
▁Ab	-11.0075
▁sprinkler	-11.0076
lar	-11.0082
über	-11.0103
▁size	-11.0105
▁Süßigkeiten	-11.011
▁me	-11.0117
▁silberne	-11.012
▁verschneite	-11.0121
▁Kiste	-11.013
gerät	-11.0142
▁Deck	-11.0147
▁nah	-11.0147
voll	-11.0161
arbeiter	-11.0163
förmige	-11.0165
▁hike	-11.0168
▁bik	-11.0173
▁Rauch	-11.0174
▁whil	-11.0183
▁patch	-11.0186
bild	-11.0187
▁Kunststoff	-11.0192
▁Pfadfinder	-11.0192
▁Bibliothek	-11.0192
▁Breakdance	-11.0192
▁Fernglas	-11.0192
▁Locken	-11.0192
▁Museum	-11.0192
▁Schmutz	-11.0192
▁Tablett	-11.0192
▁Zöpfen	-11.0192
▁aufmerksam	-11.0192
▁exercise	-11.0192
▁gleichzeitig	-11.0192
▁schlammige	-11.0192
▁slightly	-11.0192
▁wheelbarrow	-11.0192
▁örtliche	-11.0192
▁Innenstadt	-11.0192
▁Schmuck	-11.0192
▁Trainer	-11.0192
▁airborne	-11.0192
▁consist	-11.0192
▁ponytail	-11.0192
▁Stehen	-11.0192
▁Badezimmer	-11.0192
▁drinnen	-11.0192
▁aisle	-11.0192
▁steel	-11.0192
▁Aufführung	-11.0192
▁weaving	-11.0192
▁bewegen	-11.0192
▁hindurch	-11.0192
▁snowsuit	-11.0192
▁Stirnband	-11.0192
▁scoop	-11.0192
▁fetch	-11.0192
▁poor	-11.0192
▁gewickelt	-11.0192
▁kilt	-11.0192
▁Akustikgitarre	-11.0192
▁Asiatinnen	-11.0192
▁Krankenhaus	-11.0192
▁landet	-11.0193
▁feiert	-11.0193
küche	-11.0193
▁Marktplatz	-11.0193
▁homeless	-11.0194
▁spielerisch	-11.0194
▁Streifen	-11.0195
▁job	-11.0195
▁firemen	-11.0195
▁uniformierte	-11.0195
▁beginnt	-11.0195
▁webt	-11.0195
▁formation	-11.0196
▁binoculars	-11.0197
▁nature	-11.0198
▁vorbeigeht	-11.0198
▁tug	-11.0199
▁Show	-11.0201
▁Pitcher	-11.0201
ruhen	-11.0201
▁Lager	-11.0201
▁Radrennen	-11.0203
▁entlanggeht	-11.0204
spielzeug	-11.0206
▁Rettungswesten	-11.021
▁Fest	-11.0212
▁complete	-11.0222
▁rollerblades	-11.0223
▁Ringer	-11.0223
▁brows	-11.0224
▁greifen	-11.0224
▁Häusern	-11.0227
▁Hocker	-11.023
▁Tauben	-11.0232
▁photographed	-11.024
blaue	-11.0241
▁leger	-11.0245
ace	-11.0248
▁parents	-11.025
hose	-11.0252
▁ruhigen	-11.0253
▁Köpfen	-11.0254
weil	-11.0267
▁Grimassen	-11.0275
park	-11.0275
▁Blättern	-11.0308
ious	-11.0329
▁Asiatische	-11.0357
▁wrappe	-11.0379
▁Club	-11.0391
▁einge	-11.0392
▁nieder	-11.042
▁sowi	-11.0422
▁zubereitet	-11.0446
▁careful	-11.0448
▁repairs	-11.0458
▁Balls	-11.047
▁athletes	-11.0476
▁tin	-11.0484
▁performers	-11.0484
▁photos	-11.0491
▁training	-11.0491
▁guns	-11.0503
▁stehend	-11.0543
▁burn	-11.0589
ig	-11.0597
il	-11.0603
▁beleuchtet	-11.0604
▁Szene	-11.061
▁papers	-11.0634
▁gelbbraune	-11.066
▁skiers	-11.0664
▁Dudelsack	-11.0672
▁aussehen	-11.0713
fahrzeug	-11.0732
▁Profi	-11.0734
▁dünne	-11.077
fährt	-11.0797
▁sp	-11.0799
▁Ei	-11.08
braune	-11.0817
▁Papiere	-11.0833
▁barrier	-11.0835
▁Ozean	-11.0838
▁shadow	-11.084
▁Luftballon	-11.0842
▁customer	-11.0843
▁jede	-11.0845
▁ausgestellt	-11.0845
▁Netze	-11.0846
▁Fels	-11.0848
ische	-11.0852
▁Tattoo	-11.0853
P	-11.0859
▁farmer	-11.0863
▁tents	-11.0866
weight	-11.0874
Station	-11.0875
Zeichen	-11.0877
▁bounc	-11.0878
shorts	-11.0879
statue	-11.0881
lit	-11.0881
▁Wange	-11.0884
gehen	-11.0886
▁Stöcke	-11.0888
▁Karte	-11.0889
▁Stühle	-11.0891
ack	-11.0896
elt	-11.0897
block	-11.0897
▁entertain	-11.0906
cular	-11.091
▁Kamel	-11.0915
▁Roll	-11.0919
▁Handschuh	-11.0921
▁Tee	-11.0922
▁Außen	-11.0924
▁tropi	-11.0925
zahl	-11.0933
ac	-11.0944
▁Figur	-11.0946
▁Natur	-11.0959
▁dunk	-11.0959
▁exhibit	-11.096
▁Anhänger	-11.0961
▁Asien	-11.0961
▁Ballerina	-11.0961
▁Pudel	-11.0961
▁Strickmütze	-11.0961
▁Turban	-11.0961
▁Versammlung	-11.0961
▁Vortrag	-11.0961
▁Werkstatt	-11.0961
▁autumn	-11.0961
▁burgundy	-11.0961
▁debris	-11.0961
▁groceries	-11.0961
▁jubelt	-11.0961
▁rickshaw	-11.0961
▁sailboat	-11.0961
▁sniff	-11.0961
▁Gymnastik	-11.0961
▁lacrosse	-11.0961
▁dusk	-11.0961
▁gemusterte	-11.0961
▁Kettensäge	-11.0961
▁Laborkittel	-11.0961
▁bleachers	-11.0961
▁score	-11.0961
▁chainsaw	-11.0961
▁Bauarbeiten	-11.0961
▁Pferdeschw	-11.0961
▁loom	-11.0961
▁crawl	-11.0961
▁geschmückt	-11.0961
▁Marathonläufer	-11.0961
▁oven	-11.0961
haube	-11.0961
▁Golfball	-11.0961
▁Halstuch	-11.0961
▁gestikuliert	-11.0961
▁bilden	-11.0961
▁semi	-11.0961
▁cello	-11.0961
▁Stern	-11.0961
▁spotted	-11.0962
Gesichtsbemalung	-11.0962
▁attention	-11.0962
▁Inline	-11.0963
buch	-11.0963
▁lecture	-11.0964
▁brauen	-11.0964
▁wings	-11.0964
▁Film	-11.0964
▁Achterbahn	-11.0965
▁klatscht	-11.0965
▁telephone	-11.0965
▁Fänger	-11.0965
▁ceremony	-11.0965
▁dough	-11.0965
▁tv	-11.0966
▁sneakers	-11.0966
▁messy	-11.0967
▁mug	-11.0967
▁movie	-11.0968
▁Uhr	-11.0969
▁waterfront	-11.097
▁Video	-11.097
▁pay	-11.0971
▁coaster	-11.0972
▁tape	-11.0974
▁bystanders	-11.0976
▁Inlineskates	-11.0976
▁studying	-11.0976
▁bound	-11.0978
▁waterway	-11.0983
▁Maler	-11.0989
▁leckt	-11.0991
▁Biker	-11.0993
▁bank	-11.0993
▁praying	-11.0994
▁besucht	-11.0999
▁fold	-11.1001
▁Cafe	-11.1012
C	-11.1018
▁bo	-11.1019
▁lower	-11.1024
▁meeting	-11.1029
▁malen	-11.103
▁graben	-11.103
▁Bällen	-11.1032
▁geöffnet	-11.1033
▁gestures	-11.1034
▁Schilder	-11.1036
▁eben	-11.1042
and	-11.1047
▁backs	-11.1057
▁Hochzeitskleid	-11.1061
▁eggs	-11.1063
all	-11.1103
▁grillen	-11.1109
▁landing	-11.1121
▁Fingern	-11.1122
▁machines	-11.1122
▁arch	-11.1136
▁prob	-11.1137
▁formelle	-11.1151
▁observes	-11.117
▁Seilen	-11.117
▁Polizei	-11.1175
waschen	-11.118
▁create	-11.1207
partment	-11.122
▁fu	-11.1221
▁vorbereitet	-11.1234
▁houses	-11.124
▁bra	-11.1245
iz	-11.1261
▁Kunstwerke	-11.1263
▁los	-11.1275
▁Hotel	-11.1283
ard	-11.1291
▁wh	-11.1298
▁streich	-11.1317
▁ex	-11.1319
▁beladen	-11.1321
▁laptops	-11.1349
▁knien	-11.1362
▁shops	-11.1373
▁funn	-11.1386
▁tires	-11.1387
▁real	-11.1405
▁Spiels	-11.1409
▁fashion	-11.1418
▁ja	-11.142
the	-11.1425
▁He	-11.1463
team	-11.1468
▁flips	-11.1494
ok	-11.1496
fest	-11.1498
▁sail	-11.1502
▁Kindes	-11.1503
▁ro	-11.1512
▁fo	-11.1522
os	-11.1522
▁pl	-11.1537
▁strap	-11.1538
▁Tiere	-11.154
▁appl	-11.156
▁bedeckte	-11.157
ach	-11.1608
▁caps	-11.1612
▁listen	-11.1617
artige	-11.1632
▁nass	-11.1637
▁cups	-11.1649
▁Säugling	-11.1656
▁Radfahrern	-11.1661
▁boulder	-11.1662
▁chicken	-11.1662
▁Heißluftballon	-11.1666
▁suitcase	-11.1666
▁lang	-11.1684
Kostüm	-11.1686
▁wate	-11.1693
▁Mützen	-11.1705
tag	-11.1711
gelb	-11.1713
Hut	-11.1713
▁sha	-11.1713
ier	-11.1715
american	-11.1716
iger	-11.1718
▁Kette	-11.172
▁meet	-11.1721
▁scaffold	-11.1721
▁Bälle	-11.1722
▁Produkte	-11.1722
▁Köpfe	-11.1722
▁Welpe	-11.1722
▁Gürtel	-11.1722
▁Hüte	-11.1723
▁Knie	-11.1723
grauen	-11.1724
▁Linie	-11.1725
werk	-11.1737
träger	-11.174
▁Sonnenschirm	-11.1746
▁rollerskat	-11.1747
▁spin	-11.1749
▁range	-11.1752
light	-11.1755
▁Bo	-11.1755
nzende	-11.1756
▁juggle	-11.1767
com	-11.1767
▁skater	-11.177
▁Tätowierung	-11.177
▁Bewegung	-11.1772
▁Herz	-11.1772
▁chopp	-11.1774
▁Rugby	-11.1776
rand	-11.1778
▁Straßenmusik	-11.178
▁seichte	-11.1782
▁Schach	-11.1784
▁Beleuchtung	-11.1787
▁Part	-11.1787
▁stare	-11.1787
▁Co	-11.1787
▁tut	-11.1789
▁ga	-11.1789
▁Zu	-11.1789
fenster	-11.179
▁Herbst	-11.1791
▁tur	-11.1791
▁process	-11.1793
▁Konferenz	-11.1794
▁Hafen	-11.1794
▁Operation	-11.1794
▁Lacrosse	-11.1794
▁Teilnehmer	-11.1794
▁descend	-11.1794
quoi	-11.1794
▁Früchte	-11.1794
▁Kellner	-11.1794
▁Vergnügungspark	-11.1794
▁Während	-11.1794
▁backdrop	-11.1794
▁bamboo	-11.1794
▁banjo	-11.1794
▁beisammen	-11.1794
▁elektrische	-11.1794
▁experiment	-11.1794
▁knife	-11.1794
▁merchandise	-11.1794
▁paddeln	-11.1794
▁poodle	-11.1794
▁puppies	-11.1794
▁sauber	-11.1794
▁second	-11.1794
▁spanish	-11.1794
▁support	-11.1794
▁trolley	-11.1794
▁trübe	-11.1794
▁unique	-11.1794
▁Nebel	-11.1794
▁aufgereiht	-11.1794
▁celebration	-11.1794
▁cheese	-11.1794
▁deutsche	-11.1794
▁forehead	-11.1794
▁prüft	-11.1794
▁schnitzt	-11.1794
▁umpire	-11.1794
▁DJ	-11.1794
▁Lieferwagen	-11.1794
▁Rikscha	-11.1794
▁juice	-11.1794
▁kümmert	-11.1794
▁Treppenstufen	-11.1794
▁Waschbecken	-11.1794
▁angeboten	-11.1794
▁lernt	-11.1794
▁Spaziergang	-11.1794
▁blood	-11.1794
▁schützen	-11.1794
▁yoga	-11.1794
▁rollerblading	-11.1794
▁Warte	-11.1794
▁Apfel	-11.1794
▁Board	-11.1794
▁knall	-11.1794
▁Stahl	-11.1794
▁Haltung	-11.1794
▁Badeanzügen	-11.1794
▁USA	-11.1794
▁Home	-11.1794
▁clapping	-11.1794
▁stoop	-11.1795
▁Theater	-11.1795
▁Betonwand	-11.1795
▁brother	-11.1795
▁herumstehen	-11.1795
▁chess	-11.1795
▁Arzt	-11.1795
▁location	-11.1795
▁paperwork	-11.1795
▁soap	-11.1795
▁Schulkinder	-11.1795
▁abgestellt	-11.1795
▁begleitet	-11.1795
▁Sprungbrett	-11.1795
▁countryside	-11.1795
▁alleyway	-11.1795
Maschendrahtzaun	-11.1795
science	-11.1796
▁Sicht	-11.1796
▁teal	-11.1796
▁case	-11.1796
muster	-11.1796
▁wheelie	-11.1797
▁highway	-11.1798
▁Fabrik	-11.1798
▁monument	-11.1798
▁strange	-11.1798
▁john	-11.1798
▁motion	-11.1798
▁Wasserrutsche	-11.1799
▁Freundin	-11.1799
▁Autobahn	-11.1799
▁bush	-11.18
▁reflektierende	-11.18
▁label	-11.18
▁pigtails	-11.18
▁shoppers	-11.18
▁Modell	-11.18
▁glä	-11.1801
▁Tänzerin	-11.1801
▁schmale	-11.1802
▁Knöpfen	-11.1804
▁Fecht	-11.1804
▁mow	-11.1804
▁ansieht	-11.1805
▁tun	-11.1805
▁Sandwich	-11.1805
▁Banner	-11.1806
▁wares	-11.1807
▁story	-11.1808
▁Laster	-11.1809
▁gepunkteten	-11.181
▁Einkäufer	-11.181
▁screaming	-11.1811
▁mower	-11.1812
▁putzen	-11.1813
▁Tätowierungen	-11.1818
ue	-11.182
▁mehrfarbige	-11.1824
▁packt	-11.1825
made	-11.1826
▁Mitarbeiter	-11.1828
▁Fußballteam	-11.1828
▁ballet	-11.1831
▁gymnastics	-11.1831
▁suchen	-11.1832
▁Gesichtern	-11.1832
▁tropische	-11.1833
▁bagpipes	-11.1842
▁stir	-11.1848
▁Geräten	-11.1849
▁Klasse	-11.186
▁vordere	-11.1861
▁creat	-11.1861
▁olympics	-11.1884
▁bemalten	-11.1894
▁my	-11.1895
▁aneinander	-11.1911
▁rust	-11.1912
▁legen	-11.1913
▁Ba	-11.1913
▁Türen	-11.1914
▁shadows	-11.1927
▁pillows	-11.1938
▁Trommeln	-11.1938
▁painter	-11.1949
▁incline	-11.1958
▁Kleinkinder	-11.1965
▁paddles	-11.1984
korb	-11.1988
▁beverages	-11.1991
▁Schüsseln	-11.1996
▁Schul	-11.2015
▁wires	-11.2016
▁fröhlich	-11.2021
eben	-11.2024
▁dra	-11.2037
▁featur	-11.2039
▁lo	-11.2057
ößt	-11.206
▁Freu	-11.2063
▁di	-11.2074
ick	-11.2081
▁orientalisch	-11.2096
ned	-11.2109
ky	-11.2126
▁fremde	-11.2127
▁knees	-11.2132
ef	-11.2161
llen	-11.2171
▁Rohr	-11.2174
dem	-11.2192
▁ungewöhnliche	-11.2207
laufen	-11.2222
aking	-11.2224
sam	-11.2225
▁shower	-11.2231
▁Kerle	-11.2234
uck	-11.2237
brett	-11.2253
▁Booten	-11.2259
▁Computern	-11.2262
▁scooters	-11.2284
▁Dreirad	-11.2291
▁gemacht	-11.2294
▁Hi	-11.2303
od	-11.2307
▁Bade	-11.2326
stuhl	-11.2333
▁V	-11.2339
▁gr	-11.2349
ate	-11.2371
▁Golf	-11.2372
▁power	-11.2401
▁ca	-11.2415
▁blankets	-11.2427
war	-11.243
▁sil	-11.2433
▁newspapers	-11.246
licht	-11.2483
A	-11.2489
▁niedrige	-11.2495
teilen	-11.2495
▁ra	-11.2509
▁tackl	-11.2511
▁fr	-11.2521
▁schreiben	-11.2525
▁mark	-11.2526
▁Dr	-11.253
mannschaften	-11.2531
▁typ	-11.2532
ierten	-11.2538
▁aufgeregt	-11.2538
▁spike	-11.2547
style	-11.2548
▁Un	-11.2565
▁tricycle	-11.2565
▁trip	-11.2565
vo	-11.257
▁celebrate	-11.2572
wand	-11.2575
▁parachute	-11.2575
▁soda	-11.2577
▁tray	-11.2579
▁cheek	-11.258
▁Karton	-11.2581
▁egg	-11.2583
▁firefighter	-11.2585
▁Unter	-11.2594
führen	-11.26
tur	-11.2602
wohl	-11.2604
dress	-11.2607
schaut	-11.2607
▁Alter	-11.2608
bedeckte	-11.2617
Outfit	-11.2621
Geschäft	-11.2622
▁diver	-11.2624
▁Waffe	-11.2626
▁Einkaufstasche	-11.2629
vor	-11.2629
▁Auge	-11.2633
folding	-11.2642
▁Kugel	-11.2648
▁altes	-11.2648
rd	-11.266
rampe	-11.2662
▁ba	-11.2666
▁Wakeboard	-11.2673
▁Schlauchboot	-11.2676
▁test	-11.2677
schlag	-11.2679
ag	-11.268
▁flache	-11.2681
que	-11.2683
▁Wach	-11.2685
▁weather	-11.2685
▁Wette	-11.2686
▁coast	-11.269
▁Saxofon	-11.2692
▁Ballett	-11.2694
▁Scheibe	-11.2697
skulptur	-11.2699
boden	-11.27
▁torch	-11.2702
▁collect	-11.2702
▁Flug	-11.2702
oberteil	-11.2702
▁comfort	-11.2703
▁Bordstein	-11.2703
uarterback	-11.2703
wettbewerb	-11.2703
▁Beachvolleyball	-11.2703
▁Erzeugnisse	-11.2703
▁Pizza	-11.2703
▁Händchen	-11.2703
▁John	-11.2703
▁Pink	-11.2703
▁Rahmen	-11.2703
▁Türöffnung	-11.2703
▁Ureinwohner	-11.2703
▁Vorrichtung	-11.2703
▁Zylinder	-11.2703
▁aqua	-11.2703
▁attraktive	-11.2703
▁auditorium	-11.2703
▁gefleckte	-11.2703
▁gesprungen	-11.2703
▁handrail	-11.2703
▁huddle	-11.2703
▁laundromat	-11.2703
▁möglicherweise	-11.2703
▁parallel	-11.2703
▁passersby	-11.2703
▁präsentiert	-11.2703
▁rapids	-11.2703
▁rifle	-11.2703
▁rückwärts	-11.2703
▁sammeln	-11.2703
▁schütteln	-11.2703
▁serviert	-11.2703
▁staubige	-11.2703
▁unusual	-11.2703
▁vergnügt	-11.2703
▁verteilt	-11.2703
▁Felsvorsprung	-11.2703
▁Ofen	-11.2703
▁Webstuhl	-11.2703
▁arcade	-11.2703
▁surgery	-11.2703
Baseballschläger	-11.2703
▁pilot	-11.2703
▁Lagerfeuer	-11.2703
▁Lasso	-11.2703
▁Telefonzelle	-11.2703
▁quarterback	-11.2703
▁Untergrund	-11.2703
▁Erdhügel	-11.2703
▁every	-11.2703
▁Vorderseite	-11.2703
▁unordentlich	-11.2703
▁Cello	-11.2703
▁Aussicht	-11.2703
▁separate	-11.2703
▁Horn	-11.2703
▁medium	-11.2703
▁supplies	-11.2703
▁expression	-11.2703
▁underwear	-11.2703
▁human	-11.2703
▁pedal	-11.2703
▁grauhaarige	-11.2703
▁Karussell	-11.2704
▁Rosa	-11.2704
Krankenschwester	-11.2704
▁Kante	-11.2704
▁abgeworfen	-11.2704
▁rice	-11.2704
▁Dock	-11.2704
▁Brettspiel	-11.2704
▁artwork	-11.2704
▁City	-11.2704
▁teilnehmen	-11.2704
▁butcher	-11.2704
▁suspenders	-11.2704
▁Holzbank	-11.2704
▁chalkboard	-11.2704
ansammlung	-11.2704
▁chatting	-11.2704
▁schwingen	-11.2704
▁Geländewagen	-11.2704
▁politi	-11.2704
▁rally	-11.2704
▁china	-11.2705
▁schlecht	-11.2705
ieren	-11.2705
▁Tracht	-11.2705
▁Acht	-11.2705
▁besteht	-11.2705
▁shoreline	-11.2705
▁Obststand	-11.2705
▁descent	-11.2705
▁lens	-11.2705
▁injured	-11.2706
▁sunlight	-11.2706
▁grand	-11.2706
▁Fußballdress	-11.2706
Saiteninstrument	-11.2706
▁stall	-11.2706
▁joy	-11.2706
▁Redner	-11.2706
füllen	-11.2707
▁cowboys	-11.2707
▁yarn	-11.2707
▁Smoking	-11.2707
▁Namen	-11.2707
▁Kragen	-11.2708
▁visible	-11.2708
▁Experiment	-11.2708
▁schwebt	-11.2708
▁texas	-11.2708
▁rudern	-11.2708
▁transportiert	-11.2708
▁Fass	-11.2709
▁fell	-11.2709
▁Eiscreme	-11.2709
▁company	-11.271
▁Gericht	-11.2711
dj	-11.2711
▁Ruder	-11.2712
▁single	-11.2712
▁Perlen	-11.2714
▁angebracht	-11.2715
ein	-11.2715
▁Stunt	-11.2716
▁Schlagmann	-11.2716
▁folded	-11.2718
▁Boxer	-11.2719
▁Gläsern	-11.2721
▁Turnschuhen	-11.2721
▁Gehen	-11.2721
▁guide	-11.2721
▁Post	-11.2722
▁Must	-11.2723
▁fern	-11.2725
▁menu	-11.2726
▁Stab	-11.2727
▁treiben	-11.2727
▁langärmeligen	-11.2728
▁closely	-11.2731
▁geschnitten	-11.2731
▁bietet	-11.2732
▁salon	-11.2732
▁snowshoes	-11.2732
▁ador	-11.2737
tuch	-11.2739
▁carve	-11.2739
▁Röhre	-11.274
strecken	-11.2742
▁ange	-11.2747
gespannt	-11.275
▁Lippen	-11.2753
▁scouts	-11.2756
rlich	-11.2756
stürzt	-11.2759
ak	-11.2766
▁Sieg	-11.2767
▁Säulen	-11.277
▁handle	-11.2771
ize	-11.2782
▁lifted	-11.2784
▁tights	-11.2802
▁hut	-11.2814
▁crossed	-11.2819
▁thumbs	-11.2827
▁camping	-11.2829
ap	-11.2834
▁Tal	-11.2834
▁skaters	-11.2842
▁Orangen	-11.2847
▁bras	-11.285
▁stepp	-11.2851
▁Gegenständen	-11.2854
ched	-11.2861
▁squat	-11.2869
als	-11.2871
Straßenverkäufer	-11.2897
▁Fußgängern	-11.29
▁Gitarren	-11.2905
▁Fischen	-11.2905
▁races	-11.2905
▁frei	-11.2909
len	-11.2916
stellung	-11.2919
▁press	-11.2921
hand	-11.2922
rmel	-11.2927
▁lighted	-11.293
▁motorcyclists	-11.2932
▁Helme	-11.294
▁Kameras	-11.2961
▁magazines	-11.2967
landschaft	-11.2969
▁fein	-11.297
▁kayaking	-11.2989
▁swimsuits	-11.2991
lot	-11.3023
▁cree	-11.3029
zeug	-11.303
ungen	-11.3038
▁khakis	-11.3039
▁logs	-11.3051
▁Clowns	-11.3051
▁rings	-11.3059
▁watched	-11.306
ke	-11.3076
decke	-11.3085
▁Maschinen	-11.3104
▁Paare	-11.311
G	-11.3111
▁Gruppen	-11.3111
I	-11.3115
▁Bad	-11.3117
▁Lebensmitteln	-11.3123
ron	-11.3126
▁Laptops	-11.3134
tritt	-11.314
rench	-11.3165
▁port	-11.3183
▁Sonnen	-11.3196
▁floats	-11.3206
ily	-11.3219
▁offer	-11.3233
aus	-11.3243
▁furr	-11.3246
▁been	-11.3256
▁classic	-11.3291
ding	-11.3293
▁Hoch	-11.3296
▁sandige	-11.3317
halt	-11.3318
ent	-11.3321
gging	-11.3343
▁fa	-11.3348
▁goldfarbene	-11.3369
▁va	-11.3376
wood	-11.3378
▁bricks	-11.3378
rimmed	-11.3385
ziehen	-11.339
▁Windhund	-11.3391
▁heavi	-11.3406
tro	-11.3409
▁gathers	-11.3431
▁mus	-11.3439
lten	-11.3439
▁Kricket	-11.3444
ity	-11.3446
▁Nah	-11.3447
▁cans	-11.3451
▁verzierte	-11.3457
schau	-11.3457
▁bräunliche	-11.3463
zelt	-11.3465
▁carts	-11.3474
▁spä	-11.3479
▁picks	-11.3509
▁bedruckte	-11.3523
ti	-11.3524
ert	-11.3549
▁cage	-11.3556
▁leotard	-11.3565
▁portrait	-11.3565
▁treat	-11.3566
▁service	-11.357
of	-11.3572
bing	-11.3578
▁ticket	-11.3579
▁hotdog	-11.3579
ro	-11.3579
▁upward	-11.3581
▁thumb	-11.3582
rischen	-11.3583
▁goat	-11.3583
▁candle	-11.3584
▁geparkte	-11.3593
▁Top	-11.3596
▁gaze	-11.3597
house	-11.3598
▁monitor	-11.3601
bad	-11.3604
▁soll	-11.3605
läuft	-11.3616
Scheibe	-11.3618
D	-11.3618
folgt	-11.3619
▁even	-11.362
Kleidung	-11.3622
schlafen	-11.3622
▁march	-11.3624
▁Kasse	-11.3625
▁Eishockey	-11.3625
zieht	-11.3626
▁Halskette	-11.3626
▁vacuum	-11.3627
▁punch	-11.3627
ummer	-11.3628
body	-11.363
▁Reis	-11.363
▁Ente	-11.363
▁Säule	-11.363
▁asia	-11.3633
▁Pflanze	-11.3635
▁pre	-11.3637
▁Lade	-11.3642
▁news	-11.365
▁Handschuhe	-11.3656
▁Puppe	-11.3661
▁Kreuz	-11.3671
▁spanische	-11.3674
▁Schnur	-11.3674
▁amüsier	-11.3679
▁rag	-11.3685
▁versch	-11.3692
schutz	-11.3693
ribal	-11.3696
▁cab	-11.3697
▁headdress	-11.3699
scheibe	-11.37
schminkt	-11.3701
▁mexic	-11.3702
behälter	-11.3702
▁Banjo	-11.3703
▁apart	-11.3703
stange	-11.3703
▁sculpt	-11.3703
▁Bambus	-11.3703
enaissance	-11.3703
▁Demonstrant	-11.3703
digkeit	-11.3703
ffentlichkeit	-11.3703
wissenschaftlich	-11.3703
▁Ampel	-11.3703
▁Auslage	-11.3703
▁Axt	-11.3703
▁Bergsteiger	-11.3703
▁Dämmerung	-11.3703
▁Fontäne	-11.3703
▁Hoodie	-11.3703
▁Leggings	-11.3703
▁Obdachlose	-11.3703
▁Olympische	-11.3703
▁Pullunder	-11.3703
▁Schaulustige	-11.3703
▁Stelzen	-11.3703
▁Verteidiger	-11.3703
▁activity	-11.3703
▁bewaldete	-11.3703
▁canvas	-11.3703
▁contraption	-11.3703
▁digital	-11.3703
▁earphones	-11.3703
▁elektronische	-11.3703
▁embracing	-11.3703
▁erhobene	-11.3703
▁gallery	-11.3703
▁helicopter	-11.3703
▁highchair	-11.3703
▁leggings	-11.3703
▁maintenance	-11.3703
▁medizinische	-11.3703
▁militärische	-11.3703
▁monk	-11.3703
▁morning	-11.3703
▁neugeborene	-11.3703
▁schneit	-11.3703
▁senior	-11.3703
▁valley	-11.3703
▁waist	-11.3703
▁wakeboard	-11.3703
▁Hüfte	-11.3703
▁Zahn	-11.3703
▁frozen	-11.3703
▁kratzt	-11.3703
▁ließt	-11.3703
▁trifft	-11.3703
▁Reklametafel	-11.3703
▁abgebildet	-11.3703
▁blazer	-11.3703
▁canad	-11.3703
▁jeep	-11.3703
▁monkey	-11.3703
▁erklimmen	-11.3703
▁bockende	-11.3703
▁border	-11.3703
▁lobby	-11.3703
▁snap	-11.3703
▁verwenden	-11.3703
▁Käse	-11.3703
▁Strumpfhose	-11.3703
▁hawaiian	-11.3703
▁trashcan	-11.3703
▁bouquet	-11.3703
▁sideways	-11.3703
▁Freizeitpark	-11.3703
▁Kilt	-11.3703
▁Klappstuhl	-11.3703
▁spotlight	-11.3703
▁stolz	-11.3703
▁acrobatic	-11.3703
▁Gipfel	-11.3703
▁tripod	-11.3703
▁dumpster	-11.3703
▁transportation	-11.3703
▁Bruder	-11.3703
▁fischt	-11.3703
▁Waschmaschine	-11.3703
▁Ziegelwand	-11.3703
▁jeweil	-11.3703
▁festgebunden	-11.3703
▁riot	-11.3704
▁Esstisch	-11.3704
▁Unterhemd	-11.3704
▁mischt	-11.3704
▁Mülleimer	-11.3704
▁Essensstand	-11.3704
▁Turm	-11.3704
▁stilts	-11.3704
▁Ziellinie	-11.3704
▁facility	-11.3704
▁year	-11.3704
▁Steintreppe	-11.3704
▁workshop	-11.3704
▁unterrichtet	-11.3704
▁Metallstange	-11.3704
▁Landstraße	-11.3704
▁Holzzaun	-11.3704
▁College	-11.3704
▁driveway	-11.3704
▁dig	-11.3704
▁Straßenseite	-11.3705
▁löschen	-11.3705
▁Bord	-11.3705
▁Holzboden	-11.3705
▁rutschen	-11.3705
▁than	-11.3705
▁Aufzug	-11.3705
▁quickly	-11.3706
▁rooftop	-11.3707
▁kauert	-11.3707
bändern	-11.3708
▁Namensschild	-11.3708
▁Kürbis	-11.3708
▁Leinwand	-11.3708
▁Swimmingpool	-11.3708
▁maneuver	-11.3708
▁Jeep	-11.3708
▁staff	-11.3709
▁section	-11.3709
boot	-11.3709
▁Afrikaner	-11.3709
▁meiste	-11.371
heruntergekommen	-11.3711
▁Khakihose	-11.3711
▁US	-11.3712
▁roadside	-11.3712
▁done	-11.3712
▁tutu	-11.3714
▁branches	-11.3714
▁Frisur	-11.3717
▁Präsentation	-11.3717
▁Feuerwehrauto	-11.3717
▁gebaut	-11.3717
▁approaches	-11.3718
▁einfach	-11.3718
▁workout	-11.3719
▁Gleisen	-11.372
▁größeren	-11.3721
▁fischen	-11.3723
▁Kostüme	-11.3724
▁tail	-11.3724
▁varie	-11.3725
▁Weihnachts	-11.3725
▁formt	-11.3725
▁venue	-11.3726
▁filmt	-11.3726
▁gesehen	-11.3727
illy	-11.373
▁interesting	-11.3731
▁streichen	-11.3735
▁scarves	-11.3735
▁Rugbyspieler	-11.3739
▁scrap	-11.3741
▁Gitarristen	-11.3746
▁Körben	-11.3746
▁washer	-11.3748
▁wer	-11.3755
▁nasser	-11.3756
▁deer	-11.3759
nterwäsche	-11.376
▁regne	-11.3762
▁Hallen	-11.3762
ierte	-11.3765
foto	-11.3765
▁battl	-11.3766
▁cr	-11.3775
▁passiert	-11.3775
▁sprayed	-11.3786
▁nurses	-11.3788
he	-11.3798
▁Stöcken	-11.38
▁cute	-11.3802
ress	-11.3804
▁Porträt	-11.3807
▁blocken	-11.3807
▁products	-11.3813
▁Handwerk	-11.3821
ast	-11.3821
▁Sommer	-11.3822
rau	-11.3823
Schutzausrüstung	-11.3825
▁dis	-11.3827
▁gazes	-11.3832
▁liegenden	-11.3835
▁navigate	-11.3842
ntfern	-11.3843
▁ausgebreitet	-11.3844
▁strike	-11.3881
garten	-11.3888
▁Shirts	-11.3894
▁Al	-11.3917
▁belts	-11.3918
▁Richtungen	-11.3928
▁Bootes	-11.3929
▁Bildern	-11.393
▁Ziegelsteine	-11.3938
▁rafting	-11.3941
▁locat	-11.3943
▁schlafend	-11.3943
ver	-11.3953
kampf	-11.3955
▁racers	-11.3971
▁hind	-11.3994
▁care	-11.4001
cial	-11.4001
▁pins	-11.401
▁mind	-11.4016
▁Schaf	-11.4021
▁ruhige	-11.4038
▁sc	-11.4043
fashioned	-11.4056
red	-11.406
▁pots	-11.4078
▁Fischernetz	-11.4094
▁await	-11.4105
▁smooth	-11.4106
▁Eimern	-11.411
▁Overalls	-11.4116
erkun	-11.4121
bau	-11.4127
▁flo	-11.4137
▁cards	-11.4148
▁Herrn	-11.4158
nel	-11.4177
▁cameras	-11.4185
hoe	-11.419
wed	-11.4203
▁helle	-11.4205
▁Tomaten	-11.4212
▁washe	-11.4219
▁comm	-11.4227
▁Um	-11.4228
maske	-11.4228
druck	-11.4271
ste	-11.4272
▁sh	-11.4288
▁lächelnden	-11.431
▁lachende	-11.4312
▁Segelboot	-11.4312
farbenen	-11.4346
▁ruhig	-11.4359
rot	-11.4379
▁Sa	-11.438
nny	-11.438
▁fröhliche	-11.4383
▁played	-11.4387
blau	-11.4395
set	-11.4406
▁Fahrrads	-11.4439
lose	-11.4457
▁pale	-11.4474
hen	-11.4491
ahl	-11.4493
▁Schneeschuhe	-11.4521
▁trucks	-11.4522
▁Flip	-11.4528
bung	-11.4544
pe	-11.4552
its	-11.4552
mauer	-11.4556
handschuh	-11.4557
ender	-11.456
schwarz	-11.4563
▁displays	-11.4578
sägt	-11.4583
▁Angel	-11.4588
tanz	-11.4591
▁angemalte	-11.4615
▁say	-11.4619
▁sleep	-11.4627
▁pumpkin	-11.4676
▁turban	-11.4676
▁task	-11.4677
▁reflection	-11.4678
▁diner	-11.4683
▁wig	-11.4684
▁state	-11.4689
▁product	-11.4694
▁olympic	-11.4694
▁tight	-11.4694
▁spot	-11.4694
öse	-11.4696
▁crash	-11.4702
R	-11.4707
▁late	-11.4708
▁sweat	-11.4711
▁splash	-11.4714
ature	-11.4723
Derby	-11.4724
▁mess	-11.4729
▁Kneipe	-11.4731
U	-11.4732
werfen	-11.4732
Mannschaft	-11.4733
striped	-11.4733
▁Aufnahme	-11.4735
▁Sessel	-11.4735
zw	-11.4736
▁Platte	-11.4737
▁würde	-11.4737
▁Schachtel	-11.474
▁kalte	-11.4743
▁steile	-11.4744
bo	-11.4745
▁begeistert	-11.4746
▁Lampe	-11.4747
▁america	-11.475
▁bicycl	-11.4753
▁gepflasterte	-11.4759
▁curve	-11.4762
▁drop	-11.4764
▁spazier	-11.4765
▁Box	-11.4766
▁Asiat	-11.4766
ular	-11.4767
▁own	-11.4769
▁numbers	-11.4773
eite	-11.4777
▁circu	-11.478
▁Rollschuh	-11.4786
figur	-11.4787
▁Student	-11.4791
▁gaz	-11.4791
stab	-11.4793
oga	-11.4793
▁east	-11.4795
▁darin	-11.4797
▁Mitglied	-11.4797
▁Hockeyspiel	-11.4799
▁Pfeil	-11.4801
most	-11.4801
party	-11.4803
▁Bohr	-11.4804
▁potato	-11.4807
▁Treppenhaus	-11.4807
▁Polo	-11.4808
▁Klein	-11.481
schnapp	-11.4811
wurf	-11.4813
pfad	-11.4813
▁Friseur	-11.4814
▁Einkaufs	-11.4814
kräfte	-11.4814
▁Freiluft	-11.4814
▁horizon	-11.4814
▁contest	-11.4814
▁Geschwi	-11.4814
▁sad	-11.4814
▁China	-11.4814
▁Halloween	-11.4814
▁Hamburger	-11.4814
▁Konstruktion	-11.4814
▁Mönch	-11.4814
▁Zusammen	-11.4814
▁sponge	-11.4814
kraft	-11.4814
technik	-11.4814
vorrichtung	-11.4814
▁Begeisterung	-11.4814
▁Betrachter	-11.4814
▁Beutel	-11.4814
▁Bündel	-11.4814
▁Garage	-11.4814
▁Irokesenschnitt	-11.4814
▁Lokal	-11.4814
▁Neugeborenes	-11.4814
▁afternoon	-11.4814
▁akustische	-11.4814
▁bathtub	-11.4814
▁belongings	-11.4814
▁breakdancing	-11.4814
▁built	-11.4814
▁bürste	-11.4814
▁cherry	-11.4814
▁chocolate	-11.4814
▁chopsticks	-11.4814
▁congregate	-11.4814
▁entfernen	-11.4814
▁foliage	-11.4814
▁gesturing	-11.4814
▁illuminat	-11.4814
▁kastanienbraune	-11.4814
▁muskul	-11.4814
▁möchte	-11.4814
▁shawl	-11.4814
▁squeez	-11.4814
▁umzäunte	-11.4814
▁vergnügen	-11.4814
▁vorführt	-11.4814
▁völlig	-11.4814
▁bedienen	-11.4814
▁cigar	-11.4814
▁dribbelt	-11.4814
▁pencil	-11.4814
ahrschein	-11.4814
▁Kapuzenpullover	-11.4814
▁Kraft	-11.4814
▁Schlafzimmer	-11.4814
▁religious	-11.4814
▁schmetter	-11.4814
▁umringt	-11.4814
▁Forscher	-11.4814
▁Gehstock	-11.4814
▁attracti	-11.4814
▁decorations	-11.4814
▁lasso	-11.4814
▁sparring	-11.4814
▁Wildwasser	-11.4814
▁nächtliche	-11.4814
▁Felsbrocken	-11.4814
▁Karohemd	-11.4814
▁mechanic	-11.4814
▁turkey	-11.4814
▁synchroniz	-11.4814
▁Bauernmarkt	-11.4814
▁Nachbarschaft	-11.4814
▁Nagel	-11.4814
▁unhappy	-11.4814
mitarbeiter	-11.4814
▁Darbietung	-11.4814
▁Plate	-11.4814
▁pinata	-11.4814
turnier	-11.4814
▁beret	-11.4814
▁Morgen	-11.4815
▁unload	-11.4815
▁bedroom	-11.4815
▁Oberfläche	-11.4815
▁Flipflops	-11.4815
▁Verkaufsstand	-11.4815
▁tournament	-11.4815
▁Polohemd	-11.4815
▁folgen	-11.4815
▁letter	-11.4815
▁pretend	-11.4815
▁stump	-11.4815
▁Stativ	-11.4815
▁Wollmütze	-11.4815
▁getroffen	-11.4815
▁Flussufer	-11.4815
▁season	-11.4815
▁Außenbereich	-11.4815
▁butterfly	-11.4815
▁Sandburg	-11.4815
▁daran	-11.4815
▁Laufbahn	-11.4815
▁want	-11.4815
▁protestiert	-11.4815
▁Ansicht	-11.4815
▁Mitspieler	-11.4815
▁content	-11.4815
▁Spiegelbild	-11.4815
▁braid	-11.4815
▁gelangen	-11.4815
▁raincoat	-11.4815
▁Sari	-11.4815
▁sari	-11.4815
▁sledding	-11.4815
▁Ziegelgebäude	-11.4815
▁Tanzfläche	-11.4815
▁Kampfsportler	-11.4816
▁Tennisplatz	-11.4816
▁french	-11.4816
▁Sandhügel	-11.4816
▁Rasenfläche	-11.4816
▁sonnen	-11.4816
▁icy	-11.4816
▁ausgezogen	-11.4817
▁langärmlige	-11.4817
▁gemalt	-11.4817
▁Käfig	-11.4817
▁cott	-11.4817
▁erreichen	-11.4818
dach	-11.4818
▁Wohnung	-11.4818
▁Wasserbecken	-11.4818
▁Musikgruppe	-11.4819
▁trench	-11.4819
▁Nachrichten	-11.4819
▁pathway	-11.4819
pult	-11.4819
▁cannon	-11.4819
▁Stromschnellen	-11.4819
▁jack	-11.4819
▁bevor	-11.482
▁Bass	-11.482
▁mur	-11.482
▁Parcours	-11.482
▁bindet	-11.482
▁schlendert	-11.482
▁schützt	-11.482
▁cycling	-11.482
▁Studio	-11.482
▁checkers	-11.4821
▁gefangen	-11.4821
zzy	-11.4821
▁too	-11.4821
▁Grau	-11.4821
▁Werfer	-11.4822
▁Kopfschmuck	-11.4823
▁grasp	-11.4824
▁hook	-11.4826
▁scen	-11.4826
▁Patienten	-11.4827
▁Einkaufstüten	-11.4828
▁Wolken	-11.4828
▁upset	-11.4828
▁Fische	-11.4829
▁anhaben	-11.4829
▁Skate	-11.483
▁fasst	-11.483
▁cave	-11.4832
▁miss	-11.4834
▁gleiche	-11.4834
▁rostige	-11.4834
▁bestellen	-11.4835
▁Groß	-11.4835
▁industri	-11.4836
▁hervor	-11.4836
tch	-11.4836
▁Hinterbeinen	-11.4836
▁larger	-11.4837
▁parasailing	-11.4837
loch	-11.4837
▁Wasserfläche	-11.4837
▁angehalten	-11.4838
▁Texas	-11.484
▁dieselbe	-11.484
▁Großer	-11.4843
▁Fahrzeuge	-11.4843
▁Flügeln	-11.4845
▁brushes	-11.4848
▁love	-11.485
▁protesters	-11.4852
▁heraushängen	-11.4853
▁Tim	-11.4853
▁überprüfen	-11.4856
▁Blasen	-11.4857
▁wieder	-11.4859
▁think	-11.4859
▁Zeitschriften	-11.4862
▁pads	-11.4865
ift	-11.4868
▁angezogener	-11.487
▁schaukel	-11.487
mäht	-11.4873
▁writes	-11.4877
▁jogs	-11.488
▁fishes	-11.4884
▁klaren	-11.4888
▁lighting	-11.4893
▁shad	-11.4894
▁crates	-11.4895
▁heller	-11.4896
▁Puppen	-11.4897
▁begins	-11.491
späht	-11.4911
▁Flusses	-11.4913
▁camper	-11.4915
▁win	-11.4915
▁Ausstellung	-11.4921
▁employees	-11.4924
▁displayed	-11.4944
▁Station	-11.4944
▁hübschen	-11.4948
▁weight	-11.4953
▁engag	-11.496
▁waiter	-11.4961
▁Bildes	-11.4966
▁Kartons	-11.4968
▁si	-11.4976
ä	-11.4989
Holzkonstruktion	-11.4997
▁boxen	-11.4998
ated	-11.4999
▁farmers	-11.4999
▁Mi	-11.5002
wart	-11.5008
konstruktion	-11.501
▁bl	-11.5036
as	-11.5048
▁Wa	-11.5059
ges	-11.5062
▁scale	-11.5083
ence	-11.5085
▁jumper	-11.509
▁package	-11.5099
▁designs	-11.5099
▁dot	-11.5105
acht	-11.5113
ltere	-11.5128
▁ducks	-11.5128
hinter	-11.5131
▁Verkehrs	-11.5141
▁historische	-11.5142
▁sw	-11.5157
▁'	-11.5158
▁verlassene	-11.516
▁ta	-11.5165
▁types	-11.5168
▁farbenfroh	-11.5169
▁Windhunde	-11.5175
▁gardening	-11.518
stück	-11.5238
▁Re	-11.5269
▁holen	-11.5272
▁booths	-11.5279
ally	-11.5293
▁ma	-11.5301
steigen	-11.5312
ted	-11.5326
dy	-11.5334
▁boards	-11.5337
▁oranger	-11.5346
rt	-11.5348
▁clouds	-11.5355
erry	-11.536
▁Am	-11.5363
▁Schürzen	-11.5382
▁Bauwerk	-11.54
▁violett	-11.543
▁receive	-11.5432
ond	-11.5434
▁clowns	-11.5446
rädern	-11.5461
▁tow	-11.5466
▁geschminkt	-11.5468
▁eng	-11.5469
artender	-11.5497
▁Straßenarbeite	-11.5503
▁Gummi	-11.5509
▁Streich	-11.5521
nd	-11.5526
ra	-11.5527
▁broad	-11.5554
▁bestehend	-11.5582
▁str	-11.5587
▁schwimmende	-11.5588
▁baum	-11.5602
farbene	-11.5615
▁rake	-11.5619
▁freien	-11.5625
grün	-11.5629
▁albern	-11.5644
▁uns	-11.5644
icht	-11.5655
▁Mo	-11.5663
och	-11.5677
▁plain	-11.5696
▁gerichtet	-11.5721
halten	-11.5735
▁J	-11.5737
nen	-11.5744
geben	-11.5772
▁dunkel	-11.5786
ett	-11.5793
▁muss	-11.5808
turn	-11.5814
zeichen	-11.5824
▁aprons	-11.5832
V	-11.5854
▁Mit	-11.5855
▁text	-11.5861
recht	-11.5872
▁sip	-11.588
▁squa	-11.5885
ant	-11.5889
▁games	-11.5893
erin	-11.5899
ränkte	-11.5906
▁Babys	-11.5907
▁blaugrüne	-11.5917
▁pocket	-11.5926
▁notebook	-11.5926
▁dump	-11.5931
▁Snack	-11.5933
▁Hotdog	-11.5938
▁gown	-11.5939
▁rug	-11.594
▁column	-11.5941
▁employee	-11.5942
▁gesture	-11.5944
▁spritzen	-11.5948
essen	-11.5948
▁stripe	-11.5952
ried	-11.5954
▁angezogene	-11.5956
▁nail	-11.5956
▁Fliege	-11.5961
▁call	-11.5966
sion	-11.5968
her	-11.5968
mount	-11.5971
cause	-11.5974
coat	-11.5976
▁Papa	-11.5981
▁säuber	-11.5981
lauf	-11.5982
wirft	-11.5983
Band	-11.5983
▁find	-11.5983
paved	-11.5984
▁Halle	-11.5991
▁klein	-11.5993
▁Pfanne	-11.5993
hammer	-11.5993
▁Fackel	-11.5994
▁Stiefel	-11.5994
▁india	-11.5994
▁Taube	-11.5995
▁Seifenblase	-11.5995
▁waterski	-11.5995
▁La	-11.5997
▁Passagiere	-11.6004
▁speaker	-11.6008
▁Schlittschuh	-11.6018
zusehen	-11.6019
▁Turn	-11.6023
▁Fahrradhelm	-11.6025
▁Produkt	-11.6026
▁Pilot	-11.6034
▁Schritt	-11.6034
▁erhält	-11.6039
▁medi	-11.6042
▁harvest	-11.6044
ock	-11.605
▁Protest	-11.6052
▁Footballspiel	-11.6054
kopf	-11.6054
schnüffelt	-11.6056
▁quiet	-11.6057
▁wade	-11.6057
saugt	-11.6058
▁Wind	-11.606
▁main	-11.6061
sichtig	-11.6063
▁Ober	-11.6063
edient	-11.6063
schüssel	-11.6063
▁Picknick	-11.6064
lannel	-11.6064
zentrum	-11.6064
▁Volks	-11.6064
▁Batman	-11.6064
▁Wasch	-11.6064
gefahren	-11.6064
klahoma	-11.6064
▁Oldtimer	-11.6064
▁Walmart	-11.6064
▁elaborate	-11.6064
▁vibrant	-11.6064
Flops	-11.6064
amaha	-11.6064
ylophon	-11.6064
▁Aktentasche	-11.6064
▁Baumstumpf	-11.6064
▁Buchstaben	-11.6064
▁Fotograph	-11.6064
▁Fächer	-11.6064
▁Glatze	-11.6064
▁Gleichgewicht	-11.6064
▁Horizont	-11.6064
▁Hängematte	-11.6064
▁Jogger	-11.6064
▁Monopoly	-11.6064
▁Pistole	-11.6064
▁Unfall	-11.6064
▁Verschiedene	-11.6064
▁Zahnbürste	-11.6064
▁Zeremonie	-11.6064
▁Zigarre	-11.6064
▁accident	-11.6064
▁babies	-11.6064
▁befindliche	-11.6064
▁blühende	-11.6064
▁briefcase	-11.6064
▁chisel	-11.6064
▁citizen	-11.6064
▁complex	-11.6064
▁connect	-11.6064
▁dekorative	-11.6064
▁destination	-11.6064
▁dinosaur	-11.6064
▁dirigier	-11.6064
▁erklimmt	-11.6064
▁faulenzen	-11.6064
▁gefrorene	-11.6064
▁gewinnen	-11.6064
▁halloween	-11.6064
▁handbag	-11.6064
▁hochhackige	-11.6064
▁hydrant	-11.6064
▁kanadische	-11.6064
▁kämpft	-11.6064
▁mannequin	-11.6064
▁monopoly	-11.6064
▁olive	-11.6064
▁powder	-11.6064
▁pyramid	-11.6064
▁register	-11.6064
▁rührt	-11.6064
▁sample	-11.6064
▁schwenken	-11.6064
▁scientist	-11.6064
▁skull	-11.6064
▁telefonieren	-11.6064
▁toothbrush	-11.6064
▁treadmill	-11.6064
▁tuxedo	-11.6064
▁victory	-11.6064
▁walmart	-11.6064
▁warehouse	-11.6064
▁welche	-11.6064
▁xylophone	-11.6064
▁öffnen	-11.6064
▁Dunkelheit	-11.6064
▁Kaffeetasse	-11.6064
▁Marmor	-11.6064
▁laboratory	-11.6064
▁nun	-11.6064
▁Backflip	-11.6064
▁Blaskapelle	-11.6064
▁Europa	-11.6064
▁Supermarkt	-11.6064
▁Wildnis	-11.6064
▁ascend	-11.6064
▁beißen	-11.6064
▁element	-11.6064
▁greet	-11.6064
▁hammock	-11.6064
▁harmonica	-11.6064
rosscountry	-11.6064
▁Gurt	-11.6064
▁Müllcontainer	-11.6064
▁marble	-11.6064
▁Backsteinmauer	-11.6064
▁Staub	-11.6064
▁envi	-11.6064
▁scrubs	-11.6064
▁Badekappe	-11.6064
▁campfire	-11.6064
▁establishment	-11.6064
▁tarp	-11.6064
kante	-11.6064
▁eingewickelt	-11.6064
▁Garn	-11.6064
▁turtle	-11.6064
▁Billard	-11.6064
▁easel	-11.6064
▁lernen	-11.6064
bluse	-11.6064
▁Schlucht	-11.6064
▁Vorführung	-11.6064
▁schlanke	-11.6064
▁krabbel	-11.6064
▁Mopp	-11.6064
▁conductor	-11.6064
▁Reparatur	-11.6064
▁darüber	-11.6064
▁tracksuit	-11.6064
richter	-11.6064
schlendern	-11.6064
▁Randstein	-11.6064
▁surg	-11.6065
▁Smartphone	-11.6065
▁flame	-11.6065
▁Hochstuhl	-11.6065
▁Sommertag	-11.6065
▁Sonnenlicht	-11.6065
▁Wippe	-11.6065
▁einheimische	-11.6065
▁hispanic	-11.6065
▁coca	-11.6065
▁bib	-11.6065
▁Klapp	-11.6065
▁Pfeife	-11.6065
▁Oberhemd	-11.6065
▁Ziegelbau	-11.6065
▁Geldautomaten	-11.6065
▁wonder	-11.6065
▁mittelgroße	-11.6065
▁Rosen	-11.6065
▁split	-11.6065
▁irgendwo	-11.6065
▁casino	-11.6065
▁Feuerstelle	-11.6065
▁compan	-11.6065
▁Laufband	-11.6065
▁Grünfläche	-11.6065
▁Neben	-11.6065
▁Spielsachen	-11.6065
▁Steinbank	-11.6065
▁Blonde	-11.6065
▁rack	-11.6065
▁stance	-11.6065
▁Straßenszene	-11.6065
▁Betonmauer	-11.6065
▁Hosenträgern	-11.6065
zündet	-11.6065
▁underground	-11.6065
▁yell	-11.6065
▁cries	-11.6065
agle	-11.6065
▁abandoned	-11.6066
▁shout	-11.6066
▁Regenbogen	-11.6066
▁Straßenfest	-11.6066
▁Fischmarkt	-11.6066
▁Zeichnung	-11.6066
▁Waffel	-11.6066
league	-11.6066
▁Indien	-11.6066
▁daytime	-11.6066
▁bowtie	-11.6066
▁earth	-11.6066
▁geflochtene	-11.6066
▁Kaufhaus	-11.6066
▁clut	-11.6067
▁projector	-11.6067
▁nine	-11.6067
▁Holzbrett	-11.6067
▁lion	-11.6067
▁rush	-11.6067
▁Sporthalle	-11.6067
▁Baseballfeld	-11.6067
▁flock	-11.6067
▁capture	-11.6067
▁pony	-11.6067
▁Wassersprenger	-11.6067
▁batman	-11.6067
▁vend	-11.6068
▁series	-11.6068
▁somewhere	-11.6068
▁ausländische	-11.6068
son	-11.6069
▁angle	-11.6069
▁stretches	-11.6069
▁organ	-11.6069
orangefarbenen	-11.607
▁Straßenrennen	-11.607
▁ausgeschnittene	-11.607
▁downhill	-11.6071
▁Stadtpark	-11.6071
▁High	-11.6071
▁aquarium	-11.6071
▁gespielt	-11.6071
▁lohfarbene	-11.6071
▁Elmo	-11.6071
▁Videokamera	-11.6071
▁Wanne	-11.6071
▁hüpfen	-11.6071
▁sprüht	-11.6071
▁elmo	-11.6071
▁verwirrt	-11.6072
▁OP	-11.6072
Bahnstation	-11.6072
▁Osten	-11.6072
▁entwe	-11.6072
▁Rettungs	-11.6072
▁plank	-11.6073
▁burgunderrote	-11.6073
▁Erd	-11.6073
flug	-11.6075
gestürzte	-11.6075
haltung	-11.6076
▁Anweisungen	-11.6076
▁betet	-11.6076
▁gelegenen	-11.6076
▁logo	-11.6076
▁Fernseher	-11.6077
ze	-11.6079
▁con	-11.6079
▁cheerlead	-11.6079
▁our	-11.6082
▁measur	-11.6082
uell	-11.6084
▁Staubsauger	-11.6084
tlich	-11.6084
ston	-11.6087
▁canal	-11.6087
▁rosaroten	-11.6088
▁fat	-11.6089
▁bridesmaids	-11.609
▁force	-11.6091
▁hellgrünen	-11.6091
▁swan	-11.6098
▁Figuren	-11.6106
▁beads	-11.6106
▁judges	-11.6106
▁purchase	-11.6107
▁chin	-11.6108
▁tackled	-11.6109
▁richten	-11.6112
reichen	-11.6114
▁stay	-11.6114
ches	-11.6115
▁owner	-11.6116
▁Tüten	-11.6116
▁pause	-11.6117
▁Kittel	-11.6117
ntage	-11.6118
▁Rennfahrer	-11.6118
▁trockenen	-11.612
tery	-11.612
▁skies	-11.6122
liegenden	-11.6123
▁crayons	-11.6123
▁verleg	-11.6123
▁blockt	-11.6126
▁sortiert	-11.6126
▁mixer	-11.6126
▁Busses	-11.6127
▁brechen	-11.6129
▁Ziegen	-11.613
▁liegende	-11.6135
▁skatet	-11.6136
ugging	-11.6136
lassen	-11.6139
▁waterskiing	-11.6141
▁lips	-11.6141
▁Schachteln	-11.6149
▁Einsatz	-11.6151
▁Lampen	-11.6151
▁crashing	-11.6151
▁notes	-11.6153
▁panel	-11.6154
▁hellrote	-11.6163
ven	-11.6164
▁türkise	-11.6167
▁Hause	-11.6169
▁skills	-11.6172
▁wash	-11.6174
und	-11.6177
▁mehrfarbigen	-11.6179
▁columns	-11.6189
▁tour	-11.6194
▁Armee	-11.6202
▁colorfully	-11.6204
▁Vögeln	-11.6209
auto	-11.6219
station	-11.6222
▁zuhört	-11.6228
▁schicke	-11.6233
▁passt	-11.6235
▁hellgelbe	-11.6263
▁schaufeln	-11.627
▁Ozeans	-11.6273
▁carrier	-11.6286
robe	-11.6296
▁Fenstern	-11.63
▁camels	-11.6307
▁teammates	-11.6307
onster	-11.6316
▁Fahrzeugen	-11.6316
▁arrow	-11.6318
▁banners	-11.6323
▁Zelten	-11.6325
tik	-11.6344
▁Str	-11.6353
▁pu	-11.6355
▁zer	-11.6358
aving	-11.6359
▁strip	-11.639
▁j	-11.6399
▁tell	-11.64
▁Innen	-11.6402
size	-11.6403
▁leere	-11.6409
▁skinn	-11.642
feuert	-11.6422
▁peers	-11.6442
▁organiz	-11.6444
▁Zauns	-11.6457
▁gefüllte	-11.6482
handschuhe	-11.6488
▁sides	-11.6499
ner	-11.6542
▁guards	-11.6547
topf	-11.6557
▁dri	-11.6567
ligen	-11.6573
zimmer	-11.6588
▁hellblaue	-11.6602
▁beten	-11.6609
▁Flugzeugs	-11.6614
ll	-11.6615
▁probier	-11.6631
ney	-11.664
▁erleuchtete	-11.6643
▁Schmetterling	-11.6669
▁couples	-11.667
▁Rennens	-11.6671
▁leuchtende	-11.6676
▁divers	-11.6686
rock	-11.6716
außen	-11.6736
horn	-11.6755
▁keine	-11.6759
▁indianische	-11.676
llow	-11.6771
▁photographers	-11.6774
▁canoes	-11.6788
lichen	-11.6809
ußgängerübergang	-11.6821
erie	-11.6823
lei	-11.6854
▁erleuchtet	-11.6875
▁Teenagern	-11.6877
W	-11.6892
kun	-11.6894
stehenden	-11.6895
front	-11.6903
▁Le	-11.6912
▁artists	-11.6928
▁pe	-11.6931
▁purses	-11.6964
▁launch	-11.6972
▁flu	-11.6982
▁Stroh	-11.6984
▁gefallen	-11.6996
▁inner	-11.7007
ial	-11.7016
▁mini	-11.7035
▁spa	-11.7038
no	-11.7042
▁marineblaue	-11.7051
▁masks	-11.7054
F	-11.7061
itz	-11.7071
▁feature	-11.7076
▁cellphones	-11.7076
▁Schau	-11.7085
li	-11.7096
tiefeln	-11.7106
▁sunbath	-11.7109
▁hocken	-11.7112
▁times	-11.7163
▁herrliche	-11.7167
ld	-11.7167
ppy	-11.7178
ende	-11.7179
ota	-11.7189
ri	-11.7204
fahrrad	-11.7204
gebäude	-11.7209
ischer	-11.7218
▁segel	-11.7227
▁We	-11.7233
ade	-11.7238
▁Wander	-11.7252
bart	-11.7254
▁hills	-11.7261
▁strik	-11.7261
▁Cheerleaderin	-11.7263
▁flat	-11.7273
▁Wei	-11.7276
▁drape	-11.7279
amerikanische	-11.7289
▁begin	-11.7294
▁Block	-11.7306
kommen	-11.7321
gang	-11.7325
▁social	-11.7345
▁Ziege	-11.7349
▁Drink	-11.7355
▁twirl	-11.7355
▁türkis	-11.7361
▁pirate	-11.7361
▁mcdonald	-11.7365
▁defender	-11.7367
▁character	-11.7369
▁skill	-11.7371
▁scal	-11.7371
verkehr	-11.7372
▁Po	-11.7372
▁parent	-11.7373
▁pigeon	-11.7374
green	-11.7374
▁complet	-11.7378
▁nurse	-11.7385
▁crown	-11.7386
ell	-11.7387
schaukel	-11.7389
▁cheerleader	-11.7391
▁Hinter	-11.7402
back	-11.7406
stock	-11.7407
shape	-11.7411
girl	-11.7411
▁Winterjacke	-11.7411
durch	-11.7411
break	-11.7411
Wagen	-11.7411
Trikot	-11.7411
Park	-11.7412
camera	-11.7412
▁usa	-11.7412
▁Kabel	-11.7417
▁Warnweste	-11.7417
▁Kabine	-11.7418
vil	-11.7419
▁Häuser	-11.7421
▁Palme	-11.7421
▁deli	-11.7422
kette	-11.7422
cart	-11.7423
▁Dose	-11.7426
▁kunstvolle	-11.7427
unterricht	-11.7431
▁Halb	-11.7433
▁wir	-11.7437
▁crack	-11.7439
▁Eier	-11.7446
cent	-11.7446
▁Stadtszene	-11.7449
▁Bu	-11.745
end	-11.7454
automaten	-11.7457
bewegung	-11.7458
nsehen	-11.7461
caf	-11.7461
▁Plüschtier	-11.7463
▁Absperrung	-11.7463
ipping	-11.7463
gestreiften	-11.7464
▁Fang	-11.747
▁Frei	-11.747
▁bärtige	-11.747
▁sold	-11.747
weste	-11.7472
▁muslim	-11.7473
schlauch	-11.7474
▁Gleis	-11.7476
▁remove	-11.7479
nähe	-11.748
▁though	-11.7481
▁Khaki	-11.7481
▁weigh	-11.7481
▁Rast	-11.7482
▁fog	-11.7482
▁flow	-11.7483
▁Schnu	-11.7485
schmuck	-11.7485
treppe	-11.7487
▁Stamm	-11.7487
zaun	-11.7488
▁disc	-11.749
▁equ	-11.749
ffel	-11.7491
eginn	-11.7491
geländer	-11.7492
ritish	-11.7492
onfetti	-11.7492
▁Leucht	-11.7492
▁transport	-11.7492
brille	-11.7492
▁select	-11.7492
eopard	-11.7492
▁Sattel	-11.7493
▁Asphalt	-11.7493
▁Camping	-11.7493
▁Fliesen	-11.7493
▁Speer	-11.7493
uad	-11.7493
▁Plüsch	-11.7493
eimer	-11.7493
▁videotap	-11.7493
schlange	-11.7493
▁Alkohol	-11.7493
▁Apple	-11.7493
▁Baskenmütze	-11.7493
▁Blazer	-11.7493
▁Demonstration	-11.7493
▁Ereignis	-11.7493
▁Felsklippe	-11.7493
▁Filz	-11.7493
▁Fleck	-11.7493
▁Gletscher	-11.7493
▁Habseligkeiten	-11.7493
▁Huhn	-11.7493
▁Indianer	-11.7493
▁Jenga	-11.7493
▁Kaninchen	-11.7493
▁Kunstgalerie	-11.7493
▁Können	-11.7493
▁Mülltüte	-11.7493
▁Ochsen	-11.7493
▁Popcorn	-11.7493
▁Schwebebalken	-11.7493
▁Staffelei	-11.7493
▁Säge	-11.7493
▁Tauziehen	-11.7493
▁Töpferware	-11.7493
▁Violett	-11.7493
▁Wandmalerei	-11.7493
▁aufgeblasen	-11.7493
▁backseat	-11.7493
▁bleiben	-11.7493
▁bleibt	-11.7493
▁bulldozer	-11.7493
▁embrace	-11.7493
▁exercising	-11.7493
▁faulenzt	-11.7493
▁fedora	-11.7493
▁geflie	-11.7493
▁gepolsterte	-11.7493
▁grüß	-11.7493
▁harbor	-11.7493
▁husband	-11.7493
▁jenga	-11.7493
▁mascot	-11.7493
▁mattress	-11.7493
▁meadow	-11.7493
▁reception	-11.7493
▁snorkel	-11.7493
▁steinerne	-11.7493
▁supermarket	-11.7493
▁trophy	-11.7493
▁wilderness	-11.7493
▁zugewandt	-11.7493
▁Bagger	-11.7493
▁Dschungel	-11.7493
▁Felsformation	-11.7493
▁Friedenszeichen	-11.7493
▁Hawaii	-11.7493
▁Highschool	-11.7493
▁Schmink	-11.7493
▁bongo	-11.7493
▁temple	-11.7493
▁Schutt	-11.7493
▁Versuch	-11.7493
▁activities	-11.7493
▁expans	-11.7493
▁iPod	-11.7493
▁visor	-11.7493
▁genau	-11.7493
▁leitet	-11.7493
▁slacks	-11.7493
▁gießen	-11.7493
▁kümmern	-11.7493
▁Gokart	-11.7493
▁Großstadt	-11.7493
▁Nachmittag	-11.7493
▁Square	-11.7493
▁Tankstelle	-11.7493
▁Zebrastreifen	-11.7493
▁abgedunkelte	-11.7493
▁double	-11.7493
▁puppet	-11.7493
▁Innenhof	-11.7493
▁beendet	-11.7493
▁Getreide	-11.7493
▁Pizzeria	-11.7493
▁dessert	-11.7493
▁Backsteinstraße	-11.7493
▁Begriff	-11.7493
▁Information	-11.7493
▁cathedral	-11.7493
▁hackt	-11.7493
▁zahlreiche	-11.7493
▁Sims	-11.7493
▁Tempel	-11.7493
▁miniature	-11.7493
▁Coca	-11.7493
▁Bücherregal	-11.7493
▁Geldbeutel	-11.7493
▁Subway	-11.7493
▁lädt	-11.7493
▁radio	-11.7493
▁Pflasterstraße	-11.7493
▁religiöse	-11.7493
▁seafood	-11.7493
▁sister	-11.7493
▁Innenraum	-11.7493
▁Neon	-11.7493
▁resort	-11.7493
▁abgesperrt	-11.7493
▁Pinsel	-11.7493
▁Strom	-11.7493
▁dozen	-11.7493
▁buffet	-11.7493
▁strahlend	-11.7493
▁Ruderboot	-11.7493
▁maybe	-11.7493
▁mule	-11.7493
▁polish	-11.7493
▁Schuss	-11.7493
▁Fassade	-11.7493
▁search	-11.7493
▁Felsblock	-11.7493
▁Barkeeper	-11.7493
▁mexikanische	-11.7493
▁special	-11.7493
▁regelt	-11.7493
▁Ringkampf	-11.7493
▁Griff	-11.7493
▁trotting	-11.7493
▁Kinn	-11.7493
▁Modellflugzeug	-11.7493
▁Vorstellung	-11.7493
▁bodysuit	-11.7493
▁demonstration	-11.7493
▁crops	-11.7493
▁message	-11.7493
▁nipp	-11.7493
▁tablecloth	-11.7493
▁oil	-11.7493
▁gehüllt	-11.7493
eval	-11.7494
▁Wintertag	-11.7494
▁Torbogen	-11.7494
▁Speisekarte	-11.7494
▁Glastür	-11.7494
▁Seitenlinie	-11.7494
▁Wort	-11.7494
▁Kuss	-11.7494
▁Pass	-11.7494
▁trottet	-11.7494
▁hochgehoben	-11.7494
▁Stammeskleidung	-11.7494
▁schleift	-11.7494
▁Konfetti	-11.7494
▁claus	-11.7494
▁hochzuklettern	-11.7494
▁buckelnde	-11.7494
▁paw	-11.7494
▁burger	-11.7494
▁pig	-11.7494
▁extreme	-11.7494
Gesichtsausdruck	-11.7494
▁weißhaarige	-11.7494
schenkt	-11.7495
▁sunhat	-11.7495
▁clutch	-11.7495
▁starring	-11.7495
brot	-11.7495
▁hour	-11.7495
▁Krone	-11.7495
▁zielt	-11.7496
graue	-11.7496
▁Berglandschaft	-11.7496
▁Kamm	-11.7496
▁mic	-11.7496
▁hinweg	-11.7496
▁kill	-11.7496
▁woodland	-11.7496
▁plow	-11.7496
▁rustic	-11.7496
▁Objekte	-11.7497
▁skyline	-11.7497
▁Fe	-11.7497
▁oar	-11.7497
▁Kontrolle	-11.7497
theke	-11.7497
▁Footballfeld	-11.7497
▁Pult	-11.7498
▁Pri	-11.7498
▁Stelle	-11.7498
▁tippt	-11.7498
▁richtig	-11.7498
▁fasziniert	-11.7498
▁Graben	-11.7499
▁install	-11.7499
▁Brautjungfern	-11.7499
▁Baumstämmen	-11.7499
▁shack	-11.7499
▁versteckt	-11.7499
▁Imbiss	-11.7499
▁skydiving	-11.75
▁Betonstufen	-11.75
▁lackiert	-11.75
Vogelperspektive	-11.75
geräum	-11.75
▁Mon	-11.75
▁Umhänge	-11.75
▁europäische	-11.75
▁major	-11.75
▁terrier	-11.75
▁transit	-11.75
▁Einrichtung	-11.7501
▁Tutu	-11.7501
▁level	-11.7501
▁policemen	-11.7501
▁geschrieben	-11.7501
▁Food	-11.7501
▁Tischdecke	-11.7501
▁Betonplatte	-11.7502
▁mounted	-11.7502
▁armor	-11.7502
▁weinende	-11.7502
▁bump	-11.7502
▁interagieren	-11.7503
schließt	-11.7503
▁para	-11.7503
▁Rockband	-11.7503
▁zuhause	-11.7503
▁spend	-11.7503
▁Hundespielzeug	-11.7503
▁vorbeifahren	-11.7503
ltimate	-11.7504
▁fireworks	-11.7504
▁Basketballfeld	-11.7504
▁Sack	-11.7505
▁Fernsehen	-11.7505
▁rollerskates	-11.7505
▁gra	-11.7506
▁remov	-11.7507
▁Kartenspiel	-11.7507
netz	-11.7507
BH	-11.7507
▁colli	-11.7507
▁Kameramann	-11.7508
▁türkisfarbene	-11.7508
▁last	-11.7508
▁may	-11.7509
▁regnet	-11.7509
▁Schneeball	-11.7509
▁gehoben	-11.751
agged	-11.751
▁Noten	-11.751
stöcken	-11.751
▁blurr	-11.7511
▁Dress	-11.7511
gefeuert	-11.7511
▁Stil	-11.7513
▁steuert	-11.7513
▁lush	-11.7513
▁mountaintop	-11.7514
▁Schwester	-11.7514
▁ka	-11.7515
▁bring	-11.7516
▁marker	-11.7516
▁flash	-11.7517
▁Geländefahrzeug	-11.7517
▁Fangen	-11.7518
▁binden	-11.7518
▁topless	-11.7519
▁Aufschlag	-11.752
nude	-11.7521
▁Wasserstraße	-11.7522
▁tiger	-11.7522
▁Laternen	-11.7522
▁sidelines	-11.7522
▁conducting	-11.7523
▁boxer	-11.7524
▁getragen	-11.7527
▁soar	-11.7529
▁sooner	-11.753
▁schreiende	-11.753
▁fort	-11.7531
▁cameraman	-11.7532
▁historic	-11.7532
▁Bananen	-11.7534
▁Möwen	-11.7534
▁gek	-11.7534
▁Herzen	-11.7537
▁Fahrradrennen	-11.7539
▁Schlittschuhen	-11.7539
▁jar	-11.754
▁pflanzen	-11.754
▁überdachte	-11.7541
▁balg	-11.7541
bus	-11.7541
▁dunkelgrüne	-11.7541
▁dryer	-11.7542
▁Wetter	-11.7543
▁Wassermelonen	-11.7545
▁Van	-11.7546
▁axe	-11.7547
▁dropp	-11.7549
eister	-11.7554
▁dar	-11.7557
▁Besitzer	-11.7557
▁walker	-11.7558
▁patrons	-11.7561
▁lanterns	-11.7561
▁arrangement	-11.7563
▁Dosen	-11.7569
▁reicht	-11.7575
▁McDonalds	-11.758
▁bananas	-11.758
▁watermelons	-11.758
▁denkt	-11.7581
▁Blech	-11.7588
▁pops	-11.7588
▁mad	-11.7589
▁aufgenommen	-11.7591
▁Passagieren	-11.7594
▁bounce	-11.7595
▁Boots	-11.7598
▁peaks	-11.7598
▁traurig	-11.7599
▁punching	-11.7606
▁vacuuming	-11.7606
▁Enten	-11.7607
▁Kopfstein	-11.7611
▁Einkaufstaschen	-11.7615
▁Waffen	-11.7617
▁characters	-11.7619
▁Ketten	-11.7627
▁Knien	-11.7627
ingham	-11.7628
▁rauchend	-11.7637
ei	-11.7644
mittelalterliche	-11.7648
halter	-11.7651
zunehmen	-11.7657
▁laufende	-11.766
▁prepared	-11.7661
▁elevat	-11.7672
▁Schauspieler	-11.7677
▁hotdogs	-11.7677
▁monitors	-11.7678
▁ingr	-11.768
▁award	-11.768
▁Feldhockey	-11.7685
▁upwards	-11.7685
▁ordering	-11.7689
eln	-11.7698
pp	-11.7715
▁Brillen	-11.7722
▁drawn	-11.7724
▁dribble	-11.7752
▁damage	-11.7755
▁Schiffs	-11.7756
ickt	-11.7758
▁drying	-11.7765
▁cre	-11.7765
▁multi	-11.7767
▁Fa	-11.7773
▁voran	-11.7775
▁necklaces	-11.7775
▁haltend	-11.7786
▁gesenkte	-11.7792
▁Sommerkleid	-11.7795
▁snacks	-11.7795
▁barrels	-11.7795
▁seating	-11.7797
▁terminal	-11.7805
▁Busch	-11.7806
▁aufeinander	-11.7806
▁Katzen	-11.7807
▁pans	-11.7813
▁doctors	-11.7816
right	-11.7817
ever	-11.7822
▁Rücks	-11.7823
▁fountains	-11.7825
▁dolls	-11.7834
▁Boote	-11.7843
eil	-11.7845
ance	-11.7851
lender	-11.7855
▁seichtem	-11.7859
▁spik	-11.7861
▁rolls	-11.7867
ple	-11.7886
▁litter	-11.7886
▁bake	-11.7899
▁Runde	-11.79
▁Hundes	-11.7903
cking	-11.7903
inten	-11.7911
ry	-11.7912
▁spielende	-11.7922
▁ny	-11.7927
▁advertisements	-11.7934
▁pa	-11.7941
▁Softballspieler	-11.7946
▁Badehosen	-11.7949
▁secure	-11.7967
otted	-11.7972
car	-11.7974
ien	-11.7984
▁armen	-11.7984
▁best	-11.7995
sailing	-11.8009
▁rafts	-11.8018
▁instruct	-11.8048
▁Go	-11.8057
guckt	-11.8059
▁Radrenn	-11.8069
▁unbekannte	-11.8075
grüne	-11.8076
▁Regal	-11.8084
ex	-11.8096
tic	-11.8106
▁oranges	-11.8128
▁essend	-11.813
▁Zelte	-11.8152
ca	-11.8159
▁recline	-11.8172
▁strings	-11.8175
cting	-11.8176
▁barre	-11.8189
aid	-11.8196
▁sculptures	-11.8196
▁concentrate	-11.8202
▁tiefe	-11.8211
ied	-11.8219
heit	-11.822
▁Videospiele	-11.8224
▁rid	-11.8226
sgeschäft	-11.8231
▁Schwarze	-11.8242
▁build	-11.8244
ami	-11.8246
▁Di	-11.8253
räumen	-11.826
▁Nummern	-11.8269
▁Paket	-11.8272
▁explor	-11.8274
ened	-11.8288
lo	-11.831
nding	-11.8311
▁cats	-11.8319
reicht	-11.8326
▁kaputte	-11.833
ul	-11.8351
schuhen	-11.8355
ht	-11.8381
▁heim	-11.8381
▁erhöhte	-11.8383
▁Handys	-11.8385
round	-11.8397
▁bunn	-11.8402
▁Braun	-11.8405
▁slic	-11.8417
our	-11.8418
▁Ladens	-11.8423
eck	-11.8425
▁Kajaks	-11.8443
▁gefärbte	-11.8453
▁tri	-11.8457
those	-11.8462
▁wenig	-11.8462
ö	-11.8479
▁Fahrzeugs	-11.8489
▁raining	-11.8499
gar	-11.8512
long	-11.8513
kuchen	-11.8521
▁Werbe	-11.8523
au	-11.8575
uf	-11.8576
▁gute	-11.8578
Fallschirmspring	-11.8587
▁sl	-11.8601
▁zip	-11.8604
▁signing	-11.8607
▁Mal	-11.8607
▁geschlossen	-11.8613
▁railings	-11.8633
▁Skateboards	-11.8651
▁desks	-11.8653
▁Lä	-11.8658
▁tap	-11.8664
▁Reihen	-11.8669
farben	-11.8679
des	-11.8688
▁Essens	-11.8691
▁Make	-11.8703
eiß	-11.8704
▁reflect	-11.8718
▁shave	-11.8731
assen	-11.8732
▁accompanie	-11.8762
▁verletzt	-11.8779
pfen	-11.8792
▁geschlagen	-11.8806
▁cigarettes	-11.8823
▁Eisenbahn	-11.8825
aufen	-11.8832
lung	-11.8841
▁fork	-11.8844
ständer	-11.8853
hole	-11.8855
▁Nach	-11.8856
▁cra	-11.8865
▁Mar	-11.8871
▁faci	-11.888
▁Ze	-11.8887
art	-11.8896
▁For	-11.8896
ängen	-11.8929
▁Freizeit	-11.8941
nimmt	-11.8947
▁trockene	-11.8953
▁Softballspiel	-11.8962
▁Street	-11.8987
▁Scha	-11.899
▁rauchen	-11.8992
▁stretch	-11.8999
▁al	-11.8999
▁Jack	-11.9012
▁lim	-11.9019
▁Engel	-11.9022
▁Fußballtrikot	-11.9024
hr	-11.9024
▁Eiswagen	-11.9028
▁pillar	-11.9028
▁lemon	-11.9028
▁Ho	-11.903
▁weapon	-11.9031
▁cable	-11.9033
▁Projektor	-11.9034
work	-11.9034
▁schick	-11.9037
▁decorate	-11.9037
▁crate	-11.9039
blick	-11.9044
▁etwa	-11.9044
genommen	-11.9044
▁steer	-11.9044
▁Beamte	-11.9046
▁peak	-11.9052
▁interessante	-11.9055
ix	-11.9058
gestell	-11.9062
gibt	-11.9066
▁crouch	-11.9067
jo	-11.9067
Cola	-11.9069
storm	-11.9071
gitter	-11.9072
▁stair	-11.9072
brechen	-11.9073
flute	-11.9076
bunte	-11.9076
schaufel	-11.9076
held	-11.9077
Konzert	-11.9078
Football	-11.9078
finish	-11.9078
free	-11.9078
filled	-11.9078
▁Dunk	-11.9078
grill	-11.9078
piece	-11.9078
high	-11.9079
paar	-11.9079
schneidet	-11.9079
arbeit	-11.9079
cement	-11.9079
▁slip	-11.908
Auto	-11.9081
▁je	-11.9081
five	-11.9083
▁Bandmitglieder	-11.9084
schneiden	-11.9085
▁Besitz	-11.9085
▁Perücke	-11.9085
strecke	-11.9086
bel	-11.9086
▁Körbe	-11.9086
▁Wände	-11.9088
▁Pose	-11.9089
Rad	-11.9089
rosa	-11.9091
▁Kunde	-11.9094
▁Bulle	-11.9097
▁beers	-11.9099
▁interview	-11.91
▁kau	-11.9103
▁wor	-11.911
dressed	-11.9111
▁Reise	-11.9114
▁Punkt	-11.9118
▁Stofftier	-11.9119
▁Familien	-11.912
▁Rollerskate	-11.9129
▁pray	-11.913
▁Schieß	-11.9133
▁Dinosaurier	-11.9134
▁Straßenbahn	-11.9134
▁inspizier	-11.9134
▁Reit	-11.9136
▁neb	-11.9137
▁sorg	-11.914
▁Japan	-11.9142
▁Rasier	-11.9143
punkt	-11.9143
▁hun	-11.9145
hügel	-11.9145
flasche	-11.9145
schließ	-11.9148
▁Spitz	-11.915
▁ceremon	-11.915
rahmen	-11.9151
▁tomato	-11.9153
▁need	-11.9154
▁Eishockeyspiel	-11.9154
tür	-11.9155
szene	-11.9155
brücke	-11.9156
Tisch	-11.9157
▁Fan	-11.9157
▁mehr	-11.9157
künstler	-11.9157
▁komische	-11.9158
reihe	-11.9158
stimmt	-11.9158
oogie	-11.9158
struktur	-11.9158
adminton	-11.9158
änteln	-11.9159
▁Tank	-11.9159
▁attack	-11.9159
becher	-11.9159
papier	-11.9159
▁wrist	-11.9159
▁cash	-11.9159
▁Draht	-11.9159
aufnahme	-11.9159
fältig	-11.9159
führer	-11.916
▁Wild	-11.916
kapelle	-11.916
▁recreat	-11.916
ariachi	-11.916
wiese	-11.916
▁Wasserfontäne	-11.916
▁brindle	-11.916
▁geometri	-11.916
▁kommunizier	-11.916
anzeige	-11.916
bündel	-11.916
komplex	-11.916
leidenschaftlich	-11.916
motiv	-11.916
udiert	-11.916
▁Aktivität	-11.916
▁America	-11.916
▁Aufmerksamkeit	-11.916
▁Berggipfel	-11.916
▁Bulldozer	-11.916
▁Bürste	-11.916
▁Cowgirl	-11.916
▁Digitalkamera	-11.916
▁Einkaufspassage	-11.916
▁Gänse	-11.916
▁Haut	-11.916
▁Hydranten	-11.916
▁Joggen	-11.916
▁Kampfkunst	-11.916
▁Kathedrale	-11.916
▁Küchentresen	-11.916
▁Lieblings	-11.916
▁Limousine	-11.916
▁Maulkörben	-11.916
▁Professor	-11.916
▁Promenade	-11.916
▁Pyramide	-11.916
▁SMS	-11.916
▁Salat	-11.916
▁Schloss	-11.916
▁Seilspringen	-11.916
▁Spielmannszug	-11.916
▁Stabhochsprung	-11.916
▁Textnachricht	-11.916
▁Vorlesung	-11.916
▁Weihnachten	-11.916
▁Zuckerwatte	-11.916
▁akrobatische	-11.916
▁alcohol	-11.916
▁begutachten	-11.916
▁beschädigte	-11.916
▁breath	-11.916
▁brochure	-11.916
▁bronze	-11.916
▁clarinet	-11.916
▁cycle	-11.916
▁durchsucht	-11.916
▁eager	-11.916
▁frown	-11.916
▁füttern	-11.916
▁gemütlich	-11.916
▁glacier	-11.916
▁ipod	-11.916
▁irgendetwas	-11.916
▁javelin	-11.916
▁kaukasische	-11.916
▁kehren	-11.916
▁kiosk	-11.916
▁komplizierte	-11.916
▁kostümierte	-11.916
▁lipstick	-11.916
▁liquor	-11.916
▁müde	-11.916
▁pflückt	-11.916
▁professor	-11.916
▁progress	-11.916
▁question	-11.916
▁razor	-11.916
▁relay	-11.916
▁scantily	-11.916
▁schippt	-11.916
▁scissors	-11.916
▁scratch	-11.916
▁spatula	-11.916
▁submerge	-11.916
▁sunshine	-11.916
▁talent	-11.916
▁trocknet	-11.916
▁wolkige	-11.916
▁Amboss	-11.916
▁Aquarium	-11.916
▁Domino	-11.916
▁Haken	-11.916
▁Hüpfburg	-11.916
▁Minigolf	-11.916
▁Rückwärtssalto	-11.916
▁Sackhüpfen	-11.916
▁civil	-11.916
▁einkaufen	-11.916
▁enclos	-11.916
▁flaming	-11.916
▁platziert	-11.916
▁Dreh	-11.916
▁Hörsaal	-11.916
▁Krug	-11.916
▁Polizeibeamte	-11.916
▁breast	-11.916
▁canyon	-11.916
▁curious	-11.916
▁navigier	-11.916
▁popcorn	-11.916
▁suburb	-11.916
▁verfolgen	-11.916
▁Fahrgäste	-11.916
▁Fitnessstudio	-11.916
▁Nadelstreifen	-11.916
▁ornament	-11.916
▁university	-11.916
▁accept	-11.916
▁dreckige	-11.916
▁identical	-11.916
▁quad	-11.916
▁Dekorationen	-11.916
▁Kamin	-11.916
▁Lippenstift	-11.916
▁Thema	-11.916
▁goatee	-11.916
▁Durchgang	-11.916
▁Liegestühlen	-11.916
▁Möbelstück	-11.916
▁Spazierstock	-11.916
▁Wettlauf	-11.916
▁assistant	-11.916
▁schält	-11.916
▁schattige	-11.916
▁volunteer	-11.916
▁Angestellte	-11.916
aufführung	-11.916
▁chunk	-11.916
▁karge	-11.916
▁massive	-11.916
▁normal	-11.916
▁Schotterstraße	-11.916
▁sash	-11.916
▁strickt	-11.916
▁bronco	-11.916
▁milk	-11.916
▁Krankenhausbett	-11.916
▁deliver	-11.916
▁operation	-11.916
▁Bordsteinkante	-11.916
▁Hochzeitstorte	-11.916
▁seesaw	-11.916
▁wäre	-11.916
▁sweet	-11.916
▁Fernrohr	-11.916
▁ausgestopfte	-11.916
▁haul	-11.916
▁Ebene	-11.916
▁Haarschnitt	-11.916
▁badge	-11.916
▁Landkarte	-11.916
▁Schnorchel	-11.916
pflasterstraße	-11.916
▁Schotterweg	-11.916
▁bequem	-11.916
▁tribe	-11.916
▁Außenseite	-11.916
▁Steg	-11.916
▁Fußgängerbrücke	-11.916
▁Nachtclub	-11.916
▁erwischt	-11.916
▁cardigan	-11.916
▁cell	-11.916
▁magnif	-11.916
▁vermu	-11.916
cient	-11.916
▁Ausschau	-11.916
▁plush	-11.916
▁Motorboot	-11.916
▁Blumenstrauß	-11.916
▁Radio	-11.916
▁Fischerboot	-11.916
▁cowgirl	-11.916
▁Spazier	-11.916
▁Golfplatz	-11.916
▁marsh	-11.916
▁Wanderweg	-11.916
▁Funk	-11.916
▁Schwanz	-11.916
▁verrückt	-11.916
▁archway	-11.916
ansicht	-11.916
gebung	-11.916
▁flood	-11.916
▁Betonbank	-11.916
▁drift	-11.916
▁Strandpromenade	-11.916
▁Aktion	-11.916
▁kurzhaarige	-11.916
▁servieren	-11.916
▁mouse	-11.916
▁Essenswagen	-11.916
▁clap	-11.916
▁Innere	-11.916
▁nightclub	-11.916
▁dragon	-11.916
▁cremefarbene	-11.916
▁saddle	-11.916
▁swamp	-11.916
air	-11.9161
▁husky	-11.9161
▁State	-11.9161
▁intensiv	-11.9161
▁crab	-11.9161
▁pub	-11.9161
▁teilnimmt	-11.9161
▁versehen	-11.9161
▁Metallzaun	-11.9161
▁Badminton	-11.9161
▁Kopftücher	-11.9161
▁tunic	-11.9161
▁gap	-11.9161
▁Bikinioberteil	-11.9161
▁riverbank	-11.9161
▁sound	-11.9161
▁Feuerwerk	-11.9161
▁Eislaufen	-11.9161
▁sailor	-11.9161
▁ravine	-11.9161
▁Handgelenk	-11.9162
▁wineglasses	-11.9162
▁jew	-11.9162
▁Ultimate	-11.9162
▁Taucheranzug	-11.9162
▁Fußtritt	-11.9162
▁geradeaus	-11.9162
▁Tischtennis	-11.9162
▁Leoparden	-11.9162
▁Senioren	-11.9162
▁whistle	-11.9162
▁Tänzerinnen	-11.9162
stunde	-11.9162
▁gestützt	-11.9162
▁olympische	-11.9163
gesicht	-11.9163
▁hochhält	-11.9163
▁beteiligt	-11.9163
▁Badekleidung	-11.9163
▁sharp	-11.9163
▁Straßenmarkt	-11.9163
leiter	-11.9163
haps	-11.9163
▁utili	-11.9163
▁raus	-11.9163
▁Eisbahn	-11.9164
▁Ausw	-11.9164
▁erreicht	-11.9164
▁Sandskulptur	-11.9164
▁Saal	-11.9164
▁assembled	-11.9164
▁hochspringt	-11.9164
▁drain	-11.9165
▁Uferweg	-11.9165
schale	-11.9165
flugzeug	-11.9166
▁chat	-11.9166
▁fit	-11.9166
▁Schädel	-11.9166
▁socializing	-11.9167
▁tomatoes	-11.9167
▁Skateboardpark	-11.9167
▁überblickt	-11.9167
▁Dunkeln	-11.9167
wählt	-11.9167
▁poliert	-11.9168
▁Skateboardtrick	-11.9168
▁soup	-11.9168
▁occup	-11.9169
▁belly	-11.9169
▁ethnische	-11.9169
▁Hubschrauber	-11.9169
▁Position	-11.9169
▁Pyjama	-11.9169
▁Struktur	-11.9169
▁Zutaten	-11.9169
▁bohrt	-11.9169
▁symbol	-11.9169
▁pflüg	-11.9169
▁stöber	-11.9169
▁freut	-11.9169
▁south	-11.9169
▁bricht	-11.9169
▁convention	-11.9169
▁hairstyle	-11.9169
▁arriv	-11.9169
▁Ausflug	-11.9169
▁kontrollier	-11.9169
▁zeichnen	-11.9169
▁Poloshirt	-11.917
▁lovely	-11.917
▁besetzte	-11.917
karren	-11.917
▁Pony	-11.917
▁girlfriend	-11.917
▁Autositz	-11.917
▁lustige	-11.917
spekt	-11.917
▁puff	-11.9171
bob	-11.9171
▁cro	-11.9171
▁Coll	-11.9172
▁Tennisschuhen	-11.9172
▁Tiger	-11.9173
▁constructed	-11.9174
▁slam	-11.9174
gerahmte	-11.9174
▁trim	-11.9175
▁completely	-11.9176
▁Trinken	-11.9176
▁Fall	-11.9177
▁pump	-11.9177
▁untergeht	-11.9177
pullover	-11.9177
▁Trau	-11.9178
▁excitedly	-11.9179
▁Wartungsarbeite	-11.918
bäumen	-11.918
▁knitting	-11.918
▁Notizen	-11.918
rgert	-11.9181
▁Schwimmflügeln	-11.9181
▁wetteifern	-11.9181
▁Massen	-11.9182
ätzen	-11.9182
▁verä	-11.9182
▁Footballteam	-11.9184
▁Schrift	-11.9184
▁snowball	-11.9184
▁Rasenmäher	-11.9185
▁Schw	-11.9185
▁inspizieren	-11.9185
▁zone	-11.9186
▁spül	-11.9186
▁einzufangen	-11.9186
▁besprüht	-11.9186
lehrt	-11.9186
▁Spielerin	-11.9187
▁Spielzeugauto	-11.9187
▁glider	-11.9187
▁Deckel	-11.9187
▁solder	-11.9189
▁antique	-11.9192
eddy	-11.9193
▁Segel	-11.9193
lack	-11.9194
angehöriger	-11.9194
▁Spielplatzgerät	-11.9195
▁Teenagerin	-11.9199
▁system	-11.92
ctors	-11.9203
superman	-11.9203
ofen	-11.9205
▁Schwein	-11.9205
▁Punkten	-11.9206
▁information	-11.9208
▁Toiletten	-11.9208
truck	-11.9208
▁Kiefern	-11.9208
gestellt	-11.921
▁demonstrat	-11.921
▁shine	-11.9212
▁waterside	-11.9213
▁herein	-11.9214
▁Bahngleisen	-11.9215
▁Festival	-11.9217
▁Schienen	-11.9217
▁probieren	-11.9218
▁Welt	-11.9218
▁Begleiter	-11.9218
▁legos	-11.9219
▁decide	-11.9221
▁Eiswaffeln	-11.9222
▁framed	-11.9223
▁assisting	-11.9224
▁Vi	-11.9224
▁klare	-11.9225
zz	-11.9225
▁tanzende	-11.9226
▁Preis	-11.9234
▁Mast	-11.9237
▁rise	-11.9237
▁entertainer	-11.924
▁words	-11.9241
▁seagulls	-11.9241
▁tips	-11.9242
▁Kabeln	-11.925
▁Warnwesten	-11.925
ka	-11.9257
▁Geste	-11.926
▁clothed	-11.9262
▁blower	-11.9263
▁texting	-11.9267
▁aufhat	-11.9272
▁Gewehren	-11.9275
▁Bullenr	-11.9277
▁einzu	-11.9278
▁Werkzeugen	-11.928
leng	-11.9286
akt	-11.9286
▁gefahren	-11.929
streifen	-11.9295
entgegengesetzte	-11.9296
▁wipe	-11.9297
▁dunkelbraune	-11.9298
▁Ko	-11.9299
▁pop	-11.93
▁mo	-11.9301
▁limb	-11.9305
om	-11.9305
▁rollerskater	-11.9306
▁surfen	-11.9307
▁boxers	-11.9319
▁entl	-11.9319
▁Gürteln	-11.932
▁aufrecht	-11.9321
▁Schale	-11.9321
▁Fußballspielen	-11.9322
▁tiefen	-11.9323
stil	-11.9324
▁chip	-11.9325
▁pie	-11.9327
boarder	-11.9328
▁nails	-11.9334
▁gowns	-11.9334
▁Hotdogs	-11.9334
▁rugs	-11.9334
▁Form	-11.9336
▁yo	-11.9337
▁dots	-11.9346
▁checked	-11.9348
▁circus	-11.9354
▁spots	-11.9357
▁soak	-11.937
▁fröhliches	-11.9374
▁comb	-11.9374
▁conveni	-11.9377
greifen	-11.938
Freizeitkleidung	-11.9383
spritzt	-11.9384
▁sodas	-11.9405
▁Stücke	-11.9413
▁Gesichts	-11.9414
▁cola	-11.9417
▁Kegeln	-11.9419
ign	-11.9423
▁sca	-11.9425
▁Plane	-11.9425
▁golfer	-11.9426
▁Messe	-11.9428
sportler	-11.9438
▁heran	-11.9441
▁niedliche	-11.9442
▁warmer	-11.9445
▁barriers	-11.9451
▁Sp	-11.9452
▁Große	-11.9454
pass	-11.9468
lings	-11.9474
▁suck	-11.9474
▁sprinklers	-11.9475
iges	-11.9477
▁seltsam	-11.9518
▁wurden	-11.9519
▁emerge	-11.953
arasailing	-11.9542
▁brooms	-11.9546
▁ribbons	-11.9546
ritten	-11.9546
▁Zähnen	-11.9547
▁Alte	-11.9549
Musikinstrumente	-11.9553
▁verletzte	-11.9555
▁Gesichter	-11.9567
▁Spielzeuge	-11.9571
hund	-11.9573
▁trains	-11.9573
▁accompani	-11.9573
▁Verkaufs	-11.958
schwimmen	-11.958
▁aufzu	-11.9586
▁skim	-11.9589
▁beams	-11.9593
▁lanes	-11.9594
stanz	-11.9594
▁modische	-11.9594
▁bows	-11.9595
▁unglücklich	-11.9598
▁kisse	-11.9602
nehmen	-11.9604
▁lea	-11.9609
▁hearts	-11.961
▁verbunden	-11.9614
▁swords	-11.9617
▁jumpsuits	-11.9617
▁Tänzern	-11.962
dding	-11.9626
ill	-11.9627
eiße	-11.9629
mature	-11.963
▁perche	-11.9632
▁Mikrofone	-11.9632
▁sleeves	-11.9641
ray	-11.9646
hin	-11.9672
springt	-11.9675
▁wei	-11.9677
▁kicken	-11.9678
chaufensterpuppe	-11.9689
▁Golfspiel	-11.9691
▁Tourist	-11.9696
▁tubes	-11.9697
calist	-11.9701
▁hear	-11.9706
risk	-11.971
▁aufgeregte	-11.9711
▁pipes	-11.9714
▁Rollern	-11.9722
▁bottoms	-11.9738
▁blocking	-11.974
▁Fer	-11.9759
▁wheelchairs	-11.9762
▁Schülern	-11.9776
mber	-11.9782
▁lands	-11.9785
▁presents	-11.9786
ood	-11.9805
stücke	-11.9834
▁defens	-11.9836
▁sitzend	-11.9845
▁challenge	-11.9856
▁devices	-11.9859
▁Fitness	-11.9865
▁le	-11.99
nde	-11.9904
rolle	-11.9909
▁noses	-11.9909
▁slopes	-11.991
▁rosarot	-11.9912
tan	-11.9943
▁arbeitende	-11.9946
▁jed	-11.9956
tackelt	-11.998
eitlich	-11.9983
try	-11.9985
tte	-11.9986
▁Hacke	-11.9989
▁release	-11.9991
▁trimm	-11.9993
▁Musikern	-12.0008
spr	-12.0011
▁Mikrofonen	-12.0024
els	-12.0024
▁stunts	-12.0031
▁dil	-12.0047
▁microscopes	-12.0056
stützt	-12.0066
same	-12.0069
▁bell	-12.0079
ord	-12.0095
▁kit	-12.0097
stens	-12.0119
▁kein	-12.0119
roll	-12.012
▁gedrängt	-12.0125
▁explore	-12.0131
▁prom	-12.0148
tical	-12.015
▁glid	-12.0154
liche	-12.0164
instrument	-12.0178
deck	-12.0179
▁aufgesetzte	-12.0185
hat	-12.0192
▁Sitzende	-12.02
▁au	-12.0214
▁ärmellosem	-12.0217
▁shi	-12.0222
iligen	-12.0229
▁bark	-12.0244
▁ferr	-12.0245
ica	-12.0256
raußen	-12.0256
day	-12.0262
ort	-12.0276
ong	-12.0279
oney	-12.0285
▁beladene	-12.0294
yo	-12.0299
▁Arbeiten	-12.0301
anging	-12.0302
▁rec	-12.0312
▁recht	-12.0339
udio	-12.0342
▁Militäruniform	-12.0351
ered	-12.0358
▁ausge	-12.0359
▁cl	-12.0361
▁strollers	-12.0362
nden	-12.0364
head	-12.0368
pf	-12.0369
▁let	-12.0379
trainer	-12.0381
ette	-12.0384
kel	-12.0401
▁asians	-12.0401
▁beg	-12.0425
sponsor	-12.0429
▁focuse	-12.0431
sprung	-12.0458
▁rum	-12.0466
ensive	-12.0468
kl	-12.047
▁diverse	-12.0472
roter	-12.0481
▁rails	-12.0494
hang	-12.0502
▁ties	-12.0508
inde	-12.0514
frikanische	-12.0517
▁Scheinwerfer	-12.0521
▁gebückt	-12.0549
bett	-12.055
▁gesäumt	-12.0556
▁bikinis	-12.0562
▁barbecu	-12.0563
▁Spielers	-12.0565
cub	-12.0575
▁Milch	-12.0588
og	-12.0591
▁Weiße	-12.0613
steigt	-12.0633
▁rub	-12.0639
cker	-12.0652
▁Ufers	-12.0675
▁Ka	-12.0675
▁sprinkl	-12.0681
▁abge	-12.0682
▁umgedrehte	-12.0693
▁surfers	-12.0696
bank	-12.0708
▁arti	-12.071
▁bad	-12.071
▁slop	-12.0717
▁buck	-12.0719
schiedenfarbige	-12.0728
▁schwer	-12.073
▁motori	-12.0738
läufer	-12.0739
▁Lande	-12.0761
▁tumbl	-12.0769
▁mar	-12.0773
eilen	-12.0773
▁besch	-12.0797
▁orangefarben	-12.08
zeugen	-12.0806
▁Schwimmerin	-12.0814
um	-12.0825
▁Stra	-12.0852
pane	-12.0859
rutsche	-12.0861
▁ausgebreitete	-12.087
op	-12.0872
▁Flam	-12.0875
B	-12.0885
echten	-12.089
leitung	-12.0893
py	-12.09
▁Eingangs	-12.0904
fall	-12.0911
▁nacktes	-12.0928
atz	-12.0928
du	-12.0928
luck	-12.0934
hoop	-12.0944
eisten	-12.0951
▁skateboarders	-12.0955
utter	-12.0961
▁drag	-12.0961
▁stars	-12.0967
getränk	-12.0967
▁zoo	-12.0972
▁festliche	-12.0978
bell	-12.0988
pfer	-12.0991
orange	-12.1
L	-12.1001
▁kreis	-12.1002
gestreifte	-12.1003
skating	-12.1008
K	-12.1009
time	-12.1018
▁So	-12.1019
▁Geburtstag	-12.1022
▁toilet	-12.1022
▁cord	-12.1024
ator	-12.1025
▁baton	-12.103
fertige	-12.1034
H	-12.1035
▁McDonald	-12.1035
▁banana	-12.1035
▁watermelon	-12.1035
▁jog	-12.1037
haarige	-12.1038
hof	-12.1039
▁bagpipe	-12.1039
▁Training	-12.104
▁lie	-12.104
▁scout	-12.104
▁pedestrian	-12.1042
▁backward	-12.1043
bare	-12.1044
▁Red	-12.1045
uniform	-12.105
▁älter	-12.1058
wasser	-12.1059
box	-12.106
ble	-12.106
blätter	-12.1065
▁bill	-12.1066
▁groß	-12.1066
▁Lautsprecher	-12.1068
säge	-12.1068
▁Seife	-12.1069
▁näher	-12.107
▁lock	-12.1072
cola	-12.1072
person	-12.1072
Kittel	-12.1073
Rennfahrer	-12.1073
Mitarbeiter	-12.1075
Tattoo	-12.1075
wheeler	-12.1077
Werbung	-12.1077
Ausrüstung	-12.1077
Tunnel	-12.1077
field	-12.1077
▁mac	-12.1078
jagt	-12.1078
Computer	-12.1078
Rennen	-12.1078
Restaurant	-12.1078
pants	-12.1078
herum	-12.1078
leckt	-12.1079
book	-12.1079
▁know	-12.1081
▁Aufgabe	-12.1081
malen	-12.1082
▁Speise	-12.1082
▁assist	-12.1083
▁letzte	-12.1084
▁Eiswaffel	-12.1084
▁Wassermelone	-12.1085
▁Tüte	-12.1085
▁cooler	-12.1086
lance	-12.1087
▁Büsche	-12.1088
▁bewölkte	-12.1088
▁Kerze	-12.1088
▁Rucksäcke	-12.1088
▁Begleit	-12.1089
cast	-12.1089
gelegte	-12.109
▁Jahre	-12.1091
nsammlung	-12.1092
neck	-12.1097
treffen	-12.1098
▁ste	-12.1098
▁Löwen	-12.11
▁Gegen	-12.1113
eine	-12.1113
▁dränge	-12.1114
▁Schweiß	-12.112
▁Farb	-12.112
▁enge	-12.1121
ausstellung	-12.1129
▁br	-12.113
▁Athlet	-12.1132
▁Teddybär	-12.1132
phone	-12.1133
▁poke	-12.1133
▁Notiz	-12.1134
▁Patient	-12.1135
▁struggl	-12.1136
▁Lad	-12.1136
▁Bauer	-12.1138
▁Wett	-12.114
▁construct	-12.1142
▁Landung	-12.1142
▁Pitch	-12.1142
▁brid	-12.1143
▁natur	-12.1143
▁multicolor	-12.1144
▁hellrosa	-12.1148
▁bewunder	-12.1149
räumt	-12.1149
▁punk	-12.1149
▁schw	-12.1149
▁competitive	-12.1152
▁web	-12.1152
itzt	-12.1153
kasten	-12.1154
haufen	-12.1154
zuheben	-12.1154
▁latin	-12.1155
äufer	-12.1156
trikot	-12.1157
lampe	-12.1158
objekt	-12.1158
gegend	-12.1158
orridor	-12.1158
rtikel	-12.1159
▁soft	-12.1159
▁Möbel	-12.1159
projekt	-12.1159
▁Steuer	-12.1159
ional	-12.1159
putzer	-12.1159
▁Eisschnelll	-12.1159
▁Pelz	-12.1159
▁Pflaster	-12.1159
motorrad	-12.1159
ordnet	-12.1159
echani	-12.1159
blatt	-12.1159
▁Durch	-12.1159
▁Euro	-12.116
dunkelte	-12.116
▁Front	-12.116
▁Kongress	-12.116
▁Mü	-12.116
▁Stoß	-12.116
▁Wälder	-12.116
▁Zoo	-12.116
▁rehears	-12.116
Maskottchen	-12.116
estrian	-12.116
kragen	-12.116
nüss	-12.116
schonern	-12.116
sgesellschaft	-12.116
stöckige	-12.116
unruhige	-12.116
werfer	-12.116
ziegel	-12.116
▁Abstammung	-12.116
▁Ballbesitz	-12.116
▁Buffet	-12.116
▁Denkmal	-12.116
▁Dirigent	-12.116
▁Dutzend	-12.116
▁Elektri	-12.116
▁Friedhof	-12.116
▁Fässer	-12.116
▁Garagentor	-12.116
▁Halfpipe	-12.116
▁Harfe	-12.116
▁Hochzeitsfeier	-12.116
▁Huckepack	-12.116
▁Kleinigkeit	-12.116
▁Labrador	-12.116
▁Matratze	-12.116
▁Mehl	-12.116
▁Männliche	-12.116
▁Orangensaft	-12.116
▁Poncho	-12.116
▁Programm	-12.116
▁Riemen	-12.116
▁Roboter	-12.116
▁Schanze	-12.116
▁Schwierigkeiten	-12.116
▁Sprache	-12.116
▁Staffellauf	-12.116
▁Symbol	-12.116
▁Söhne	-12.116
▁Unterricht	-12.116
▁Vieh	-12.116
▁Vorbereitung	-12.116
▁Werkzeuggürtel	-12.116
▁Wissenschaftler	-12.116
▁Zombie	-12.116
▁abgewandt	-12.116
▁apparatus	-12.116
▁asphalt	-12.116
▁automobile	-12.116
▁befestigen	-12.116
▁blossom	-12.116
▁carousel	-12.116
▁champagne	-12.116
▁cityscape	-12.116
▁community	-12.116
▁consult	-12.116
▁cruis	-12.116
▁dafür	-12.116
▁demonstrier	-12.116
▁deutet	-12.116
▁dolphin	-12.116
▁erzielen	-12.116
▁escape	-12.116
▁excitement	-12.116
▁exciting	-12.116
▁funktioniert	-12.116
▁geschnitzte	-12.116
▁gewonnen	-12.116
▁heißt	-12.116
▁irgendwelche	-12.116
▁jüdische	-12.116
▁klassische	-12.116
▁kriech	-12.116
▁merchant	-12.116
▁nibbl	-12.116
▁obdachlose	-12.116
▁pacifier	-12.116
▁passerby	-12.116
▁passionate	-12.116
▁peacock	-12.116
▁possession	-12.116
▁refresh	-12.116
▁remote	-12.116
▁represent	-12.116
▁robot	-12.116
▁rowboat	-12.116
▁rustikal	-12.116
▁salad	-12.116
▁shoeshine	-12.116
▁stecken	-12.116
▁stolpert	-12.116
▁süße	-12.116
▁tambourine	-12.116
▁tiara	-12.116
▁tightrope	-12.116
▁unidentifi	-12.116
▁unknown	-12.116
▁vacation	-12.116
▁vegetation	-12.116
▁verloren	-12.116
▁watercraft	-12.116
▁weave	-12.116
▁zerbrochene	-12.116
▁überwiegend	-12.116
▁Bedienung	-12.116
▁Betrieb	-12.116
▁Disney	-12.116
▁Endzone	-12.116
▁Esszimmer	-12.116
▁Höhle	-12.116
▁Karikatur	-12.116
▁Kitesurf	-12.116
▁Krabbe	-12.116
▁Lobby	-12.116
▁Material	-12.116
▁Schusswaffe	-12.116
▁Truthahn	-12.116
▁bettelt	-12.116
▁blass	-12.116
▁cinder	-12.116
▁curtain	-12.116
▁depict	-12.116
▁drunk	-12.116
▁gemischte	-12.116
▁lenkt	-12.116
▁respond	-12.116
▁sweatsuit	-12.116
▁umgekippt	-12.116
▁verteidigen	-12.116
▁volks	-12.116
▁zebra	-12.116
schaftskollegen	-12.116
taught	-12.116
▁Jetski	-12.116
▁Lehm	-12.116
▁Trocken	-12.116
▁curren	-12.116
▁elbow	-12.116
▁health	-12.116
▁impress	-12.116
▁leckere	-12.116
▁stricken	-12.116
▁winzige	-12.116
▁Bauernhof	-12.116
▁Comic	-12.116
▁Dessert	-12.116
▁Doktor	-12.116
▁Lappen	-12.116
▁Terrier	-12.116
▁contemplat	-12.116
obama	-12.116
▁Abschluss	-12.116
▁Gabel	-12.116
▁Säcke	-12.116
▁Bäckerei	-12.116
▁Kniestrümpfe	-12.116
▁Tief	-12.116
▁schräg	-12.116
▁tread	-12.116
▁trommelt	-12.116
▁priest	-12.116
▁Burg	-12.116
▁fingernail	-12.116
▁Absperrband	-12.116
▁Auszeichnung	-12.116
▁Backsteinwand	-12.116
▁Hängebrücke	-12.116
▁Kleinstadt	-12.116
▁Schaumbad	-12.116
▁dramatic	-12.116
▁metro	-12.116
▁solid	-12.116
▁Diadem	-12.116
▁Türeingang	-12.116
▁Wheelie	-12.116
▁bummel	-12.116
▁foam	-12.116
▁metallic	-12.116
dehnt	-12.116
umgebung	-12.116
▁verkehrsreiche	-12.116
▁Gemeinde	-12.116
▁Hafengebiet	-12.116
▁campsite	-12.116
▁answer	-12.116
▁fluores	-12.116
▁Klarinette	-12.116
▁cockpit	-12.116
▁snake	-12.116
▁zupft	-12.116
▁Operationssaal	-12.116
▁Kletterwand	-12.116
▁Kastenwagen	-12.116
▁Tauchausrüstung	-12.116
▁fireplace	-12.116
ffnung	-12.116
▁Abhang	-12.116
▁Nike	-12.116
▁laub	-12.116
▁Fliesenboden	-12.116
▁Weingläsern	-12.116
▁cartoon	-12.116
▁disney	-12.116
▁ruins	-12.116
▁Kanone	-12.116
▁memorial	-12.116
▁quilt	-12.116
▁Erdboden	-12.116
▁sheepdog	-12.116
▁streicheln	-12.116
▁bracelet	-12.116
▁bookshelf	-12.116
▁clock	-12.116
▁detail	-12.116
▁final	-12.116
▁pursu	-12.116
▁Blätterhaufen	-12.116
▁file	-12.116
▁Camper	-12.116
▁Strohhalm	-12.116
▁stylish	-12.116
vorstellung	-12.116
▁Toreinfahrt	-12.116
gurt	-12.116
▁parachuting	-12.116
▁Gäste	-12.116
▁trap	-12.116
▁Blue	-12.116
▁cattle	-12.116
▁Straßenlaterne	-12.116
▁Sturz	-12.116
▁Umhängetasche	-12.116
▁attendant	-12.116
▁rubble	-12.116
kissen	-12.116
uvre	-12.116
▁Freiluftmarkt	-12.116
▁Chef	-12.116
▁Plakatwand	-12.116
gerüst	-12.116
▁combat	-12.116
▁lausch	-12.116
▁Schildkröte	-12.116
▁intense	-12.116
norak	-12.116
▁Holzplattform	-12.116
▁Walk	-12.116
▁medal	-12.116
▁Vordach	-12.116
▁Führung	-12.116
▁Indische	-12.116
▁bergige	-12.116
▁pride	-12.116
▁Bademantel	-12.116
▁Marathonlauf	-12.116
▁Skigebiet	-12.116
▁Skilift	-12.116
▁ginger	-12.116
▁verliert	-12.116
▁Spur	-12.116
▁Sprühfarbe	-12.116
▁Saft	-12.116
▁dominoes	-12.116
▁eyeglasses	-12.116
▁shelves	-12.116
▁laut	-12.116
▁selection	-12.116
▁Lachen	-12.1161
▁errichtet	-12.1161
▁minivan	-12.1161
▁Städtische	-12.1161
▁delic	-12.1161
▁hechtet	-12.1161
▁Rennbahn	-12.1161
▁gespreizt	-12.1161
▁geholfen	-12.1161
▁gesteckt	-12.1161
▁Konferenztisch	-12.1161
quaint	-12.1161
▁cartwheel	-12.1161
▁Acker	-12.1161
▁canopy	-12.1161
▁wool	-12.1161
▁fechten	-12.1161
▁flier	-12.1161
▁padding	-12.1161
▁aerial	-12.1161
▁beaufsichtigt	-12.1161
▁erzählt	-12.1161
▁observers	-12.1161
▁Warenkorb	-12.1161
▁Gartenstuhl	-12.1161
▁garment	-12.1161
▁Pferderennen	-12.1161
▁Betonrampe	-12.1161
▁sortieren	-12.1161
▁Lama	-12.1161
▁exhibition	-12.1161
apid	-12.1161
▁Seilschaukel	-12.1161
▁bathrobe	-12.1161
▁attraction	-12.1161
▁befragt	-12.1162
bieten	-12.1162
ngry	-12.1162
▁Mais	-12.1162
▁Berghang	-12.1162
▁backstroke	-12.1162
▁sanft	-12.1162
▁solo	-12.1162
hnachtsgeschenke	-12.1162
▁blindfolded	-12.1162
▁kniehohe	-12.1162
▁attentively	-12.1162
▁Kutsche	-12.1162
▁balancieren	-12.1162
▁strum	-12.1162
▁Faust	-12.1162
▁Freundinnen	-12.1162
▁stämmige	-12.1162
▁greenery	-12.1162
▁Sturm	-12.1162
▁Handtücher	-12.1162
▁amaz	-12.1162
▁curl	-12.1162
▁außerdem	-12.1163
▁lokale	-12.1163
schützer	-12.1163
▁violinist	-12.1163
▁confused	-12.1163
▁floaties	-12.1163
▁durchsichtige	-12.1163
▁Surfen	-12.1163
▁Fußboden	-12.1163
▁Bergsteigen	-12.1163
▁Holzboot	-12.1163
▁lid	-12.1163
▁Tritt	-12.1163
▁musta	-12.1163
▁beschmiert	-12.1163
▁verteilen	-12.1163
▁Holzstuhl	-12.1164
▁Aufwärmen	-12.1164
▁Fahrradreifen	-12.1164
▁Stütz	-12.1164
▁fisherm	-12.1164
▁slab	-12.1164
▁halbw	-12.1164
lebt	-12.1164
▁Babyschaukel	-12.1164
▁Absatzschuhe	-12.1165
▁roadwork	-12.1165
▁Schneehaufen	-12.1165
▁cabin	-12.1165
▁Schwan	-12.1165
▁bakery	-12.1165
▁Kollegen	-12.1165
▁umklammert	-12.1166
wanderung	-12.1166
▁bastelt	-12.1166
▁erhalten	-12.1166
▁Blöcke	-12.1167
▁steam	-12.1167
▁Fast	-12.1167
▁Spielzug	-12.1167
▁Vorder	-12.1167
▁ref	-12.1167
▁gestaltete	-12.1168
▁tongs	-12.1168
sims	-12.1168
▁daylight	-12.1168
▁fine	-12.1168
▁erledigen	-12.1168
▁reagieren	-12.1168
▁Marktstand	-12.1168
▁collide	-12.1168
▁Inlineskater	-12.1168
leute	-12.1168
▁assort	-12.1169
▁Schalter	-12.1169
▁cutout	-12.1169
▁overhang	-12.1169
▁Matrosen	-12.1169
▁Ruinen	-12.1169
▁Klettern	-12.1169
▁stoßen	-12.117
▁Rod	-12.117
▁rundes	-12.117
ctively	-12.117
▁clothesline	-12.117
▁sight	-12.117
▁Pinata	-12.1171
▁Kulisse	-12.1171
▁Open	-12.1171
▁Seattle	-12.1171
▁klatschen	-12.1171
▁Rallye	-12.1171
▁Transporter	-12.1171
▁geschossen	-12.1171
▁kitten	-12.1171
▁Miami	-12.1171
▁seattle	-12.1171
▁Warn	-12.1171
antly	-12.1171
▁Stiel	-12.1171
▁upper	-12.1171
blättert	-12.1172
▁flour	-12.1172
▁Schrank	-12.1172
▁Superman	-12.1172
▁Schwertern	-12.1172
pplies	-12.1173
▁headset	-12.1174
▁squirt	-12.1174
▁blurry	-12.1174
▁padde	-12.1174
▁gallop	-12.1174
▁interviewt	-12.1174
▁Tennisspielen	-12.1174
▁lifeguard	-12.1174
▁marches	-12.1175
tier	-12.1175
Metallgegenstand	-12.1175
▁oversize	-12.1175
▁cargo	-12.1176
▁competitors	-12.1176
▁surgeons	-12.1176
harp	-12.1176
▁Stadtplatz	-12.1176
▁torches	-12.1177
elve	-12.1177
▁puste	-12.1178
Teams	-12.1178
▁peel	-12.1178
gefunden	-12.1179
▁Wasserlauf	-12.1179
holen	-12.118
▁Motorradrennen	-12.1181
▁interviewed	-12.1181
▁Dritte	-12.1181
bogen	-12.1181
▁misst	-12.1182
▁Not	-12.1183
▁recent	-12.1183
▁Schneemann	-12.1183
▁arabische	-12.1184
▁wadet	-12.1185
▁page	-12.1185
arbeiten	-12.1185
▁beginn	-12.1185
▁Zitronen	-12.1186
▁Pfoten	-12.1186
▁hung	-12.1187
▁sportliche	-12.1189
▁speedo	-12.119
▁Kämpfer	-12.119
▁legged	-12.119
▁beeindruckende	-12.119
Kunstausstellung	-12.119
▁Wasserfahrzeug	-12.1192
ub	-12.1192
▁hochge	-12.1193
ester	-12.1193
▁antike	-12.1194
▁met	-12.1195
▁butt	-12.1195
blade	-12.1195
▁Tische	-12.1196
scheinen	-12.1197
▁Schülerin	-12.1197
▁beenden	-12.1197
▁Gegenspieler	-12.1198
ugh	-12.1198
▁early	-12.12
▁Haupt	-12.1201
▁bug	-12.1201
▁pain	-12.1202
▁Tarnhose	-12.1202
▁Schutzwesten	-12.1203
▁hochkletter	-12.1203
▁Flieger	-12.1203
▁bones	-12.1203
▁conditions	-12.1203
aune	-12.1204
ot	-12.1204
▁spi	-12.1204
▁lost	-12.1205
feier	-12.1205
lterer	-12.1206
▁entlanggehen	-12.1206
badet	-12.1207
figuren	-12.1208
klasse	-12.1209
▁Day	-12.1209
▁geschoben	-12.121
▁vollständig	-12.121
▁struggles	-12.121
▁served	-12.121
▁Turnier	-12.1211
▁stock	-12.1211
▁safe	-12.1212
▁shingles	-12.1215
bungen	-12.1215
▁pout	-12.1218
▁zuhören	-12.1219
▁Nudeln	-12.122
adles	-12.122
gers	-12.1221
▁Lichtern	-12.1222
▁fairy	-12.1224
▁anschauen	-12.1225
▁leashes	-12.1227
▁gum	-12.1228
wo	-12.1229
▁Logo	-12.1231
▁Inder	-12.1231
▁keys	-12.1232
▁kimonos	-12.1232
▁earrings	-12.1232
▁Urlaubs	-12.1232
▁snowman	-12.1233
▁taste	-12.1235
▁count	-12.1235
▁letzten	-12.1237
rote	-12.1237
schwarze	-12.1239
zy	-12.1241
▁toast	-12.1241
▁Wir	-12.1242
▁kleinere	-12.1242
ut	-12.1245
▁Baums	-12.1246
▁available	-12.1252
▁designer	-12.1254
▁Skulpturen	-12.1254
stretched	-12.1256
icle	-12.1259
kostümen	-12.1259
spi	-12.1259
▁barking	-12.126
▁gedeckt	-12.126
▁cookies	-12.1262
▁zueinander	-12.1264
▁completed	-12.1268
▁Cola	-12.1271
▁Golden	-12.1271
▁Kamelen	-12.1274
▁rangel	-12.1282
▁tear	-12.1288
▁scharfe	-12.1289
▁Fackeln	-12.1289
▁Fliegen	-12.129
▁Rollen	-12.1292
▁coolers	-12.1292
▁Pfannen	-12.1295
▁informal	-12.1295
▁rollen	-12.1302
▁Bretter	-12.1302
▁strawberr	-12.1302
▁Platten	-12.1307
▁würden	-12.1307
▁chips	-12.1309
farbe	-12.131
cla	-12.1311
▁saying	-12.1312
▁schippe	-12.1313
▁cause	-12.1313
▁twi	-12.1317
▁weapons	-12.1318
▁steers	-12.1319
nummer	-12.1322
▁Halsketten	-12.1324
▁carried	-12.1328
rotes	-12.133
▁Derby	-12.1338
reist	-12.1344
▁marking	-12.1345
reckt	-12.1346
▁fighter	-12.1347
▁crowns	-12.1347
▁Bahnen	-12.1347
▁mcdonalds	-12.1347
cept	-12.1348
▁Ra	-12.1351
▁mill	-12.1353
liches	-12.1355
▁waten	-12.1361
gefähr	-12.1366
sicht	-12.1367
seilen	-12.137
mützen	-12.1371
▁Wangen	-12.1377
iver	-12.1383
▁Chips	-12.139
▁moos	-12.1391
▁Trop	-12.1392
▁states	-12.1406
▁Felsens	-12.1409
▁unse	-12.141
▁Kleidungsstücke	-12.1414
▁sichtbar	-12.142
▁Tages	-12.142
capp	-12.1428
▁Dog	-12.1428
▁fashionabl	-12.1431
▁gefäl	-12.1434
▁goats	-12.1435
▁neongrüne	-12.1436
ucking	-12.1438
▁storm	-12.1443
dies	-12.1447
ität	-12.1455
lammen	-12.1456
ndern	-12.1456
▁piercing	-12.146
kreuzt	-12.1463
▁cheeks	-12.1464
▁trays	-12.1464
▁parachutes	-12.1464
▁handles	-12.1466
onne	-12.1471
▁cler	-12.1475
▁verbring	-12.1476
indernisparcours	-12.1476
▁rund	-12.1484
▁übergroße	-12.1486
▁vorbereiten	-12.1489
▁Pa	-12.1492
▁suitcases	-12.1494
▁Heißluftballons	-12.1494
eilt	-12.1501
▁Büchern	-12.1501
▁Schaufenstern	-12.1508
gent	-12.1509
turm	-12.1514
▁Blase	-12.1517
amara	-12.1519
▁Hänge	-12.1529
ssaal	-12.1539
▁dye	-12.154
▁Teamkollege	-12.1542
▁menschliche	-12.1542
▁Kon	-12.1543
▁wheeler	-12.1547
▁bedruckt	-12.1549
▁feathers	-12.1552
▁Großm	-12.1555
nike	-12.1561
▁warn	-12.1569
▁Do	-12.1572
na	-12.1579
▁retriev	-12.1581
▁elephants	-12.1582
rzte	-12.1585
▁angels	-12.1587
▁malerische	-12.1604
▁Tre	-12.1605
▁spark	-12.1609
▁motorbikes	-12.1612
▁island	-12.1612
geschlagene	-12.1624
selbe	-12.1626
tang	-12.1629
schüttet	-12.1637
▁storefronts	-12.1642
▁write	-12.1642
▁hatte	-12.1647
arr	-12.1647
▁mittens	-12.1657
▁Wüsten	-12.1663
▁clearing	-12.1673
▁aufge	-12.1682
tes	-12.1684
mused	-12.1689
▁Kre	-12.1693
▁Masken	-12.1718
▁förmliche	-12.1721
▁apples	-12.1722
▁Kricketspiel	-12.1729
▁Hecke	-12.1729
richten	-12.1755
io	-12.1761
▁opponents	-12.1762
▁Küsten	-12.1764
▁Einfahrt	-12.1766
▁verkehr	-12.1774
ised	-12.1775
▁pol	-12.1777
▁Las	-12.1778
▁gesichert	-12.178
▁knappe	-12.1793
zeichnet	-12.18
gerichtete	-12.1802
▁Bill	-12.1806
▁marineblau	-12.1832
Air	-12.1834
cheinwerferlicht	-12.1842
eye	-12.1852
▁towels	-12.1853
▁chil	-12.1854
▁chan	-12.1882
▁photographing	-12.1887
▁layer	-12.1891
▁Ru	-12.1902
▁posts	-12.1904
▁parts	-12.1917
▁posters	-12.1918
▁Ausführ	-12.1921
elle	-12.1923
ari	-12.1924
hal	-12.1931
pping	-12.1933
▁prof	-12.1945
rus	-12.1947
chaufensterfront	-12.195
geräte	-12.1958
▁grip	-12.1961
▁chains	-12.1974
▁sheets	-12.1975
▁shirted	-12.1983
▁Va	-12.1995
die	-12.2014
sessel	-12.203
▁tw	-12.2036
▁mixt	-12.205
artig	-12.2051
nis	-12.2057
ff	-12.2061
▁Lastwagens	-12.2067
▁cows	-12.207
ol	-12.2102
ug	-12.2105
▁admire	-12.2105
arm	-12.2114
▁vorbeigehende	-12.2117
werkzeug	-12.2118
▁Teile	-12.2129
ster	-12.213
uss	-12.2131
▁brä	-12.2132
tzen	-12.214
▁cloths	-12.214
▁Dart	-12.2149
▁flee	-12.2151
mish	-12.2156
▁übersäte	-12.2157
▁Spielzeugen	-12.2166
▁besuch	-12.2168
ellow	-12.2169
▁Segelboote	-12.218
geschäfts	-12.2205
▁Met	-12.2214
ele	-12.2224
rung	-12.2247
coal	-12.2247
▁send	-12.225
▁Dreiräder	-12.2261
▁mats	-12.2267
dle	-12.2272
▁zuguck	-12.2274
▁bemalte	-12.2277
▁Reklame	-12.2302
rie	-12.2305
▁hübsch	-12.234
ang	-12.2345
▁singers	-12.2353
geschnittene	-12.2363
▁given	-12.2366
▁relaxe	-12.2388
▁starts	-12.2391
▁kniend	-12.2398
Ha	-12.2399
ile	-12.2405
▁Winterm	-12.2405
suchen	-12.241
▁ungewöhnlich	-12.242
▁patrol	-12.2422
▁Fr	-12.2427
ice	-12.2471
kund	-12.2476
Meter	-12.2505
▁stores	-12.2507
▁holes	-12.2526
ative	-12.2542
oy	-12.2562
platten	-12.2563
tage	-12.2567
per	-12.2584
▁schwarzweiß	-12.261
tly	-12.2611
ät	-12.2617
▁mouths	-12.262
ath	-12.2625
▁abs	-12.264
host	-12.2652
plakat	-12.2666
bling	-12.2681
▁Singe	-12.2687
tzt	-12.2703
▁gepflegte	-12.2704
kommende	-12.2706
▁Schneeschuh	-12.2725
decker	-12.2734
iegt	-12.2738
elben	-12.2755
gel	-12.2762
▁Vaters	-12.2767
▁fle	-12.2788
▁retai	-12.2792
▁Trockne	-12.2793
▁handed	-12.2796
crew	-12.281
stelle	-12.2816
Afroamerikanerin	-12.2822
wöl	-12.2853
tragen	-12.2871
▁leer	-12.2877
▁dr	-12.2881
▁bean	-12.2883
▁eigene	-12.289
ington	-12.2899
▁Grills	-12.2902
abst	-12.2904
▁Her	-12.2908
▁Deutsche	-12.2909
▁ri	-12.2911
▁theme	-12.2928
graben	-12.2932
▁Kanal	-12.2939
sraum	-12.2945
▁ganze	-12.296
▁Schleif	-12.2977
▁förmlich	-12.2982
▁verbundene	-12.2987
▁Halte	-12.2996
▁modisch	-12.3016
▁beginnen	-12.3028
ailing	-12.3028
▁Japaner	-12.3031
▁arab	-12.3037
▁wirken	-12.3053
ries	-12.3061
ichten	-12.3077
▁Ziegelstein	-12.3081
▁kor	-12.3082
▁brünett	-12.3091
▁add	-12.3094
▁emerg	-12.3106
▁Fuße	-12.3118
▁gesenkt	-12.3131
▁nichts	-12.3147
▁Alt	-12.3158
▁prepar	-12.3178
springer	-12.318
▁hu	-12.3197
▁dribbl	-12.3197
otte	-12.321
mas	-12.3211
rank	-12.3222
lam	-12.3261
▁rein	-12.3262
▁hero	-12.3268
▁communicat	-12.3273
▁snowboarders	-12.3274
kü	-12.3277
kreuz	-12.3277
▁parken	-12.3291
personal	-12.3296
ors	-12.3309
ottis	-12.3311
ufällig	-12.3313
tet	-12.3319
terior	-12.3326
▁Ste	-12.3341
▁sichtbare	-12.335
▁stor	-12.335
▁protestieren	-12.3351
betrieben	-12.336
ör	-12.3365
smittel	-12.337
▁handl	-12.3375
rade	-12.3375
ating	-12.3378
spielerin	-12.3379
▁gestapelt	-12.3386
satz	-12.3387
spiegel	-12.3389
▁tip	-12.3401
führenden	-12.3402
▁thought	-12.3406
ford	-12.3407
▁Reisen	-12.3419
▁Ausstellungs	-12.342
trupp	-12.3421
▁grin	-12.3422
outfit	-12.3427
mittel	-12.3432
muff	-12.344
Team	-12.345
▁Künstlerin	-12.3452
steinen	-12.3457
▁Jung	-12.3459
baby	-12.346
▁char	-12.3466
▁traurige	-12.3467
cap	-12.3467
▁winken	-12.3472
▁brow	-12.3474
kegel	-12.3474
▁zusammenge	-12.3483
junge	-12.3484
uß	-12.3485
▁pat	-12.349
▁Fernseh	-12.3495
▁instructor	-12.3509
▁Glasgebäude	-12.3509
▁super	-12.3515
▁fahr	-12.3519
gedruckt	-12.3521
bert	-12.3521
▁holiday	-12.3522
▁zombie	-12.3522
▁pancake	-12.3522
lpen	-12.3523
dam	-12.3526
by	-12.3526
▁rabbit	-12.3528
▁cupcake	-12.3528
▁Unterhaltung	-12.3529
hält	-12.3532
stle	-12.3534
▁seagull	-12.3534
zieh	-12.3534
▁blind	-12.3535
▁patron	-12.3536
▁Leben	-12.3536
▁lip	-12.3536
▁crayon	-12.3537
▁cookie	-12.3537
schauen	-12.354
wache	-12.3541
▁rollerblade	-12.3541
form	-12.3543
▁shield	-12.3543
▁gymnastic	-12.3545
bull	-12.3547
▁weld	-12.3549
The	-12.3553
bewegungen	-12.3555
stapel	-12.3556
▁word	-12.3557
pool	-12.356
ashore	-12.3563
kommt	-12.3563
shake	-12.3565
osa	-12.3565
ata	-12.3566
▁vault	-12.3567
▁Geschichte	-12.3568
▁Fingernägel	-12.3568
▁Schere	-12.3569
kreis	-12.3569
ohren	-12.3569
Logo	-12.3569
▁purchas	-12.357
where	-12.357
Festival	-12.3571
besuch	-12.3571
Welt	-12.3571
drawn	-12.3572
überdachte	-12.3572
▁Schwimmhilfe	-12.3573
ficial	-12.3573
ador	-12.3574
scarves	-12.3574
pad	-12.3575
Kugel	-12.3575
Puppe	-12.3575
▁lantern	-12.3575
bietet	-12.3575
bringt	-12.3576
salon	-12.3576
gesäumte	-12.3576
position	-12.3576
Wettbewerb	-12.3577
count	-12.3577
▁Broschüre	-12.3577
lässt	-12.3577
▁Gesichtsmaske	-12.3577
Fahrrad	-12.3577
Künstler	-12.3577
küsst	-12.3577
runner	-12.3578
screen	-12.3578
Schuhen	-12.3578
Laden	-12.3578
Veranstaltung	-12.3578
goldene	-12.3578
Statue	-12.3578
type	-12.3578
schlägt	-12.3578
jump	-12.3578
hood	-12.3578
Gebäude	-12.3578
parade	-12.3578
Shorts	-12.3578
white	-12.3578
Gruppe	-12.3578
Land	-12.3578
Feld	-12.3578
Jacke	-12.3578
equi	-12.3579
well	-12.3579
▁rode	-12.3579
▁demonstrate	-12.358
lift	-12.358
Fußballspieler	-12.358
fort	-12.3581
deep	-12.3582
wall	-12.3582
▁Nudel	-12.3583
▁Schiene	-12.3584
▁Kiefer	-12.3584
▁Banane	-12.3585
▁Möwe	-12.3585
▁Toilette	-12.3585
rou	-12.3585
ierende	-12.3586
▁Flügel	-12.3586
▁langärmelige	-12.3587
▁streetlight	-12.3587
love	-12.3587
▁Rettungsweste	-12.3588
▁Anzüge	-12.359
▁africa	-12.359
bike	-12.3591
wearing	-12.3591
▁schreien	-12.3591
▁Bahngleise	-12.3592
▁aufgehängt	-12.3593
dog	-12.3594
opping	-12.3595
hellbraune	-12.3595
Skater	-12.3597
▁interest	-12.36
boy	-12.3602
xy	-12.3603
▁Inderin	-12.3606
auptsä	-12.3607
care	-12.3609
▁soon	-12.3613
▁Jahr	-12.3614
▁rop	-12.3614
orangen	-12.3614
uniformen	-12.3614
▁scr	-12.3615
▁Geh	-12.3617
▁Passagier	-12.3617
handed	-12.3617
▁Viel	-12.3619
leine	-12.362
▁via	-12.3621
ski	-12.3623
eckige	-12.3623
musik	-12.3625
▁Rolle	-12.3626
holt	-12.3627
▁pad	-12.3627
lader	-12.3628
wärts	-12.3629
▁elegant	-12.3629
▁Elf	-12.363
▁Wasserball	-12.363
▁stocking	-12.3631
▁bewach	-12.3632
▁Trink	-12.3634
▁Anweisung	-12.3635
üssen	-12.3635
ön	-12.3637
▁occurr	-12.3639
▁Besuch	-12.3642
▁Eiscrem	-12.3642
oting	-12.3643
▁extend	-12.3644
western	-12.3644
▁fir	-12.3644
kart	-12.3644
▁law	-12.3644
▁Transport	-12.3645
geführt	-12.3645
▁Lenk	-12.3646
▁hous	-12.3647
▁versteck	-12.3648
▁Wohn	-12.3648
schloss	-12.3649
▁Schwer	-12.3652
▁Kühl	-12.3652
gebiet	-12.3652
wan	-12.3653
▁quick	-12.3653
▁betreib	-12.3653
schlitten	-12.3655
▁Marke	-12.3656
ngerichtet	-12.3656
▁Kranken	-12.3656
tafel	-12.3656
pfosten	-12.3656
iki	-12.3657
peedo	-12.3657
stoff	-12.3657
tarbucks	-12.3657
lanke	-12.3658
▁afro	-12.3658
sprecher	-12.3659
ution	-12.3659
▁Schotter	-12.3659
▁Schreib	-12.3659
▁Flag	-12.3659
▁enthusiast	-12.3659
grube	-12.3659
verkauf	-12.3659
▁Shop	-12.3659
hauer	-12.3659
▁react	-12.3659
feder	-12.3659
gäste	-12.3659
▁Bleistift	-12.3659
▁euro	-12.3659
▁Blut	-12.3659
blumen	-12.366
wohn	-12.366
▁Elektronik	-12.366
▁Gehörschutz	-12.366
▁KitchenAid	-12.366
▁Krokodil	-12.366
▁Scheitel	-12.366
▁Zebra	-12.366
▁Concert	-12.366
▁origin	-12.366
▁skeleton	-12.366
Love	-12.366
beleuchtung	-12.366
berqueren	-12.366
geschirr	-12.366
jungf	-12.366
kko	-12.366
manövriert	-12.366
oskop	-12.366
rayola	-12.366
vermählte	-12.366
zufinden	-12.366
▁Abenddämmerung	-12.366
▁Absolventen	-12.366
▁Ananas	-12.366
▁Angelschnur	-12.366
▁Anlass	-12.366
▁Apparat	-12.366
▁Basketbälle	-12.366
▁Bassgitarre	-12.366
▁Berufs	-12.366
▁Bronzes	-12.366
▁Bärten	-12.366
▁Cricket	-12.366
▁Dokument	-12.366
▁Elektrogitarre	-12.366
▁Essstäbchen	-12.366
▁Felsenklippe	-12.366
▁Fundament	-12.366
▁Fäuste	-12.366
▁Gabelstapler	-12.366
▁Gasmaske	-12.366
▁Gebirge	-12.366
▁Gedanken	-12.366
▁Geisha	-12.366
▁Gerätschaften	-12.366
▁Glatzenansatz	-12.366
▁Happen	-12.366
▁Harmonika	-12.366
▁Hausaufgaben	-12.366
▁Hockeyschläger	-12.366
▁Hölle	-12.366
▁Kälte	-12.366
▁Leichtathlet	-12.366
▁Leotard	-12.366
▁Liegestütze	-12.366
▁Maiskolben	-12.366
▁Mundharmonika	-12.366
▁Nacken	-12.366
▁Neun	-12.366
▁Notebook	-12.366
▁Olympia	-12.366
▁Ordnung	-12.366
▁Oxford	-12.366
▁Paintball	-12.366
▁Papiertüte	-12.366
▁Pendler	-12.366
▁Pickup	-12.366
▁Pinien	-12.366
▁Podest	-12.366
▁Pokal	-12.366
▁Poolbillard	-12.366
▁SUV	-12.366
▁Schläfchen	-12.366
▁Schläuche	-12.366
▁Schneidebrett	-12.366
▁Skyline	-12.366
▁Sombrero	-12.366
▁Sonnenschein	-12.366
▁Spagat	-12.366
▁Sportereignis	-12.366
▁Sprinkler	-12.366
▁Strafzettel	-12.366
▁Strickjacke	-12.366
▁Stäbchen	-12.366
▁Tuba	-12.366
▁Töpferscheibe	-12.366
▁UNICEF	-12.366
▁Universität	-12.366
▁Unterstützung	-12.366
▁Verstärker	-12.366
▁abzuwehren	-12.366
▁aircraft	-12.366
▁balconies	-12.366
▁beleibte	-12.366
▁bloom	-12.366
▁bookbag	-12.366
▁brazil	-12.366
▁breitkrempigen	-12.366
▁brief	-12.366
▁bügelt	-12.366
▁cafeteria	-12.366
▁chinatown	-12.366
▁chubby	-12.366
▁consider	-12.366
▁convertible	-12.366
▁crib	-12.366
▁crutches	-12.366
▁deutlich	-12.366
▁diskutiert	-12.366
▁empor	-12.366
▁erklärt	-12.366
▁fatigue	-12.366
▁fitness	-12.366
▁fliederfarbene	-12.366
▁französische	-12.366
▁freuen	-12.366
▁frustrated	-12.366
▁frustriert	-12.366
▁galoppier	-12.366
▁gefilmt	-12.366
▁geneigte	-12.366
▁gescheckte	-12.366
▁gleiten	-12.366
▁glitzernde	-12.366
▁heiraten	-12.366
▁hopscotch	-12.366
▁hämmer	-12.366
▁kettle	-12.366
▁knietief	-12.366
▁kostet	-12.366
▁landmark	-12.366
▁liberty	-12.366
▁liebkost	-12.366
▁llama	-12.366
▁mechanische	-12.366
▁megaphone	-12.366
▁mermaid	-12.366
▁motorboat	-12.366
▁musikalische	-12.366
▁octopus	-12.366
▁paintbrush	-12.366
▁parasol	-12.366
▁piggyback	-12.366
▁pineapple	-12.366
▁poverty	-12.366
▁pregnant	-12.366
▁prun	-12.366
▁prunkvolle	-12.366
▁renovier	-12.366
▁rescu	-12.366
▁satchel	-12.366
▁schlummert	-12.366
▁schwanger	-12.366
▁screwdriver	-12.366
▁seaweed	-12.366
▁senffarbene	-12.366
▁sombrero	-12.366
▁studies	-12.366
▁substance	-12.366
▁sunrise	-12.366
▁technique	-12.366
▁technology	-12.366
▁terrace	-12.366
▁thread	-12.366
▁trombone	-12.366
▁ukulele	-12.366
▁ungepflegte	-12.366
▁unison	-12.366
▁vegas	-12.366
▁verhindern	-12.366
▁verzerrte	-12.366
▁vorliest	-12.366
▁workbench	-12.366
lastwagen	-12.366
▁Bürgerkriegs	-12.366
▁Deere	-12.366
▁Dirtbike	-12.366
▁Ehemann	-12.366
▁Hispan	-12.366
▁Husky	-12.366
▁Knochen	-12.366
▁Maulesel	-12.366
▁Schneeengel	-12.366
▁Schneewehe	-12.366
▁Schokoladeneis	-12.366
▁Teammitglied	-12.366
▁Truppe	-12.366
▁University	-12.366
▁Wörter	-12.366
▁Zentrum	-12.366
▁besprechen	-12.366
▁diaper	-12.366
▁geisha	-12.366
▁gelandet	-12.366
▁honor	-12.366
▁lötet	-12.366
▁pounc	-12.366
▁saust	-12.366
▁stalks	-12.366
▁zerrissene	-12.366
▁Enkel	-12.366
▁Hochzeitsfoto	-12.366
▁Holzkohle	-12.366
▁Insekt	-12.366
▁Kombi	-12.366
▁Küchentheke	-12.366
▁Technik	-12.366
▁Windsurfe	-12.366
▁angelehnt	-12.366
▁flexible	-12.366
▁geduckt	-12.366
▁jugendliche	-12.366
▁Wohnmobil	-12.366
▁guest	-12.366
▁rasieren	-12.366
▁triangle	-12.366
Freiheitsstatue	-12.366
▁Capri	-12.366
▁Ernte	-12.366
▁Leitung	-12.366
▁stutz	-12.366
enfor	-12.366
▁Gebäck	-12.366
▁Kunstmuseum	-12.366
▁Langarmhemd	-12.366
▁Staubwolke	-12.366
▁dealer	-12.366
▁flatbed	-12.366
▁foundation	-12.366
▁mailbox	-12.366
▁oxford	-12.366
▁Miniatur	-12.366
▁Kühlbox	-12.366
▁apparel	-12.366
▁cluster	-12.366
▁footbridge	-12.366
▁Toast	-12.366
▁Werbetafel	-12.366
▁erwischen	-12.366
▁stairwell	-12.366
▁Pfahl	-12.366
▁Stepp	-12.366
▁aufgemalt	-12.366
▁Cockpit	-12.366
▁Küchentisch	-12.366
▁frolic	-12.366
▁prüfen	-12.366
▁Alltag	-12.366
▁graphic	-12.366
▁swimwear	-12.366
▁Badesachen	-12.366
▁Hafenbecken	-12.366
▁Kunsthandwerk	-12.366
▁angezeigt	-12.366
▁Einkaufen	-12.366
▁Gestrüpp	-12.366
▁Flanellhemd	-12.366
▁eatery	-12.366
▁nahöstliche	-12.366
▁scheu	-12.366
▁tether	-12.366
▁Dorfbewohner	-12.366
▁Mittelalter	-12.366
▁Notenständer	-12.366
▁Verwend	-12.366
Grundschulkinder	-12.366
▁Matsch	-12.366
▁Skipiste	-12.366
▁Action	-12.366
▁Mütter	-12.366
▁save	-12.366
▁session	-12.366
▁playpen	-12.366
▁master	-12.366
▁Barriere	-12.366
▁Knieschützer	-12.366
▁Laubbläser	-12.366
▁Meeresufer	-12.366
▁Reinigungs	-12.366
▁Notizbuch	-12.366
▁großartige	-12.366
▁princess	-12.366
▁buoy	-12.366
▁horizontal	-12.366
aße	-12.366
▁Schulbus	-12.366
▁contestant	-12.366
▁magic	-12.366
▁Henna	-12.366
▁Kokosnüsse	-12.366
▁loose	-12.366
▁Holzpfahl	-12.366
▁Prüfung	-12.366
▁bewer	-12.366
▁Boxkampf	-12.366
▁Gummistiefel	-12.366
▁Spinnrad	-12.366
▁Wäscheleine	-12.366
ausflug	-12.366
▁enthält	-12.366
▁outfielder	-12.366
▁Bauprojekt	-12.366
▁bookstore	-12.366
▁miniskirt	-12.366
▁schließen	-12.366
pong	-12.366
▁Ausblick	-12.366
▁Müllbeutel	-12.366
▁Laubhaufen	-12.366
▁Pelzmantel	-12.366
▁getupfte	-12.366
▁Taucherbrille	-12.366
▁Schindel	-12.366
▁Schuhputzer	-12.366
▁Steinstufen	-12.366
▁Rückhand	-12.366
▁knock	-12.366
▁Vorhang	-12.366
utfielder	-12.366
▁Treppengeländer	-12.366
▁Verkehrsmittel	-12.366
litary	-12.366
▁Krücken	-12.366
▁spill	-12.366
▁Protestschild	-12.366
▁Umschlag	-12.366
▁hairnet	-12.366
▁slowly	-12.366
rünette	-12.366
▁Wohnwagen	-12.366
▁Essensverkäufer	-12.366
▁manual	-12.366
▁notice	-12.366
▁Marsch	-12.366
▁Talent	-12.366
▁metropoli	-12.366
▁spiral	-12.366
▁Plastikflasche	-12.366
▁mesh	-12.366
▁Marine	-12.366
▁pressure	-12.366
▁Windjacke	-12.366
▁Hinterteil	-12.366
▁gestric	-12.366
röße	-12.366
laufbahn	-12.366
▁pulley	-12.366
▁streiten	-12.366
▁youngsters	-12.366
▁Blumenmädchen	-12.366
▁Hör	-12.366
▁spectate	-12.366
▁moor	-12.366
▁unterbricht	-12.366
▁Packung	-12.366
▁Lesen	-12.366
▁cabinet	-12.366
▁grob	-12.366
▁came	-12.366
▁Brat	-12.3661
▁Wäschekorb	-12.3661
▁Waage	-12.3661
▁coke	-12.3661
▁else	-12.3661
▁Festzug	-12.3661
▁Solo	-12.3661
▁siding	-12.3661
▁flap	-12.3661
▁Kapuzenjacke	-12.3661
▁Einheimische	-12.3661
▁Sonnenhut	-12.3661
▁Atem	-12.3661
▁Bungee	-12.3661
▁Spiderman	-12.3661
▁hügelige	-12.3661
▁mascara	-12.3661
▁Bestellung	-12.3661
wanderweg	-12.3661
▁Pub	-12.3661
▁Heim	-12.3661
▁Jogginghose	-12.3661
▁verstreut	-12.3661
vious	-12.3661
▁napkin	-12.3661
▁Feuerleiter	-12.3661
▁winning	-12.3661
▁lunger	-12.3661
▁Fond	-12.3661
▁Partner	-12.3661
▁verspritzt	-12.3661
▁Straßenlampe	-12.3661
▁Dampf	-12.3661
▁gehören	-12.3661
▁Match	-12.3661
▁Zune	-12.3661
Piercing	-12.3661
▁jewelery	-12.3661
▁ceme	-12.3661
▁Stadtviertel	-12.3661
▁Bustier	-12.3661
▁thai	-12.3661
▁Steingebäude	-12.3661
▁Farm	-12.3661
▁grid	-12.3661
▁rasen	-12.3661
▁collection	-12.3661
▁gähnt	-12.3661
▁sunbathers	-12.3661
▁Seetang	-12.3661
▁neigt	-12.3661
▁zusammengebaut	-12.3661
▁adolescent	-12.3662
▁weeds	-12.3662
lugt	-12.3662
▁Spielzeugpferd	-12.3662
▁crush	-12.3662
▁simpl	-12.3662
▁Barren	-12.3662
▁Rückenschwimmen	-12.3662
▁spear	-12.3662
▁bestimmte	-12.3662
▁Piraten	-12.3662
▁herbs	-12.3662
▁abwärts	-12.3662
▁Starbucks	-12.3662
ellen	-12.3662
▁partner	-12.3662
▁Steinwand	-12.3662
▁Holztür	-12.3662
▁jug	-12.3662
▁puzzle	-12.3662
▁disk	-12.3662
▁Schwung	-12.3662
▁Eisskulptur	-12.3662
▁Meerwasser	-12.3662
▁freundlich	-12.3663
ettungsschwimmer	-12.3663
▁elevator	-12.3663
▁Basketballwurf	-12.3663
▁appre	-12.3663
▁stumbl	-12.3663
▁Feuerwehrwagen	-12.3663
igan	-12.3663
▁slum	-12.3663
▁rear	-12.3663
▁Schuhgeschäft	-12.3663
▁Uniformierte	-12.3663
▁Darstell	-12.3663
▁Wanderung	-12.3663
▁erhebt	-12.3663
▁vorübergehen	-12.3663
▁Blumentopf	-12.3663
▁Apartment	-12.3663
▁Hühner	-12.3663
▁soil	-12.3663
▁Haarnetz	-12.3663
▁pastries	-12.3663
meter	-12.3664
stapelt	-12.3664
▁Backware	-12.3664
▁gekreuzt	-12.3664
▁ju	-12.3664
▁Angler	-12.3664
▁commuter	-12.3664
▁Telefonmasten	-12.3664
▁discover	-12.3664
▁Kickboxen	-12.3664
▁stationary	-12.3664
▁Gemüsemarkt	-12.3664
▁Schrauben	-12.3664
▁Saiten	-12.3664
▁Kino	-12.3664
ohlen	-12.3664
▁paintball	-12.3665
wirtschaftliche	-12.3665
▁Holzrampe	-12.3665
▁Sportspiel	-12.3665
Kostümen	-12.3665
▁getackelt	-12.3665
ungee	-12.3665
▁befreit	-12.3665
▁Kopie	-12.3665
▁Löcher	-12.3665
▁capri	-12.3665
orous	-12.3665
▁matsch	-12.3666
▁latino	-12.3666
▁Dusche	-12.3666
▁vig	-12.3666
▁glanc	-12.3666
enthusiastically	-12.3666
▁Radfahren	-12.3666
▁Basketballplatz	-12.3667
▁Life	-12.3667
▁Werkzeuge	-12.3667
▁Armband	-12.3667
▁Jeansrock	-12.3667
▁Fu	-12.3667
▁smell	-12.3668
▁Spüle	-12.3668
▁Schneehügel	-12.3668
▁Luftsprung	-12.3668
▁such	-12.3669
▁festive	-12.3669
▁Falke	-12.367
▁runway	-12.367
▁scri	-12.367
▁countertop	-12.367
▁Blumenfeld	-12.367
▁ausgefallene	-12.367
arley	-12.367
▁basement	-12.3671
▁sumpfige	-12.3671
▁gewaschen	-12.3671
▁scared	-12.3671
▁Beifahrer	-12.3671
▁Chirurgen	-12.3671
▁Stammes	-12.3672
▁eingegraben	-12.3672
▁Melonen	-12.3672
▁Drähten	-12.3672
▁Paddeln	-12.3672
▁Bierflaschen	-12.3672
streut	-12.3672
▁exposed	-12.3672
▁Tennisbällen	-12.3673
▁kickboxing	-12.3673
▁Affen	-12.3673
▁spider	-12.3673
▁hinunterfährt	-12.3673
▁Papp	-12.3673
▁steal	-12.3673
▁pace	-12.3673
▁Trage	-12.3674
▁grown	-12.3674
▁Hasen	-12.3674
▁geduldig	-12.3674
▁SpongeBob	-12.3674
▁Offizier	-12.3674
▁Anlage	-12.3674
▁Country	-12.3674
▁verdienen	-12.3674
▁duscht	-12.3674
▁tägliche	-12.3674
▁prahl	-12.3674
▁Tintenfisch	-12.3674
▁temporary	-12.3674
▁Lenker	-12.3674
▁wirbt	-12.3674
▁Pulver	-12.3675
▁Flohmarkt	-12.3675
▁kuschel	-12.3675
▁vast	-12.3675
▁Hosentasche	-12.3675
▁pflanz	-12.3675
▁Fußballplatz	-12.3676
henna	-12.3676
dish	-12.3676
▁verbringt	-12.3676
▁grinst	-12.3676
▁tightly	-12.3676
▁mountainside	-12.3676
▁buggy	-12.3677
▁stemm	-12.3677
▁extended	-12.3677
▁hawk	-12.3677
▁vine	-12.3678
geschnallt	-12.3678
▁comfortable	-12.3678
▁beschnüffelt	-12.3678
▁Keller	-12.3678
▁change	-12.3678
▁Lo	-12.3679
zuschlagen	-12.3679
▁Hot	-12.3679
chlich	-12.3679
▁befördert	-12.368
▁boss	-12.368
▁arid	-12.368
▁overcoat	-12.368
▁Sportplatz	-12.368
▁Misch	-12.368
▁prizes	-12.3681
ould	-12.3681
▁Fahren	-12.3682
▁steaks	-12.3682
▁Wasserschlauch	-12.3682
▁unic	-12.3682
▁Sub	-12.3682
haut	-12.3682
▁peri	-12.3682
▁Kopfball	-12.3683
▁sat	-12.3683
ampel	-12.3684
▁gern	-12.3684
▁oxen	-12.3684
▁darau	-12.3685
▁glo	-12.3685
▁seeds	-12.3686
▁ausgelegt	-12.3686
▁Butter	-12.3687
▁vorwärts	-12.3687
▁Kleinbus	-12.3687
▁Frisch	-12.3687
▁Raster	-12.3687
fortun	-12.3689
▁nacheinander	-12.3689
▁wischen	-12.369
▁chart	-12.3691
▁graduate	-12.3691
▁Schweißer	-12.3692
▁stramm	-12.3692
wärmen	-12.3693
▁dropped	-12.3693
▁tuba	-12.3693
▁hellhäutig	-12.3694
wählen	-12.3694
▁ragt	-12.3694
▁hol	-12.3694
▁Ohrhörern	-12.3694
▁Schärpen	-12.3694
▁Limonaden	-12.3694
▁Kühen	-12.3694
bergab	-12.3695
▁kayaker	-12.3697
▁desp	-12.3697
▁muslimische	-12.3697
▁jo	-12.3697
▁Seh	-12.3697
▁Von	-12.3698
▁stürmische	-12.3698
▁behinderte	-12.3699
▁hier	-12.3699
▁Krieg	-12.37
▁sägen	-12.37
▁veteran	-12.37
▁stride	-12.3701
▁Schießen	-12.3701
▁gar	-12.3703
schaffen	-12.3703
▁thre	-12.3704
▁hunt	-12.3704
▁feel	-12.3706
▁sprinting	-12.3706
cha	-12.3709
▁partly	-12.371
▁Reh	-12.3711
kten	-12.3711
▁evil	-12.3712
▁weathered	-12.3713
▁peach	-12.3715
▁Ja	-12.3715
▁Lichter	-12.3716
▁tasting	-12.3716
▁Zügen	-12.3717
▁Kimonos	-12.3717
▁coconuts	-12.3717
▁participants	-12.3717
▁troops	-12.3717
ierung	-12.3718
▁sausages	-12.3718
▁Töpfen	-12.3718
▁Spinn	-12.3719
overalls	-12.372
▁Sooners	-12.3721
▁vorbeilaufen	-12.3722
▁wachsen	-12.3723
▁Holzkiste	-12.3723
▁ernte	-12.3725
▁lav	-12.3726
ähnen	-12.3726
▁kauer	-12.3726
▁floors	-12.3726
▁Anzeige	-12.3726
▁gebunden	-12.3726
▁washed	-12.3727
crop	-12.3727
▁topic	-12.373
▁note	-12.373
▁skin	-12.3731
▁aufgebaut	-12.3731
▁drängel	-12.3732
▁wicke	-12.3732
platte	-12.3734
▁qui	-12.3735
▁Kurs	-12.3735
▁sollen	-12.3735
▁Fahrradgeschäft	-12.3735
▁ersten	-12.3736
▁Ringe	-12.3736
▁mingl	-12.3737
▁bay	-12.3738
▁herausragen	-12.3738
karten	-12.3739
▁roadway	-12.374
oles	-12.3741
▁Maultier	-12.3742
▁grins	-12.3742
▁Hebe	-12.3742
▁tausch	-12.3744
▁Bewegungen	-12.3746
gebäudes	-12.3747
▁dünner	-12.3747
regal	-12.3748
▁sandal	-12.3748
▁sew	-12.3749
▁zugedeckt	-12.3752
▁ausgef	-12.3753
▁hips	-12.3754
▁maskierte	-12.3754
▁joggers	-12.3755
▁roses	-12.3755
▁Gesellschafts	-12.3755
▁prevent	-12.3756
▁created	-12.3756
▁herauf	-12.3759
Industriegebäude	-12.376
▁Rotes	-12.3761
nah	-12.3762
▁Aufgaben	-12.3762
▁known	-12.3762
▁nähern	-12.3762
oh	-12.3766
▁zerr	-12.377
▁Ihr	-12.3771
waren	-12.3773
seil	-12.3774
luft	-12.3775
storte	-12.3775
ugs	-12.3775
▁Akt	-12.3779
▁Wasserweg	-12.3779
▁Sonnenschirmen	-12.3781
▁musizieren	-12.3783
leading	-12.3785
▁Bandmitgliedern	-12.3785
orse	-12.3787
▁Dunking	-12.3788
▁tram	-12.3788
anten	-12.3789
▁sweatshirts	-12.3789
▁plansch	-12.3792
▁shields	-12.3793
▁cupcakes	-12.3793
▁rabbits	-12.3793
▁stockings	-12.3793
▁Unterhaltungs	-12.3793
pul	-12.3794
▁chemis	-12.3796
▁wand	-12.3799
▁kayakers	-12.3801
▁Gitarrespieler	-12.3801
▁tatt	-12.3802
uation	-12.3807
▁Last	-12.3807
▁Eiern	-12.3807
▁Bauarbeiterhelm	-12.381
▁Fähr	-12.3815
▁cooked	-12.3816
sper	-12.3817
irways	-12.3818
▁Pos	-12.3819
▁Schwimmen	-12.3823
▁primitive	-12.3824
tted	-12.3831
sturm	-12.3832
▁Tu	-12.3833
▁mates	-12.3833
▁inflated	-12.3834
▁calling	-12.3835
▁Hemdchen	-12.3838
gelegt	-12.3839
▁Straßenarbeiten	-12.384
hä	-12.3841
▁schl	-12.3842
▁bearer	-12.3843
gucken	-12.3844
▁dir	-12.3844
▁mount	-12.3844
▁Regenschirme	-12.3845
▁gart	-12.385
▁rappe	-12.3851
▁Aufnahmen	-12.3854
▁Sesseln	-12.3854
ump	-12.3855
▁Angeln	-12.3856
nach	-12.3859
szenerie	-12.386
unning	-12.3864
▁lemons	-12.3869
▁pillars	-12.3869
▁cables	-12.3869
▁trockenes	-12.3871
gabe	-12.3877
eva	-12.3882
pferd	-12.3882
▁aufzunehmen	-12.3883
rest	-12.3885
▁wirk	-12.3886
heruntergefallen	-12.3887
tron	-12.3894
töpfe	-12.3896
▁drap	-12.3897
▁ox	-12.3897
▁pirates	-12.3908
▁defenders	-12.3908
▁heat	-12.391
eits	-12.3912
▁Rude	-12.3912
sgebäude	-12.3914
▁Steig	-12.3916
▁zelt	-12.3921
ambu	-12.3924
aube	-12.3926
▁Linien	-12.3926
▁goldgelbe	-12.3938
vel	-12.3943
▁Schnauzer	-12.3945
▁zoom	-12.3946
▁Snacks	-12.3946
ähne	-12.3947
▁texts	-12.3948
termin	-12.3955
▁speakers	-12.3955
▁provide	-12.3958
▁Har	-12.3958
▁pri	-12.3959
▁Mich	-12.3961
höhe	-12.3963
Arbeitsplatz	-12.3963
IN	-12.3965
legen	-12.3965
stoß	-12.3973
tu	-12.3975
welle	-12.3983
▁Nasen	-12.3984
▁wigs	-12.3985
▁diners	-12.3985
▁Se	-12.3986
▁flick	-12.3988
▁angezogenes	-12.3991
potted	-12.3996
Frauenvolleyball	-12.3999
▁arrange	-12.4
berg	-12.4001
▁buses	-12.4003
▁dös	-12.4006
teen	-12.401
gu	-12.4014
▁Waldes	-12.4015
▁Motorrollern	-12.4017
▁tätowiert	-12.4017
▁closer	-12.402
▁Roben	-12.4022
▁tote	-12.4035
▁regenbogenfarb	-12.4037
▁Lego	-12.4042
▁Objekten	-12.4044
▁künstlerische	-12.4046
üste	-12.4047
▁taller	-12.4054
▁viewer	-12.4056
▁interior	-12.4058
▁celebrates	-12.4063
▁Angelruten	-12.4065
▁Dingen	-12.4067
key	-12.4069
▁bellen	-12.4072
▁unpa	-12.4079
▁Kekse	-12.408
▁Rennhunde	-12.4081
▁weite	-12.4085
▁Zweig	-12.409
ase	-12.4095
▁Grillen	-12.41
▁chickens	-12.4102
▁boulders	-12.4102
▁Seile	-12.4106
züge	-12.4112
▁Ford	-12.4114
baum	-12.4116
▁once	-12.4124
▁hängende	-12.413
▁coun	-12.4131
▁Baseballkappen	-12.4136
▁typische	-12.4138
▁squ	-12.414
▁cram	-12.4152
scher	-12.4154
▁angemalt	-12.4158
▁Busse	-12.4161
lle	-12.4174
agt	-12.4174
▁künstliche	-12.4175
▁Spitzen	-12.418
gruppen	-12.42
▁Matten	-12.4208
▁Taxis	-12.4218
▁electronics	-12.4221
▁headbands	-12.4221
▁horns	-12.4221
▁shed	-12.4222
▁controls	-12.4228
abine	-12.4232
▁hitch	-12.4243
▁las	-12.4244
lton	-12.4263
▁surroundings	-12.4264
schaum	-12.4265
▁Ohrring	-12.4266
oma	-12.4267
▁sprinkle	-12.4276
▁Kan	-12.4283
▁hooping	-12.4299
▁firetrucks	-12.43
▁Spiele	-12.4302
cas	-12.4302
▁bi	-12.4304
▁umgedreht	-12.4309
▁swi	-12.4319
▁Reitern	-12.4329
▁verschmierte	-12.4334
▁muzzles	-12.4339
▁dunes	-12.434
▁guitarists	-12.434
▁Piers	-12.4341
▁fed	-12.4349
mach	-12.4352
▁Schalen	-12.4375
▁Kla	-12.4389
lern	-12.4391
ndes	-12.4412
▁rad	-12.4412
▁sprinte	-12.4415
zard	-12.4416
▁falsche	-12.4422
▁Anzieh	-12.4433
▁Militärs	-12.4444
▁Chan	-12.4446
helfe	-12.445
ndy	-12.4451
▁seeming	-12.4453
▁Bi	-12.4459
altestelle	-12.4468
▁messen	-12.4474
tation	-12.4482
▁tipp	-12.4485
▁cu	-12.4488
▁Tassen	-12.4488
los	-12.449
ars	-12.4493
▁mustach	-12.45
▁gebückte	-12.4501
▁Sche	-12.4504
▁eingepackte	-12.4513
ah	-12.4516
▁styl	-12.4519
▁Hoop	-12.4521
▁Schlangen	-12.4528
▁pr	-12.4529
roth	-12.4532
▁pant	-12.4535
▁Teppiche	-12.4535
bt	-12.4553
letterausrüstung	-12.4554
▁einzigartige	-12.456
eek	-12.4564
▁shapes	-12.4565
▁breit	-12.4571
▁grooms	-12.4583
▁trot	-12.4586
▁barb	-12.4587
▁bee	-12.459
Akkordeonspieler	-12.4591
▁Lei	-12.4607
▁Lu	-12.4612
urs	-12.4618
▁Na	-12.4628
shirted	-12.4649
egen	-12.4653
▁trained	-12.466
zeit	-12.4669
lbernen	-12.4679
▁Blasinstrumente	-12.4684
▁swa	-12.4685
▁prächtige	-12.4707
▁sales	-12.4711
ture	-12.4711
llt	-12.4721
▁graduati	-12.4723
▁decorati	-12.4744
eburtstagskuchen	-12.4755
▁Bud	-12.476
▁Fir	-12.4764
bagger	-12.4767
▁kl	-12.477
grund	-12.4774
▁Strandes	-12.4788
la	-12.4797
setzt	-12.4798
tal	-12.4805
▁pictured	-12.4807
▁verschwommen	-12.4817
▁bessere	-12.4829
▁wenige	-12.4861
▁lesend	-12.4868
▁wartende	-12.4879
▁pitchers	-12.4881
let	-12.489
▁rounds	-12.4895
▁slice	-12.4897
Sandplatz	-12.4911
racht	-12.492
▁def	-12.4921
▁professionelle	-12.4922
▁sticker	-12.4933
▁herunterzu	-12.4941
spielerinnen	-12.4976
ept	-12.498
▁Statuen	-12.4991
spielen	-12.4994
got	-12.5003
▁prints	-12.5017
llowing	-12.5042
▁Einzel	-12.5049
endlich	-12.5084
▁Frühstück	-12.5084
▁daughters	-12.5086
reitet	-12.5113
▁mach	-12.5114
ilitärangehörige	-12.513
▁bats	-12.5141
▁writ	-12.5159
äu	-12.5195
llac	-12.5196
▁rin	-12.5202
chu	-12.5208
tle	-12.5228
▁shu	-12.5233
lu	-12.5235
keeper	-12.5244
ortable	-12.5257
rowing	-12.5271
rit	-12.5274
off	-12.5289
vi	-12.529
▁adventur	-12.5294
▁lebhaft	-12.5294
▁don	-12.5297
▁Per	-12.5298
treiben	-12.5299
▁ways	-12.5301
▁grasbewachsenes	-12.5302
▁squares	-12.5302
wards	-12.5309
splay	-12.5312
szeit	-12.5319
di	-12.5327
▁sei	-12.5335
rong	-12.5338
▁neues	-12.534
igger	-12.5382
▁releas	-12.5389
pri	-12.539
gericht	-12.5413
immer	-12.5417
▁gl	-12.5424
käfig	-12.5433
▁sur	-12.5435
▁secur	-12.5452
▁Rohre	-12.5455
act	-12.546
▁neu	-12.5466
▁chi	-12.5468
laufende	-12.548
sort	-12.548
▁professionell	-12.5483
terrasse	-12.5492
nsetzt	-12.5492
▁tackel	-12.5497
▁inter	-12.55
ties	-12.5505
▁angeleint	-12.5506
▁Schaukeln	-12.551
old	-12.5571
▁beigefarben	-12.5571
▁verschwommene	-12.5575
▁ne	-12.5581
▁vierte	-12.5603
▁Pferdes	-12.5616
co	-12.5621
▁picke	-12.5635
denken	-12.5637
gefallene	-12.5655
▁Fahr	-12.5659
ger	-12.5679
ct	-12.5689
▁gemeinsame	-12.569
mage	-12.57
▁cli	-12.5716
▁üppige	-12.5717
era	-12.5726
▁sons	-12.5727
▁besondere	-12.5739
▁Geburtstags	-12.5739
ments	-12.5747
bee	-12.5762
hütte	-12.5763
get	-12.5774
▁grinsende	-12.5792
so	-12.5802
rat	-12.5803
iel	-12.5812
▁senkrecht	-12.5857
▁Magazin	-12.5857
▁Geländern	-12.5886
▁Pul	-12.5889
▁Mikroskope	-12.5896
ringen	-12.5903
puppe	-12.5924
führung	-12.5932
▁address	-12.5944
ürz	-12.5968
▁Mini	-12.598
buster	-12.5984
lling	-12.5988
zieren	-12.6006
▁feuer	-12.6007
▁Rund	-12.6023
isten	-12.6032
klapp	-12.604
▁Ga	-12.6055
▁pra	-12.6062
▁begg	-12.6069
ssenger	-12.6071
▁sorts	-12.6077
▁bust	-12.6083
unde	-12.6092
rutscht	-12.6096
▁unglückliche	-12.6098
ritt	-12.6109
▁bur	-12.6135
oten	-12.6143
helmen	-12.6145
gehört	-12.6156
▁appearing	-12.6157
▁ladders	-12.6159
lated	-12.6161
▁Asiatisch	-12.617
▁pou	-12.6179
eiden	-12.6196
now	-12.6204
▁attach	-12.6209
ground	-12.6215
▁retrieve	-12.623
ost	-12.6264
Fi	-12.6277
oned	-12.6277
▁Back	-12.6287
▁plan	-12.6299
uckt	-12.6303
▁kiddi	-12.6305
blöcke	-12.6312
▁sprint	-12.6322
point	-12.6334
ike	-12.6337
langen	-12.6346
ale	-12.6348
▁gi	-12.6348
bringen	-12.6351
saal	-12.6352
training	-12.6355
▁statu	-12.6366
onto	-12.6375
ame	-12.6378
helf	-12.6378
▁dip	-12.638
▁fac	-12.6391
reiten	-12.6401
ckey	-12.6402
▁Power	-12.6418
nern	-12.6434
▁structures	-12.6443
cle	-12.6448
parcours	-12.6452
▁Plan	-12.6455
ay	-12.6455
ise	-12.646
chnitt	-12.6462
▁Mess	-12.6479
▁navigat	-12.6487
▁farb	-12.6487
sehen	-12.651
farbig	-12.6515
schüler	-12.6526
▁jemande	-12.6529
postal	-12.6529
▁probe	-12.6546
▁cul	-12.6548
est	-12.6559
▁größer	-12.6564
ckt	-12.6571
prints	-12.6573
gemachte	-12.6575
sses	-12.6583
elfer	-12.6584
▁gla	-12.6588
teams	-12.6595
oose	-12.6597
▁charg	-12.66
▁Lea	-12.6605
reifen	-12.6608
osen	-12.6612
▁Ta	-12.663
spielern	-12.6632
▁Pol	-12.6635
ctic	-12.664
opf	-12.664
▁san	-12.6649
oßen	-12.6655
bude	-12.6656
hängen	-12.6669
stätte	-12.6671
▁Gedenk	-12.6672
piercings	-12.6675
▁angelegt	-12.6682
haften	-12.6692
▁Pi	-12.6695
Basketball	-12.67
klettern	-12.673
blickt	-12.6731
bra	-12.6732
wis	-12.6759
erte	-12.676
igung	-12.677
leuchte	-12.6771
uft	-12.6775
hill	-12.6781
▁tre	-12.6784
eis	-12.6791
pi	-12.6796
boo	-12.6805
hör	-12.682
steht	-12.6825
stehende	-12.6825
ask	-12.6827
▁vietnames	-12.6828
view	-12.6829
▁Design	-12.684
▁Ihre	-12.6841
▁defend	-12.6841
▁hedge	-12.6842
▁har	-12.6842
▁jackhammer	-12.6842
▁Bongo	-12.6842
semble	-12.6842
▁tast	-12.6842
arren	-12.6843
▁Bürogebäude	-12.6843
teig	-12.6847
▁leuchten	-12.6851
ude	-12.6851
gerissen	-12.6853
▁Empfang	-12.6855
▁Industrie	-12.6855
▁noodle	-12.6855
▁Karneval	-12.6856
▁barricade	-12.6856
▁hamburger	-12.6856
▁poncho	-12.6856
▁reporter	-12.6857
▁sparkler	-12.6861
▁Gesellschaft	-12.6861
▁jogger	-12.6862
▁hip	-12.6863
rückt	-12.6863
▁Urlaub	-12.6865
▁kimono	-12.6865
▁fist	-12.6867
▁rose	-12.6867
▁earring	-12.6867
▁redend	-12.6868
tatue	-12.6869
▁locker	-12.6869
▁judge	-12.687
▁bead	-12.6872
▁snowshoe	-12.6873
raffe	-12.6873
locken	-12.6875
▁Rollerblade	-12.6875
▁onlooker	-12.6877
▁Short	-12.6877
▁awning	-12.6878
Skate	-12.688
kugel	-12.6883
▁sock	-12.6884
kiste	-12.6888
friend	-12.6888
schnee	-12.6888
händige	-12.6888
schreibt	-12.6888
gun	-12.6889
schlagen	-12.6889
▁Straßenschild	-12.689
▁lego	-12.6893
hüte	-12.6895
stroke	-12.6895
wheel	-12.6896
Spring	-12.6897
ällen	-12.6897
holz	-12.6897
ault	-12.6898
heim	-12.6899
gebunden	-12.6899
Anzeige	-12.6901
geschoben	-12.6901
▁Backstein	-12.6901
▁Riesen	-12.6902
▁glow	-12.6902
▁Reporter	-12.6902
Do	-12.6902
▁liebe	-12.6902
▁Nonne	-12.6902
▁kariert	-12.6903
vollständig	-12.6903
completed	-12.6903
Turnier	-12.6903
safe	-12.6903
plane	-12.6904
karierte	-12.6905
oße	-12.6905
ecke	-12.6906
walk	-12.6906
pause	-12.6906
▁Basketballkorb	-12.6906
Armee	-12.6907
reeze	-12.6907
pray	-12.6907
monitor	-12.6907
Texas	-12.6907
klaren	-12.6908
hohen	-12.6908
▁media	-12.6908
schirm	-12.6908
club	-12.6908
fon	-12.6908
Unter	-12.6908
Klasse	-12.6908
venue	-12.6908
tunnel	-12.6908
Must	-12.6908
putzen	-12.6909
zeigt	-12.6909
water	-12.6909
Fest	-12.6909
shop	-12.6909
▁erste	-12.6909
füttert	-12.6909
Plakat	-12.691
Arena	-12.691
Bekleidung	-12.691
student	-12.691
▁Meeresfrüchte	-12.691
▁Wunderkerze	-12.691
▁Wasserpistole	-12.691
spitze	-12.691
▁Bänder	-12.6911
Lkw	-12.6911
Overall	-12.6911
Wettkampf	-12.6911
Volleyball	-12.6911
circle	-12.6911
daughter	-12.6911
▁Muschel	-12.6911
restaurant	-12.6911
Flugzeug	-12.6911
Mann	-12.6911
▁knie	-12.6911
lapp	-12.6911
Bahnsteig	-12.6911
marathon	-12.6911
Uniform	-12.6911
bereit	-12.6912
Schaukel	-12.6912
Sport	-12.6912
Kunststück	-12.6912
städtische	-12.6912
Maschine	-12.6912
Boot	-12.6912
Schwimmbecken	-12.6912
trinken	-12.6912
Tasche	-12.6912
Weiß	-12.6912
pole	-12.6912
trägt	-12.6912
spricht	-12.6912
Ball	-12.6912
Bahnhof	-12.6912
bound	-12.6912
woman	-12.6913
gräbt	-12.6913
food	-12.6914
step	-12.6914
Eis	-12.6914
▁Züge	-12.6914
fast	-12.6914
▁Töpfe	-12.6914
▁bas	-12.6915
dreht	-12.6915
hlt	-12.6916
▁herunterge	-12.6916
▁Schutzweste	-12.6917
▁conduct	-12.6917
blue	-12.6918
studio	-12.6918
▁parasail	-12.6918
▁Taste	-12.6918
▁Laterne	-12.6918
▁scream	-12.6919
▁study	-12.6919
▁Hinterbeine	-12.692
▁Gläser	-12.692
▁Turnschuhe	-12.6922
malt	-12.6923
Roll	-12.6923
▁Ware	-12.6925
▁Sandale	-12.6926
▁habe	-12.6926
saw	-12.6927
Ein	-12.6929
▁gy	-12.6929
ilden	-12.6929
schw	-12.693
Hosen	-12.6931
Jungen	-12.6931
messe	-12.6932
system	-12.6935
wänden	-12.6935
▁pierc	-12.6936
reise	-12.6936
oster	-12.6938
▁measure	-12.6941
▁Rugbyspiel	-12.6942
sorten	-12.6943
▁blu	-12.6944
▁Stofftiere	-12.6945
▁peddl	-12.6945
karte	-12.6945
liegende	-12.6945
gelbes	-12.6947
▁overall	-12.6947
iegen	-12.6948
▁Wartungs	-12.695
wettkampf	-12.695
ografie	-12.6953
mitte	-12.6955
ügen	-12.6955
▁windsurf	-12.6956
schl	-12.6956
yard	-12.6957
▁pastel	-12.6958
▁Afrika	-12.6959
▁Tennisspiel	-12.6959
ühl	-12.6959
▁Aufkleber	-12.6959
timate	-12.6961
rafting	-12.6961
▁colo	-12.6962
▁cry	-12.6964
▁reiß	-12.6964
fang	-12.6964
kler	-12.6966
üstung	-12.6966
▁Pfann	-12.6966
äht	-12.6966
marke	-12.6966
▁Pirat	-12.6967
▁erh	-12.6967
klettert	-12.6968
hause	-12.6968
bungs	-12.6968
▁interagier	-12.6968
▁Tennisschuh	-12.6968
▁Kelle	-12.6969
gehalten	-12.6969
▁Passant	-12.697
▁korean	-12.697
▁kahlköpfige	-12.6971
▁Zi	-12.6971
▁Gewicht	-12.6971
üch	-12.6971
pflanzen	-12.6972
schirmen	-12.6972
▁Spielgerät	-12.6973
rund	-12.6974
▁Jo	-12.6975
▁report	-12.6977
▁Zauber	-12.6977
polizist	-12.6978
uadraten	-12.6978
▁Bären	-12.6979
brunnen	-12.6979
schlacht	-12.6979
▁gesch	-12.6979
▁Punk	-12.698
lik	-12.698
▁protester	-12.698
▁expos	-12.6981
ländische	-12.6981
▁bastel	-12.6981
klammert	-12.6982
▁key	-12.6982
gehängt	-12.6982
▁Butt	-12.6982
▁Motorradrenn	-12.6983
drängt	-12.6983
trommel	-12.6984
▁Absatz	-12.6984
latz	-12.6984
▁langärm	-12.6985
nitor	-12.6985
becken	-12.6985
stäben	-12.6986
▁sparse	-12.6986
▁proud	-12.6986
Free	-12.6986
orhüter	-12.6987
raktor	-12.6987
ücke	-12.6987
▁Bürger	-12.6988
▁interess	-12.6988
album	-12.6989
schleudert	-12.6989
laster	-12.699
▁Kirmes	-12.699
kappe	-12.699
▁graffit	-12.699
uzzle	-12.699
amurai	-12.699
burg	-12.699
elcome	-12.6991
ketch	-12.6991
asino	-12.6991
balken	-12.6991
▁Fau	-12.6991
itzern	-12.6992
▁Karussel	-12.6992
händler	-12.6992
uitar	-12.6992
dot	-12.6992
beutel	-12.6992
almati	-12.6992
etriever	-12.6992
gility	-12.6992
riseur	-12.6992
stadt	-12.6992
östliche	-12.6992
▁acrobat	-12.6992
wald	-12.6992
source	-12.6992
▁express	-12.6992
ädt	-12.6992
eibliche	-12.6993
▁exp	-12.6993
▁Rummel	-12.6993
ollister	-12.6993
▁hispan	-12.6993
bildet	-12.6993
▁synchron	-12.6993
eisenbahn	-12.6993
handlung	-12.6993
koffer	-12.6993
bewohner	-12.6993
brocken	-12.6993
gebilde	-12.6993
bühne	-12.6993
schwarm	-12.6993
flieger	-12.6993
vice	-12.6993
▁Bäcker	-12.6993
▁Neoprenanz	-12.6993
pistol	-12.6993
▁Schmied	-12.6993
▁Schottenr	-12.6993
gierig	-12.6993
ängel	-12.6993
▁presum	-12.6993
▁Mega	-12.6993
aktivität	-12.6993
noopy	-12.6993
xponat	-12.6993
▁Buntstift	-12.6993
▁Gastronomiebe	-12.6993
▁Latexhandschuh	-12.6993
▁Ritual	-12.6993
▁Rüschen	-12.6993
▁Sicherungsseil	-12.6993
▁Stachel	-12.6993
▁Umarmung	-12.6993
▁majestätisch	-12.6993
▁pfirsichfarben	-12.6993
Barbecue	-12.6993
Kreuzfahrtschiff	-12.6993
Talkie	-12.6993
anhänger	-12.6993
berdachung	-12.6993
brenner	-12.6993
bruch	-12.6993
bücher	-12.6993
eifrig	-12.6993
einrichtung	-12.6993
fleisch	-12.6993
fügt	-12.6993
gitarrenähnliche	-12.6993
häuschen	-12.6993
höhle	-12.6993
kulisse	-12.6993
laib	-12.6993
näuel	-12.6993
ootsanlegestelle	-12.6993
podest	-12.6993
quartet	-12.6993
quetscht	-12.6993
rchäolog	-12.6993
spaziergang	-12.6993
spurige	-12.6993
stronaut	-12.6993
stöpsel	-12.6993
teppich	-12.6993
zapfen	-12.6993
▁Abfälle	-12.6993
▁Apotheke	-12.6993
▁Arkade	-12.6993
▁Aschenbahn	-12.6993
▁Aussichtspunkt	-12.6993
▁Beisammensein	-12.6993
▁Beobachter	-12.6993
▁Besteck	-12.6993
▁Blondine	-12.6993
▁Boje	-12.6993
▁Burka	-12.6993
▁Bühnenauftritt	-12.6993
▁Cafeteria	-12.6993
▁Camcorder	-12.6993
▁Canyon	-12.6993
▁Champagner	-12.6993
▁Chefkoch	-12.6993
▁Chinatown	-12.6993
▁Cross	-12.6993
▁Delfin	-12.6993
▁Donuts	-12.6993
▁Dragster	-12.6993
▁Eiskrem	-12.6993
▁Elasthan	-12.6993
▁Ellenbogen	-12.6993
▁Erinnerung	-12.6993
▁Explosion	-12.6993
▁Fahrgast	-12.6993
▁Feinkost	-12.6993
▁Flach	-12.6993
▁Flugbegleit	-12.6993
▁Flöße	-12.6993
▁Fotoshooting	-12.6993
▁Frankreich	-12.6993
▁Föhn	-12.6993
▁Galerie	-12.6993
▁Golfschläger	-12.6993
▁Gottesdienst	-12.6993
▁Heimatland	-12.6993
▁Heimwerker	-12.6993
▁Hochdruckreinig	-12.6993
▁Holzfäller	-12.6993
▁Hängegleiter	-12.6993
▁Interessantes	-12.6993
▁Jongleur	-12.6993
▁Jonglier	-12.6993
▁Kartoffelchip	-12.6993
▁Kirchenchor	-12.6993
▁Kontrabass	-12.6993
▁Kultur	-12.6993
▁Käfer	-12.6993
▁Landwirt	-12.6993
▁Limo	-12.6993
▁Luftmatratze	-12.6993
▁Maurer	-12.6993
▁Meeresstrand	-12.6993
▁Mosaik	-12.6993
▁Moschee	-12.6993
▁Münztelefon	-12.6993
▁Ninja	-12.6993
▁Ollie	-12.6993
▁Orgel	-12.6993
▁Parkettboden	-12.6993
▁Pelikan	-12.6993
▁Prinzessin	-12.6993
▁Problem	-12.6993
▁Prozession	-12.6993
▁Rassel	-12.6993
▁Ritter	-12.6993
▁Sauna	-12.6993
▁Schlammpfütze	-12.6993
▁Schlüssel	-12.6993
▁Schnürsenkel	-12.6993
▁Schwän	-12.6993
▁Serviette	-12.6993
▁Skelett	-12.6993
▁Soda	-12.6993
▁Softdrink	-12.6993
▁Stroboskoplicht	-12.6993
▁Stäbe	-12.6993
▁Tamburin	-12.6993
▁Töchter	-12.6993
▁Ukulele	-12.6993
▁Unkraut	-12.6993
▁Vegas	-12.6993
▁Vergrößerungsgl	-12.6993
▁Verkleiden	-12.6993
▁Vorschlaghammer	-12.6993
▁Wasserpfütze	-12.6993
▁Wochenmarkt	-12.6993
▁Zahnspange	-12.6993
▁Zeigefinger	-12.6993
▁Zirkus	-12.6993
▁Zugabteil	-12.6993
▁Zweck	-12.6993
▁advantage	-12.6993
▁aluminum	-12.6993
▁archaeologi	-12.6993
▁aufgewühlte	-12.6993
▁ausführt	-12.6993
▁banquet	-12.6993
▁baumbestandene	-12.6993
▁belegte	-12.6993
▁bergauf	-12.6993
▁berlin	-12.6993
▁beruhigt	-12.6993
▁blacksmith	-12.6993
▁bonnet	-12.6993
▁brennt	-12.6993
▁camcorder	-12.6993
▁cereal	-12.6993
▁chirurgische	-12.6993
▁choreograph	-12.6993
▁cleats	-12.6993
▁concession	-12.6993
▁congregating	-12.6993
▁crocodile	-12.6993
▁crystal	-12.6993
▁cushion	-12.6993
▁dachshund	-12.6993
▁dandelion	-12.6993
▁dishwasher	-12.6993
▁document	-12.6993
▁donuts	-12.6993
▁dugout	-12.6993
▁durchnässt	-12.6993
▁dustpan	-12.6993
▁earbuds	-12.6993
▁eingeschaltete	-12.6993
▁enthusiasm	-12.6993
▁entscheiden	-12.6993
▁erkundet	-12.6993
▁erschöpft	-12.6993
▁erörter	-12.6993
▁execut	-12.6993
▁explain	-12.6993
▁explosion	-12.6993
▁fiddle	-12.6993
▁fierce	-12.6993
▁fingertips	-12.6993
▁flamboyant	-12.6993
▁frischgebackene	-12.6993
▁gebräunte	-12.6993
▁geeignete	-12.6993
▁gewebte	-12.6993
▁gewinnt	-12.6993
▁gewundene	-12.6993
▁glätten	-12.6993
▁glättet	-12.6993
▁grandmother	-12.6993
▁grimacing	-12.6993
▁grouch	-12.6993
▁gruselige	-12.6993
▁gypsy	-12.6993
▁handkerchief	-12.6993
▁hausgemachte	-12.6993
▁headgear	-12.6993
▁heartbeat	-12.6993
▁herzförmige	-12.6993
▁hijab	-12.6993
▁hingesetzt	-12.6993
▁hochspringen	-12.6993
▁huddling	-12.6993
▁hätte	-12.6993
▁innertube	-12.6993
▁lebendige	-12.6993
▁lizard	-12.6993
▁lodge	-12.6993
▁mushroom	-12.6993
▁ninja	-12.6993
▁ollie	-12.6993
▁opinion	-12.6993
▁opportunity	-12.6993
▁outstreached	-12.6993
▁oval	-12.6993
▁parlor	-12.6993
▁patrouillier	-12.6993
▁pelican	-12.6993
▁pelzige	-12.6993
▁pharmac	-12.6993
▁präsentieren	-12.6993
▁purpurrote	-12.6993
▁racquet	-12.6993
▁reenact	-12.6993
▁refuge	-12.6993
▁reibt	-12.6993
▁reluctant	-12.6993
▁remain	-12.6993
▁ritual	-12.6993
▁sandpit	-12.6993
▁sauna	-12.6993
▁sax	-12.6993
▁schlachtet	-12.6993
▁schubsen	-12.6993
▁schäbig	-12.6993
▁schöpft	-12.6993
▁seamstress	-12.6993
▁shampoo	-12.6993
▁simultaneous	-12.6993
▁skewer	-12.6993
▁sleigh	-12.6993
▁smirking	-12.6993
▁snowflake	-12.6993
▁stethoscope	-12.6993
▁sunflower	-12.6993
▁tauchen	-12.6993
▁tobacco	-12.6993
▁transformer	-12.6993
▁trinket	-12.6993
▁trough	-12.6993
▁turbulent	-12.6993
▁veranstalte	-12.6993
▁verborgen	-12.6993
▁verdreckte	-12.6993
▁verregnete	-12.6993
▁verteidigt	-12.6993
▁verwahrloste	-12.6993
▁vornübergebeugt	-12.6993
▁waffle	-12.6993
▁warrior	-12.6993
▁waterproof	-12.6993
▁wheat	-12.6993
▁wildflowers	-12.6993
▁wirbeln	-12.6993
▁wrangle	-12.6993
▁wundervolle	-12.6993
▁wütend	-12.6993
▁zerlumpte	-12.6993
▁ängstlich	-12.6993
grenzt	-12.6993
slow	-12.6993
▁Keramik	-12.6993
▁Spirituosen	-12.6993
▁Taille	-12.6993
▁condom	-12.6993
▁excavat	-12.6993
▁falcon	-12.6993
▁fleißig	-12.6993
▁gewandt	-12.6993
▁loaf	-12.6993
▁plume	-12.6993
▁salmon	-12.6993
▁secret	-12.6993
▁tulips	-12.6993
Twister	-12.6993
apparat	-12.6993
kulturelle	-12.6993
objektiv	-12.6993
ricate	-12.6993
schläuche	-12.6993
taucher	-12.6993
ttief	-12.6993
zapft	-12.6993
▁Astronauten	-12.6993
▁Berlin	-12.6993
▁Business	-12.6993
▁Esswaren	-12.6993
▁Gleich	-12.6993
▁Gärtner	-12.6993
▁Irokesenfrisur	-12.6993
▁Kliff	-12.6993
▁Pilz	-12.6993
▁Schrott	-12.6993
▁Sonnenanbeter	-12.6993
▁Tastatur	-12.6993
▁Verwunde	-12.6993
▁Zementmischer	-12.6993
▁arguing	-12.6993
▁corral	-12.6993
▁getraut	-12.6993
▁glitter	-12.6993
▁hacken	-12.6993
▁research	-12.6993
▁schottische	-12.6993
▁stattfinden	-12.6993
▁suspens	-12.6993
▁trouble	-12.6993
▁Arcade	-12.6993
▁Hochzeitstag	-12.6993
▁Island	-12.6993
▁Klettergurt	-12.6993
▁Laternenpfahl	-12.6993
▁Megaphon	-12.6993
▁Rampenlicht	-12.6993
▁Text	-12.6993
▁animated	-12.6993
▁betreut	-12.6993
▁fremdländische	-12.6993
▁geblockt	-12.6993
▁hippie	-12.6993
▁lebende	-12.6993
▁schnitzen	-12.6993
▁shelter	-12.6993
▁traverse	-12.6993
lehrer	-12.6993
▁Fließen	-12.6993
▁Gewächshaus	-12.6993
▁Leichtathletik	-12.6993
▁Paddelboot	-12.6993
▁Pappkarton	-12.6993
▁Pappteller	-12.6993
▁Rentier	-12.6993
▁Salon	-12.6993
▁Schnellboot	-12.6993
▁Sumpfgebiet	-12.6993
▁Treffen	-12.6993
▁families	-12.6993
▁italienische	-12.6993
▁knives	-12.6993
▁pleasant	-12.6993
▁unterirdische	-12.6993
Kitty	-12.6993
mbiente	-12.6993
rofo	-12.6993
▁Abfluss	-12.6993
▁Festumzug	-12.6993
▁Küchenboden	-12.6993
▁Schmerzen	-12.6993
▁britische	-12.6993
▁heranrollen	-12.6993
▁insect	-12.6993
▁toenail	-12.6993
▁Korken	-12.6993
▁Wanderstöcke	-12.6993
▁Weizen	-12.6993
▁frosting	-12.6993
▁junk	-12.6993
amble	-12.6993
erbsen	-12.6993
▁Pfau	-12.6993
▁Side	-12.6993
▁Viertel	-12.6993
▁russia	-12.6993
▁strömen	-12.6993
Feuerwerkskörper	-12.6993
jenige	-12.6993
nual	-12.6993
▁Grube	-12.6993
▁Spritzwasser	-12.6993
▁Transportmittel	-12.6993
▁aufregende	-12.6993
▁behandelt	-12.6993
▁blutende	-12.6993
▁contort	-12.6993
▁darkness	-12.6993
▁manicure	-12.6993
▁Freiluftkonzert	-12.6993
▁Headset	-12.6993
▁decals	-12.6993
▁lollipop	-12.6993
▁swerv	-12.6993
Boy	-12.6993
▁Pritsche	-12.6993
▁Totenkopf	-12.6993
▁carpent	-12.6993
▁custody	-12.6993
▁Abschleppwagen	-12.6993
▁Batter	-12.6993
▁Drahtseil	-12.6993
▁Medizinische	-12.6993
▁Minne	-12.6993
▁Notfall	-12.6993
▁Sparring	-12.6993
▁Tabak	-12.6993
▁forklift	-12.6993
▁remember	-12.6993
zange	-12.6993
▁Tandem	-12.6993
▁average	-12.6993
bissen	-12.6993
▁Aufnahmestudio	-12.6993
▁Silber	-12.6993
▁hydrauli	-12.6993
▁rechteckige	-12.6993
▁teure	-12.6993
uadbike	-12.6993
▁Collegestudent	-12.6993
▁Mickey	-12.6993
tivate	-12.6993
▁Sonnenhüte	-12.6993
▁feierliche	-12.6993
▁subject	-12.6993
vorführung	-12.6993
▁Blutdruck	-12.6993
selungs	-12.6993
▁Fechtwettkampf	-12.6993
▁Friseursalon	-12.6993
▁Schutthaufen	-12.6993
▁government	-12.6993
▁popsicle	-12.6993
▁smock	-12.6993
umhang	-12.6993
▁Rollkoffer	-12.6993
▁Weihnachtszeit	-12.6993
▁beugen	-12.6993
▁dramatisch	-12.6993
▁grasbedeckte	-12.6993
▁route	-12.6993
▁vielfältige	-12.6993
rnstein	-12.6993
▁textile	-12.6993
▁wichtige	-12.6993
▁Fertig	-12.6993
▁Puma	-12.6993
▁außergewöhnlich	-12.6993
ßten	-12.6993
▁Drahtzaun	-12.6993
▁Latz	-12.6993
▁Picknickbank	-12.6993
▁Eierkuchen	-12.6993
▁Jogginganzug	-12.6993
▁Lakers	-12.6993
▁Tonstudio	-12.6993
▁baggage	-12.6993
▁Diashow	-12.6993
▁Steindenkmal	-12.6993
▁Abdeckung	-12.6993
▁Element	-12.6993
▁dentist	-12.6993
▁technician	-12.6993
▁timber	-12.6993
krüge	-12.6993
▁Sonnenaufgang	-12.6993
ollywood	-12.6993
vogel	-12.6993
▁Halstücher	-12.6993
▁Nahrung	-12.6993
▁clog	-12.6993
▁minne	-12.6993
▁sagen	-12.6993
▁zerkleinert	-12.6993
▁Werferhügel	-12.6993
▁california	-12.6993
▁vierbeinige	-12.6993
▁Unterarm	-12.6993
▁unscharfe	-12.6993
▁sedan	-12.6993
ascara	-12.6993
ukett	-12.6993
zahn	-12.6993
▁Rummelplatz	-12.6993
ärmeligen	-12.6993
▁Spruchbänder	-12.6993
▁attackieren	-12.6993
▁föhnt	-12.6993
▁Pferderücken	-12.6993
▁forearm	-12.6993
▁Zucker	-12.6993
▁herausgestreckt	-12.6993
▁scherz	-12.6993
▁Abfall	-12.6993
▁Einsatzkräfte	-12.6993
▁Küstenlinie	-12.6993
▁Corgi	-12.6993
▁quadratische	-12.6993
▁transportieren	-12.6993
▁Kapuzenteil	-12.6993
twa	-12.6993
urchschnittlich	-12.6993
▁Frosch	-12.6993
▁Korbleger	-12.6993
▁Würstchen	-12.6993
▁blast	-12.6993
▁mongoli	-12.6993
▁price	-12.6993
▁affection	-12.6993
ausstattung	-12.6993
orchest	-12.6993
▁Gesichtsschutz	-12.6993
▁darts	-12.6993
▁flashlight	-12.6993
▁applied	-12.6993
▁karaoke	-12.6993
▁speck	-12.6993
▁tux	-12.6993
▁VW	-12.6993
▁Vierergruppe	-12.6993
araoke	-12.6993
olate	-12.6993
▁Kunstprojekt	-12.6993
▁Meereswelle	-12.6993
unfall	-12.6993
▁wristband	-12.6993
▁Polizeiauto	-12.6993
▁Hahn	-12.6993
▁hurt	-12.6993
▁Barbie	-12.6993
▁Farn	-12.6993
▁ditch	-12.6993
▁france	-12.6993
▁Theaterstück	-12.6993
▁powerpoint	-12.6993
▁shock	-12.6993
▁Deli	-12.6993
▁Shopping	-12.6993
kwon	-12.6993
▁Ballontier	-12.6993
▁Laderampe	-12.6993
▁Schnappschuss	-12.6993
▁Vorderrad	-12.6993
▁Sprühdose	-12.6993
▁urg	-12.6994
angestellte	-12.6994
▁Asphaltstraße	-12.6994
▁Rockkonzert	-12.6994
▁angeschaut	-12.6994
▁Internet	-12.6994
▁Schlammgrube	-12.6994
▁shrimp	-12.6994
▁Sonnentag	-12.6994
▁Wii	-12.6994
▁National	-12.6994
▁Filmset	-12.6994
▁Plastikrutsche	-12.6994
▁buschige	-12.6994
▁corgi	-12.6994
▁hurry	-12.6994
▁plaster	-12.6994
▁Panda	-12.6994
▁Sattelzug	-12.6994
▁Transportwagen	-12.6994
▁canister	-12.6994
▁crocs	-12.6994
▁Herbsttag	-12.6994
kuppe	-12.6994
▁peep	-12.6994
▁Bügel	-12.6994
▁Bücherei	-12.6994
▁mail	-12.6994
▁Abschlag	-12.6994
▁specialize	-12.6994
▁trek	-12.6994
▁Hollister	-12.6994
▁Plattenspieler	-12.6994
▁digger	-12.6994
▁become	-12.6994
▁verbeug	-12.6994
oamerikaner	-12.6994
▁Musikfestival	-12.6994
▁Weinflasche	-12.6994
▁Hinterrad	-12.6994
▁Plastikbecher	-12.6994
▁hipster	-12.6994
aufdruck	-12.6994
▁drauf	-12.6994
geklappte	-12.6994
▁BMW	-12.6994
▁Müllhaufen	-12.6994
▁erscheint	-12.6994
▁würz	-12.6994
viewing	-12.6994
berschlag	-12.6994
▁Papierteller	-12.6994
senkt	-12.6994
▁Werk	-12.6994
▁cutoff	-12.6994
▁Bassist	-12.6994
▁Haube	-12.6994
▁Biergläsern	-12.6994
▁Gruppenfoto	-12.6994
▁Tarnmuster	-12.6994
▁Taschenlampe	-12.6994
▁darum	-12.6994
▁Agility	-12.6994
▁Cad	-12.6994
▁Imbissstand	-12.6994
▁grell	-12.6994
bänken	-12.6994
▁Wohnhäuser	-12.6994
▁placard	-12.6994
▁Kürbisfeld	-12.6994
▁Tackl	-12.6994
▁Puder	-12.6994
▁weht	-12.6994
▁Gartenwerkzeug	-12.6994
▁livestock	-12.6994
▁Tunika	-12.6994
▁swoop	-12.6994
▁oak	-12.6994
▁gemähte	-12.6994
▁Gebäudeeingang	-12.6994
packung	-12.6994
ugenschein	-12.6994
▁Gefährt	-12.6994
▁Brustkorb	-12.6994
Münzfernsprecher	-12.6994
▁captain	-12.6994
MA	-12.6994
▁transparent	-12.6994
▁Ori	-12.6994
▁Gruppenbild	-12.6994
▁Seesack	-12.6994
▁clasp	-12.6994
▁fixture	-12.6995
▁furcht	-12.6995
▁abzufangen	-12.6995
lären	-12.6995
▁Plastikstuhl	-12.6995
achete	-12.6995
▁itself	-12.6995
▁Löschfahrzeug	-12.6995
▁Teppichboden	-12.6995
▁dreirädrige	-12.6995
▁Wok	-12.6995
▁hoist	-12.6995
▁machete	-12.6995
▁Obstkarren	-12.6995
▁Eisläufer	-12.6995
aku	-12.6995
▁Schildkappe	-12.6995
▁Ausland	-12.6995
▁versetzt	-12.6995
▁Automat	-12.6995
tial	-12.6995
▁Spritz	-12.6995
▁freeway	-12.6995
▁leisten	-12.6995
▁Spielzeuglaster	-12.6995
▁corridor	-12.6995
▁mustang	-12.6995
voller	-12.6995
▁needle	-12.6995
▁creative	-12.6995
▁Gitarrenspieler	-12.6995
Five	-12.6995
lution	-12.6995
ändert	-12.6995
▁viking	-12.6995
dobe	-12.6995
gesagt	-12.6995
▁Drachenkostüm	-12.6995
▁Skistöcken	-12.6995
▁Trägershirt	-12.6995
▁Seilrutsche	-12.6995
▁moon	-12.6995
▁Bahnarbeiter	-12.6995
▁Port	-12.6995
▁Samurai	-12.6995
▁hochgeschobene	-12.6996
ivid	-12.6996
▁Arbeitstag	-12.6996
▁Pflege	-12.6996
▁Insasse	-12.6996
▁Hero	-12.6996
▁Metallgeländer	-12.6996
▁meditiert	-12.6996
▁arrest	-12.6996
▁ignoriert	-12.6996
▁qualmt	-12.6996
▁Spät	-12.6996
▁sketch	-12.6996
▁verrichtet	-12.6996
▁Ahorn	-12.6996
▁Haarsalon	-12.6996
▁limo	-12.6996
▁procession	-12.6996
▁erinner	-12.6996
▁Geländemaschine	-12.6996
▁Bowlingspieler	-12.6996
▁Metallschüssel	-12.6996
▁entdeckt	-12.6996
▁showcas	-12.6996
▁British	-12.6996
▁ausgelassen	-12.6996
▁darstellt	-12.6996
nudel	-12.6996
▁lace	-12.6996
▁Toyota	-12.6996
▁Amish	-12.6996
▁mike	-12.6997
perücke	-12.6997
pain	-12.6997
▁entertainment	-12.6997
▁cact	-12.6997
▁komisch	-12.6997
▁organisier	-12.6997
arbeitung	-12.6997
▁director	-12.6997
▁erklettert	-12.6997
▁gigantische	-12.6997
▁Wandtafel	-12.6997
▁join	-12.6997
▁Stuhlreihe	-12.6997
amsung	-12.6997
▁Brand	-12.6997
▁Fensterbank	-12.6997
▁Musikstück	-12.6997
▁Mustang	-12.6997
▁bittet	-12.6997
▁mosque	-12.6997
▁riech	-12.6997
▁Irgendein	-12.6997
▁align	-12.6997
▁tye	-12.6997
▁Bühnenlicht	-12.6997
▁Pä	-12.6997
▁abgelegt	-12.6997
▁spout	-12.6998
▁Holzgebäude	-12.6998
▁Handgriff	-12.6998
▁Schlittenhunde	-12.6998
▁Kna	-12.6998
▁mold	-12.6998
▁rig	-12.6998
▁rastet	-12.6998
▁Oben	-12.6998
▁süd	-12.6998
▁flank	-12.6998
▁herausgeputzt	-12.6998
▁shelf	-12.6998
▁marin	-12.6998
▁verläuft	-12.6998
▁Sprungtritt	-12.6998
kurv	-12.6998
▁mock	-12.6998
▁Spielautomaten	-12.6998
▁hochgehalten	-12.6998
▁Stadtgebiet	-12.6999
▁mexico	-12.6999
creme	-12.6999
radfahrer	-12.6999
▁Skimboarde	-12.6999
▁englische	-12.6999
▁beaker	-12.6999
▁Blumendruck	-12.6999
▁bespritzen	-12.6999
▁Gartenstühlen	-12.6999
▁self	-12.6999
▁gebadet	-12.6999
▁Mixer	-12.6999
▁Geschirrspüler	-12.6999
▁Sumoringer	-12.6999
▁assembly	-12.6999
▁Bandkollegen	-12.6999
▁Gepäckstücken	-12.6999
▁Medien	-12.6999
▁oversee	-12.6999
egret	-12.6999
▁Bergwand	-12.6999
zusammengedrängt	-12.6999
▁Spieß	-12.6999
köpfen	-12.6999
▁arrival	-12.6999
▁errichten	-12.7
▁Linse	-12.7
▁Schülerinnen	-12.7
▁Kennzeich	-12.7
▁Zeltplatz	-12.7
▁nachdenklich	-12.7
Hochstart	-12.7
▁Kaffeetisch	-12.7
▁Glasur	-12.7
▁proudly	-12.7
dose	-12.7
▁Gast	-12.7
▁nachgemachte	-12.7
▁feil	-12.7
▁Big	-12.7
▁Binde	-12.7
usche	-12.7
▁sledge	-12.7001
▁Fußballnetz	-12.7001
▁Hundeschlitten	-12.7001
▁schwitzt	-12.7001
▁chief	-12.7001
ängern	-12.7001
▁Hab	-12.7001
▁dodg	-12.7001
▁cris	-12.7001
▁Zugfahrt	-12.7001
▁Baseballplatz	-12.7001
▁Blickfeld	-12.7001
▁Schwar	-12.7001
lager	-12.7001
▁stoppen	-12.7002
▁Fach	-12.7002
sachen	-12.7002
▁shell	-12.7002
▁schweißen	-12.7002
Geburtstagsfeier	-12.7002
das	-12.7002
▁fool	-12.7002
▁Marktstraße	-12.7002
▁hochzuheben	-12.7002
▁spain	-12.7002
▁hellgrüne	-12.7002
onserv	-12.7003
▁Radweg	-12.7003
▁pastry	-12.7003
▁Pap	-12.7003
▁indigen	-12.7003
strom	-12.7003
▁buff	-12.7003
▁Naturprodukte	-12.7003
▁till	-12.7003
▁ernste	-12.7004
▁Hindernisse	-12.7004
▁dominate	-12.7004
fließen	-12.7004
▁Gemüsestand	-12.7004
▁bushel	-12.7004
gebastelte	-12.7004
▁zusammenzu	-12.7004
▁bmw	-12.7004
▁Eisstand	-12.7004
▁nursing	-12.7005
▁Schuljunge	-12.7005
▁goof	-12.7005
▁culture	-12.7005
▁Spare	-12.7005
▁untergehende	-12.7005
▁Bodyboard	-12.7005
▁lässig	-12.7005
▁Lederkleidung	-12.7006
▁might	-12.7006
bauen	-12.7006
▁snowbank	-12.7007
▁uphill	-12.7007
▁Steinweg	-12.7007
▁Straßenstand	-12.7007
▁gestürzt	-12.7007
▁Windel	-12.7007
▁Verkleidung	-12.7007
usschnitt	-12.7007
▁Füll	-12.7008
▁lakeside	-12.7008
▁cork	-12.7008
Verkehrspolizist	-12.7008
▁talkie	-12.7008
stift	-12.7008
uskeln	-12.7008
▁Zauberer	-12.7008
▁Rest	-12.7009
▁lakers	-12.7009
▁Designer	-12.7009
▁Bull	-12.7009
▁Wanderin	-12.7009
▁proper	-12.7009
▁zielen	-12.701
drehen	-12.701
▁operieren	-12.701
▁Spielzeugzug	-12.701
zeichnungen	-12.701
▁Zehen	-12.701
▁überschlagen	-12.701
▁bullet	-12.7011
▁pasture	-12.7011
▁hello	-12.7011
fiziellen	-12.7011
▁herabhängen	-12.7011
▁Eistüten	-12.7011
▁Markisen	-12.7011
▁Strümpfen	-12.7011
▁Unterlagen	-12.7011
▁Latten	-12.7011
würfel	-12.7011
▁eisige	-12.7011
▁Engelskostüm	-12.7012
▁exam	-12.7012
▁woodworking	-12.7012
▁yawning	-12.7012
▁abgestimmten	-12.7012
▁visitor	-12.7012
▁tuck	-12.7012
▁Joe	-12.7013
▁angegriffen	-12.7013
▁angekettet	-12.7013
▁headlight	-12.7013
▁Schlepper	-12.7013
▁Kamele	-12.7013
▁playhouse	-12.7014
▁regen	-12.7014
▁ausstreckt	-12.7014
▁Frucht	-12.7015
▁approximate	-12.7015
▁Farbstiften	-12.7015
▁Markierung	-12.7015
▁Menü	-12.7015
▁gekauft	-12.7015
▁pflücken	-12.7015
▁Attraktion	-12.7015
▁Planschbecken	-12.7015
▁Briefkasten	-12.7015
▁blasen	-12.7015
▁spannen	-12.7015
▁Whirlpool	-12.7015
▁Jazz	-12.7015
▁twister	-12.7015
▁stylist	-12.7015
▁Liga	-12.7015
▁hellrosafarbene	-12.7015
Touch	-12.7016
▁vaca	-12.7016
▁eingehüllt	-12.7017
ierend	-12.7017
speist	-12.7017
▁centr	-12.7017
▁Live	-12.7017
▁knurrt	-12.7017
lets	-12.7018
▁eingelassen	-12.7018
▁gedreht	-12.7018
▁trio	-12.7018
▁bask	-12.7018
▁Kochkleidung	-12.7019
ären	-12.7019
▁underway	-12.7019
▁potatoes	-12.7019
▁umgibt	-12.7019
▁Kochjacke	-12.7019
äkelt	-12.7019
▁Treppenhauses	-12.7019
▁DS	-12.7019
▁glatte	-12.702
▁tim	-12.702
▁Springen	-12.7021
▁Handbewegungen	-12.7021
▁joe	-12.7021
▁labor	-12.7021
fringe	-12.7021
▁besteigen	-12.7022
strengt	-12.7022
▁Baumgruppe	-12.7022
▁Eng	-12.7023
olic	-12.7023
rüstung	-12.7023
▁Cowboykleidung	-12.7023
äuch	-12.7023
▁Schuluniform	-12.7023
▁Restauranttisch	-12.7023
▁kostenlos	-12.7024
▁handlebars	-12.7024
▁dreads	-12.7024
▁twigs	-12.7024
▁utensils	-12.7024
▁Star	-12.7024
▁Steaks	-12.7024
▁größerer	-12.7025
▁Frühlings	-12.7025
▁wälzt	-12.7025
▁Bahnschiene	-12.7025
▁Wassernähe	-12.7025
▁Sta	-12.7025
▁Mittelpunk	-12.7026
▁physical	-12.7027
organis	-12.7027
▁Hunderennen	-12.7027
▁Polizeiuniform	-12.7028
▁geese	-12.7028
▁bevorstehende	-12.7028
ufer	-12.7028
▁Polizeifahrzeug	-12.7028
▁el	-12.7028
Raft	-12.7029
empt	-12.7029
▁Glocke	-12.7029
▁role	-12.703
platter	-12.703
▁multit	-12.703
▁Tour	-12.703
▁pastor	-12.703
▁Sportteam	-12.7031
▁Maus	-12.7031
▁Sti	-12.7032
▁windsurfer	-12.7032
umble	-12.7032
▁specta	-12.7032
▁Spanien	-12.7033
ead	-12.7033
▁needed	-12.7034
▁entschlossen	-12.7034
▁patches	-12.7035
▁Ladengeschäft	-12.7035
▁Handgerät	-12.7035
▁Schiffes	-12.7035
▁Fußbälle	-12.7036
rates	-12.7036
▁maintain	-12.7037
öden	-12.7037
▁angehoben	-12.7037
▁Kochmütze	-12.7037
▁weinrot	-12.7038
▁boa	-12.704
▁inspector	-12.7041
▁wok	-12.7041
▁rette	-12.7042
▁Athleten	-12.7042
▁Teddybären	-12.7042
▁Kartoffeln	-12.7043
pfeln	-12.7043
▁Schokoladen	-12.7043
▁rötlichen	-12.7043
▁Cowboyhüten	-12.7043
▁poker	-12.7043
wolken	-12.7044
säulen	-12.7044
▁Baumaschinen	-12.7044
▁Suppen	-12.7044
nations	-12.7044
heruntergelassen	-12.7044
▁meditating	-12.7044
ascar	-12.7044
▁Blüten	-12.7044
▁happening	-12.7044
▁comical	-12.7045
ridge	-12.7045
▁Schwimmring	-12.7045
▁Bohrer	-12.7046
▁region	-12.7046
▁Schön	-12.7047
▁sewer	-12.7047
▁welder	-12.7047
▁Parkweg	-12.7048
▁Regenjacke	-12.7048
▁butter	-12.7049
▁ensur	-12.705
▁bitten	-12.705
▁retriever	-12.705
▁baker	-12.705
▁Ständen	-12.7051
Cart	-12.7051
▁program	-12.7051
▁loop	-12.7051
▁spe	-12.7052
▁Motiv	-12.7052
▁Obama	-12.7052
▁Schwamm	-12.7052
▁School	-12.7052
▁Wash	-12.7052
▁Objektiv	-12.7052
▁welcome	-12.7053
▁ankle	-12.7053
ordnung	-12.7053
▁frog	-12.7053
▁spülen	-12.7053
▁q	-12.7053
▁Sanität	-12.7054
▁Gewehre	-12.7054
clips	-12.7055
▁Autofahrer	-12.7055
fahrzeuge	-12.7056
Juweliergeschäft	-12.7056
▁träg	-12.7057
▁Straßenmusikant	-12.7057
▁Fallschirme	-12.7057
sks	-12.7058
▁Spring	-12.706
▁moss	-12.706
gläsern	-12.7061
▁irgendein	-12.7062
Dance	-12.7065
▁riss	-12.7066
▁unk	-12.7066
erbung	-12.7066
▁leak	-12.7069
▁Woll	-12.7069
▁carton	-12.707
▁recliner	-12.7071
▁Strei	-12.7072
▁finden	-12.7076
▁Muscheln	-12.7076
▁Wunderkerzen	-12.7076
▁Wasserpistolen	-12.7076
▁Meeresfrüchten	-12.7076
▁Wache	-12.7077
▁braces	-12.7077
▁Angriffs	-12.7077
▁Bändern	-12.7077
wachsen	-12.7079
▁Baugerät	-12.7082
lway	-12.7082
wühlt	-12.7082
liert	-12.7083
gesprüht	-12.7083
▁incredibl	-12.7086
▁entertained	-12.7086
▁Rollschuhen	-12.7087
wickelt	-12.7088
▁hüte	-12.7091
▁stroke	-12.7091
▁neun	-12.7092
Eisenbahnschiene	-12.7093
schreib	-12.7094
▁angucken	-12.7095
▁holz	-12.7096
▁Bauern	-12.7097
tained	-12.7098
▁durchzu	-12.7098
Basketballspiele	-12.7099
▁einhändige	-12.71
zuhören	-12.7101
▁neonfarbene	-12.7101
▁fitte	-12.7102
▁console	-12.7103
ateinamerikan	-12.7103
kegeln	-12.7103
▁pebble	-12.7103
▁spanisch	-12.7103
▁selbstgeba	-12.7103
schuld	-12.7104
▁wallet	-12.7104
dler	-12.7105
▁testen	-12.7108
▁Schlauchbooten	-12.7109
▁Broschüren	-12.7109
▁Gesichtsmasken	-12.7109
▁Abs	-12.7112
▁übereinander	-12.7113
▁equip	-12.7114
▁juggler	-12.7118
▁Haustier	-12.7119
rzt	-12.7121
▁mob	-12.7122
geräten	-12.7124
zusammenpassende	-12.7124
▁Stoffe	-12.7125
▁Metallrohr	-12.7125
▁gefertigt	-12.7126
blättern	-12.7128
▁lei	-12.7128
▁ashore	-12.7129
▁Pep	-12.713
▁leis	-12.713
▁mittel	-12.713
ranst	-12.7131
▁defends	-12.7132
▁awnings	-12.7132
▁fists	-12.7132
▁Karnevals	-12.7132
▁barricades	-12.7132
▁hamburgers	-12.7132
▁ponchos	-12.7132
▁sparklers	-12.7132
▁Designs	-12.7132
▁bowed	-12.7133
▁danebensteh	-12.7133
▁verlie	-12.7133
▁crashe	-12.7133
▁Empfangs	-12.7133
ktonische	-12.7133
rauen	-12.7136
▁Cre	-12.7137
Grand	-12.7138
gesehen	-12.7139
ballons	-12.7141
▁bouncer	-12.7141
▁dahin	-12.7141
▁Zent	-12.7145
getragen	-12.7145
FC	-12.7146
▁pee	-12.7152
albnackte	-12.7153
▁noodles	-12.7154
hoops	-12.7157
chelige	-12.7158
eaks	-12.7161
▁patriotische	-12.7161
RO	-12.7162
▁kunstvoll	-12.7163
gri	-12.7164
▁tra	-12.7167
▁Latein	-12.7168
▁mate	-12.7169
hauses	-12.7172
▁wasser	-12.7173
undschaft	-12.7173
▁cock	-12.7174
ehn	-12.7174
▁Perücken	-12.7177
▁Beamten	-12.7177
▁Gartenarbeit	-12.7179
▁sling	-12.7181
ühlt	-12.7182
▁ripp	-12.7182
▁Frack	-12.7184
▁Lebens	-12.7188
▁pancakes	-12.7188
▁holidays	-12.7188
▁zombies	-12.7188
▁streetlights	-12.7188
▁prepp	-12.7188
slos	-12.7189
dert	-12.719
enske	-12.719
▁alber	-12.7192
▁Doppeldeckerbus	-12.7194
▁Zahlen	-12.7195
tlichen	-12.7195
▁Trompeter	-12.7196
▁Pf	-12.7197
▁Los	-12.7199
▁sty	-12.72
▁rippl	-12.72
▁Alp	-12.7201
▁gestellt	-12.7202
▁hund	-12.7203
▁Jahren	-12.7204
▁Balletttänzer	-12.7206
▁Kabinen	-12.721
▁Winterjacken	-12.721
▁Hintern	-12.7211
hio	-12.7211
▁ausruhen	-12.7213
ballspiel	-12.7214
worker	-12.7214
aint	-12.7215
▁Anku	-12.7216
▁Weide	-12.7216
▁Posen	-12.7217
link	-12.7217
Bron	-12.7219
▁beans	-12.7222
Wor	-12.7223
▁prakti	-12.7224
▁begeisterte	-12.7225
▁shake	-12.7226
essing	-12.7228
ited	-12.7228
▁interessant	-12.7229
▁sucks	-12.723
▁voneinander	-12.7232
Probe	-12.7233
bläser	-12.7238
ehrt	-12.724
kippt	-12.724
uve	-12.724
▁batons	-12.7244
▁toilets	-12.7244
▁säubern	-12.7244
▁grate	-12.7245
▁Küchenarbeits	-12.7246
▁bucks	-12.7246
▁pic	-12.7247
▁hi	-12.7256
cted	-12.7257
licher	-12.7258
ynchronschwimmer	-12.7259
velop	-12.726
▁creep	-12.7264
▁aufnehmen	-12.7264
▁clim	-12.7265
▁cords	-12.7265
ouse	-12.7266
▁farben	-12.7267
welt	-12.7267
inivan	-12.7268
▁signal	-12.7269
▁winkend	-12.7271
▁vermisch	-12.7273
▁Kneipen	-12.7278
lov	-12.7278
▁Engels	-12.7281
▁aufnimmt	-12.7281
eezer	-12.7282
rge	-12.7282
▁sweating	-12.7284
▁Fallschirmen	-12.7286
▁ku	-12.7288
▁beautifully	-12.7293
▁Metallto	-12.7296
▁motoris	-12.7298
bund	-12.7298
▁Fußballtrikots	-12.73
▁Eiswagens	-12.73
▁gras	-12.7301
freie	-12.7311
▁Kassen	-12.7315
IS	-12.7316
gro	-12.7318
▁ston	-12.732
▁denken	-12.732
▁Gewürze	-12.7324
▁private	-12.7324
▁Erdbeere	-12.7324
▁tragend	-12.7326
▁Pant	-12.7326
▁parka	-12.733
chipper	-12.7332
eze	-12.7339
▁peruse	-12.7344
▁Scheiben	-12.7345
▁Kugeln	-12.7346
▁kegel	-12.7349
▁Rinde	-12.7353
▁twirls	-12.7357
▁Drinks	-12.7357
▁Kauf	-12.7358
verkaufsstand	-12.736
ums	-12.7364
esco	-12.7366
▁litera	-12.7368
▁Wasserspritze	-12.7369
▁Kochen	-12.737
annt	-12.737
anke	-12.737
tics	-12.737
angs	-12.7372
▁tiefblaue	-12.7372
trägern	-12.7375
spiegelt	-12.7386
▁dash	-12.7388
▁Gerüsten	-12.7391
▁itali	-12.7394
ole	-12.7395
▁aufhalten	-12.7396
straining	-12.7398
lette	-12.7401
Baseballteam	-12.7405
schatte	-12.7409
▁dumps	-12.7412
▁notebooks	-12.7414
▁pockets	-12.7414
▁gestapelte	-12.7416
▁wohl	-12.7416
▁moved	-12.7418
▁selbe	-12.7423
▁meist	-12.7431
ruppig	-12.7434
▁Bauchtänzer	-12.7442
▁kreisch	-12.7456
▁packages	-12.7456
issue	-12.7459
▁picker	-12.7462
astellfarben	-12.7466
▁Produkten	-12.7467
▁reflections	-12.7471
▁turbans	-12.7471
▁pumpkins	-12.7471
▁tasks	-12.7472
▁Angels	-12.7474
ulinar	-12.7474
jacken	-12.7477
▁Kapuzen	-12.7483
▁Schreibtischen	-12.7484
inting	-12.7493
▁Zweigen	-12.7494
▁spät	-12.7498
att	-12.7499
▁avr	-12.7501
▁zusammengerollt	-12.7502
▁schn	-12.7504
verschlu	-12.7504
▁fasten	-12.7511
▁angeln	-12.7515
fordert	-12.7519
▁Geldbörsen	-12.752
▁massier	-12.7521
▁Eseln	-12.7522
▁Zweige	-12.7523
▁treats	-12.7529
▁services	-12.7529
▁leotards	-12.7529
▁portraits	-12.7529
▁tickets	-12.753
▁Mikrophonen	-12.753
▁cages	-12.753
real	-12.7534
▁Ar	-12.7545
amper	-12.7561
▁Boa	-12.7562
▁thor	-12.7564
runzelt	-12.7571
▁marks	-12.7573
▁huts	-12.758
▁blacktop	-12.758
lstreifen	-12.7581
▁leader	-12.7582
▁trips	-12.7587
▁tricycles	-12.7587
▁Hütten	-12.7592
▁numbered	-12.7604
ki	-12.761
▁Schaum	-12.7614
▁Tra	-12.7624
▁Schutzbrillen	-12.7626
▁patrioti	-12.7628
▁Surfbretter	-12.7629
ulen	-12.7632
ox	-12.7635
▁festlich	-12.7637
gedeckte	-12.7643
▁Säuglings	-12.7646
ans	-12.7646
hl	-12.7648
abhängen	-12.7664
▁Clubs	-12.7666
St	-12.7667
▁Bucht	-12.7668
egelt	-12.7672
ssed	-12.7676
fahrzeugs	-12.7685
▁alp	-12.7688
▁gepunktete	-12.7693
▁Tattoos	-12.7704
spitzen	-12.7706
▁bewachsene	-12.771
▁Spiegelung	-12.7713
deckt	-12.7725
ipper	-12.7734
▁Gelbe	-12.7748
▁Ro	-12.7755
▁sizes	-12.7762
▁gifts	-12.7763
▁schreibend	-12.777
▁Eisen	-12.7772
▁rods	-12.7773
rennens	-12.7774
▁darkly	-12.7781
spani	-12.7787
nger	-12.7789
pear	-12.7801
zubereit	-12.7805
Car	-12.7807
gesägt	-12.7813
▁toll	-12.7813
▁attache	-12.7814
inirock	-12.7816
mische	-12.7817
▁led	-12.7826
▁Männerteam	-12.7832
aux	-12.7832
con	-12.7838
▁rodel	-12.7838
▁tr	-12.7841
ucher	-12.7842
▁helper	-12.7842
▁Nu	-12.7849
dünnen	-12.7857
steig	-12.7861
▁Schwimmern	-12.7868
▁Je	-12.787
cura	-12.789
▁Medaille	-12.7898
▁gegrillte	-12.7902
▁arabi	-12.7903
▁scar	-12.7906
▁niedrig	-12.7907
site	-12.7908
▁sole	-12.7927
▁Flughafens	-12.7933
▁Rennautos	-12.7943
▁erzeug	-12.7961
▁betrunken	-12.7972
▁Wasserstrahl	-12.7973
▁Par	-12.7979
▁herrlich	-12.7981
farbige	-12.7988
▁neugierige	-12.8003
▁involve	-12.8003
▁Ges	-12.8004
▁verziert	-12.8014
startet	-12.8019
arkt	-12.8028
stiefel	-12.8054
▁cheerful	-12.8056
▁trumpets	-12.8064
akeup	-12.8075
▁Wie	-12.8082
▁gebogene	-12.809
▁Kanals	-12.8094
▁beginnende	-12.81
check	-12.8106
▁Bed	-12.8109
gepackte	-12.8137
klappe	-12.814
▁Deutsch	-12.814
▁Schwimmbrillen	-12.8142
▁Schn	-12.8147
▁Sitze	-12.8162
addresses	-12.8163
▁ran	-12.8168
lipper	-12.8169
onder	-12.817
kisten	-12.8184
▁eigen	-12.8196
over	-12.8204
opilot	-12.8204
▁Kirchen	-12.8217
pa	-12.8224
katze	-12.8225
▁mes	-12.8226
▁Rings	-12.8247
▁cal	-12.8254
orb	-12.8254
▁Gu	-12.8256
pflege	-12.8258
tail	-12.8263
hend	-12.8268
▁senkrechte	-12.8273
▁informell	-12.8275
reif	-12.8278
▁blown	-12.8299
Trockner	-12.8338
powered	-12.8353
▁tu	-12.8366
watch	-12.8379
▁rotweiß	-12.8385
▁pane	-12.8394
vat	-12.8401
lucht	-12.8411
▁Schlägern	-12.8412
issen	-12.8415
▁prop	-12.8421
▁besonder	-12.8425
Wh	-12.8428
quir	-12.8429
some	-12.8434
▁trade	-12.8435
▁hurdles	-12.8436
▁lose	-12.8439
▁üppig	-12.8453
ear	-12.8458
▁ally	-12.8467
maus	-12.847
▁launche	-12.8471
▁Kick	-12.8472
▁Bekannte	-12.8487
ieht	-12.8495
▁keyboards	-12.8499
▁ä	-12.8522
▁Wasserfalls	-12.853
▁schür	-12.853
ylons	-12.8537
▁ye	-12.8558
drücken	-12.8563
▁fro	-12.8565
rheb	-12.8568
lli	-12.8578
iner	-12.8591
abe	-12.8594
▁Pull	-12.8612
inky	-12.8615
▁Kle	-12.8617
nchen	-12.8629
IG	-12.8636
bbing	-12.8643
idday	-12.8649
▁reci	-12.8653
▁To	-12.8665
Militäruniformen	-12.8674
einer	-12.8681
▁Ki	-12.8685
gge	-12.8691
EL	-12.8696
fallen	-12.8697
take	-12.8701
frischen	-12.871
flip	-12.8711
▁angeleinte	-12.8736
[...]
